<unk>	0
<s>	0
</s>	0
▁ꯑꯁꯤ	-3.73022
ꯒꯤ	-3.89657
▁ꯑꯗꯨ	-4.07148
ꯗ	-4.36828
▁ꯑꯃ	-4.42538
?	-4.43111
▁ꯑꯃꯁꯨꯡ	-4.55264
▁ꯑꯩꯅ	-4.57197
▁ꯅꯍꯥꯛꯅ	-4.6062
ꯅ	-4.62347
▁ꯇꯣꯝꯅ	-4.79352
▁ꯑꯩ	-4.85216
,	-4.86293
▁ꯃꯁꯤ	-4.93795
▁ꯍꯥꯏꯅ	-5.02682
▁ꯃꯍꯥꯛꯀꯤ	-5.03303
ꯁꯤꯡ	-5.16225
▁ꯌꯥꯝꯅ	-5.20084
▁ꯃꯍꯥꯛꯅ	-5.21206
▁꯫	-5.25138
-	-5.26229
.	-5.29978
▁ꯇꯣꯝ	-5.30882
꯫	-5.31144
▁	-5.31197
ꯗꯒꯤ	-5.39236
▁ꯃꯍꯥꯛ	-5.42926
▁ꯑꯩꯈꯣꯏꯅ	-5.46232
▁ꯑꯩꯒꯤ	-5.46869
▁ꯂꯩꯕ	-5.49591
▁ꯑꯩꯉꯣꯟꯗ	-5.58548
▁ꯃꯐꯝ	-5.59278
▁ꯑꯗꯨꯗ	-5.64209
▁ꯏꯪ	-5.66611
▁ꯃꯇꯝ	-5.66644
▁ꯊꯕꯛ	-5.70921
▁ꯃꯇꯝꯗ	-5.71271
▁ꯃꯤꯑꯣꯏ	-5.75294
▁ꯍꯦꯟꯅ	-5.75311
ꯀꯤ	-5.77767
▁ꯅꯍꯥꯛꯀꯤ	-5.78414
▁ꯑꯣꯏꯅ	-5.79079
▁ꯃꯍꯥꯛꯄꯨ	-5.8121
▁ꯃꯇꯥꯡꯗ	-5.84727
▁ꯃꯗꯨ	-5.88359
ꯕ	-5.90229
ꯅꯤ꯫	-5.9072
▁ꯑꯃꯅꯤ꯫	-5.90856
ꯁ	-5.92179
▁ꯀꯔꯤꯒꯨꯝꯕ	-5.94472
▁ꯑꯣꯏꯕ	-5.94977
ꯇ	-5.96888
▁ꯂꯩ꯫	-5.98954
▁ꯇꯧꯕ	-5.99565
▁ꯑꯗꯨꯅ	-6.00128
▁ꯑꯁꯤꯗ	-6.02551
▁ꯍꯧꯖꯤꯛ	-6.04743
ꯒ	-6.05728
ꯅꯤ	-6.08456
▁ꯀꯔꯤ	-6.1097
▁ꯅꯍꯥꯛ	-6.1121
▁ꯑꯃꯠꯇ	-6.11223
▁ꯍꯥꯏꯕꯗꯨ	-6.13793
▁ꯑꯗꯨꯕꯨ	-6.13943
▁ꯍꯥꯏꯕ	-6.16335
▁ꯑꯃꯅꯤ	-6.16661
▁ꯂꯣꯏꯅꯅ	-6.18005
▁ꯃꯁꯤꯒꯤ	-6.21762
▁ꯐꯥꯎꯕ	-6.23989
▁ꯑꯃꯗ	-6.2498
▁ꯑꯗꯨꯒꯤ	-6.25505
▁ꯑꯇꯣꯞꯄ	-6.27907
▁ꯈ꯭ꯋꯥꯏ	-6.28156
▁ꯌꯥꯏ꯫	-6.2942
▁ꯀꯌꯥ	-6.31396
ꯕꯨ	-6.34246
▁ꯃꯇꯨꯡꯗ	-6.34959
▁ꯄꯨꯝꯅꯃꯛ	-6.35193
▁ꯄꯥꯝꯃꯤ꯫	-6.36976
ꯈꯤ꯫	-6.38996
▁ꯃꯊꯧ	-6.39414
▁ꯈꯔ	-6.39658
▁ꯃꯇꯦꯡ	-6.4289
▁ꯑꯩꯈꯣꯏ	-6.43684
▁ꯆꯍꯤ	-6.44843
▁ꯅꯠꯇ꯭ꯔꯒ	-6.44975
▁ꯃꯅꯨꯡꯗ	-6.45245
▁ꯋꯥꯔꯤ	-6.45831
ꯁꯤꯡꯒꯤ	-6.49515
▁ꯂꯩ	-6.51516
ꯒꯤꯗꯃꯛ	-6.53125
▁ꯃꯈꯣꯏꯅ	-6.5472
▁ꯑꯩꯍꯥꯛꯅ	-6.54721
ꯠ	-6.54933
▁ꯃꯃꯥꯡꯗ	-6.5673
▁ꯑꯩꯈꯣꯏꯒꯤ	-6.59734
▁ꯃꯔꯝ	-6.61714
▁ꯃꯈꯣꯏꯒꯤ	-6.62382
ꯗꯤ	-6.62559
ꯜ	-6.63379
ꯔ	-6.66079
▁ꯍꯥꯏꯈꯤ꯫	-6.66409
▁ꯇꯁꯦꯡꯅ	-6.66882
▁"	-6.68245
ꯅꯣ	-6.68247
▁ꯑꯃꯅ	-6.68583
▁ꯏ	-6.6968
▁ꯅꯉꯣꯟꯗ	-6.70614
ꯛ	-6.71667
▁ꯅꯨꯃꯤꯠ	-6.72719
ꯁꯤ	-6.73076
ꯁꯤꯡꯅ	-6.73332
ꯟ	-6.73532
ꯁꯨ	-6.75897
ꯝ	-6.76687
ꯗꯨꯅ	-6.79015
▁ꯆꯠꯄ	-6.79218
▁ꯀꯔꯝꯅ	-6.79801
▁ꯑꯃꯨꯛ	-6.8018
▁ꯃꯃꯤꯡ	-6.80771
ꯁꯤꯡꯗ	-6.8184
▁ꯍꯟꯅ	-6.83683
▁ꯑꯍꯥꯟꯕ	-6.83956
!	-6.84012
▁ꯄꯨꯛꯅꯤꯡ	-6.84047
▁ꯁꯍꯔ	-6.85759
▁ꯀꯔꯤꯒꯤ	-6.85964
▁ꯃꯈꯣꯏ	-6.87448
▁ꯃꯉꯣꯟꯗ	-6.87924
ꯅꯕ	-6.88721
▁ꯂꯩꯇꯦ꯫	-6.8936
▁ꯀꯅꯥꯒꯨꯝꯕ	-6.89393
▁ꯅꯍꯥꯛꯄꯨ	-6.90181
▁ꯑꯁꯤꯅ	-6.91751
▁ꯀꯩꯗꯧꯉꯩꯗ	-6.94396
▁ꯇꯣꯝꯕꯨ	-6.94461
▁ꯑꯣꯏꯈꯤ꯫	-6.95064
▁ꯇꯥꯏ꯫	-6.95649
ꯔꯤ	-6.96606
▁ꯇꯧꯈꯤ꯫	-6.97544
▁ꯊꯪꯕ	-6.9763
ꯂꯤ	-6.97704
▁ꯑꯃꯒꯤ	-6.97912
▁ꯎꯕ	-6.97937
▁ꯑꯅꯧꯕ	-6.99222
▁ꯃꯦꯔꯤꯅ	-6.99277
▁ꯊꯨꯅ	-6.99687
▁ꯑꯦ	-7.00389
▁ꯑꯁꯤꯒꯤ	-7.00417
▁ꯐꯖꯅ	-7.00438
▁ꯇꯣꯝꯒꯤ	-7.00525
ꯖ	-7.03227
ꯏ	-7.04592
▁ꯌꯥꯒꯗ꯭ꯔꯥ	-7.05508
▁ꯉꯁꯤ	-7.07268
▁ꯃꯈꯣꯏꯕꯨ	-7.07861
▁ꯑꯣꯏ꯫	-7.0907
▁ꯌꯨꯝꯗ	-7.09279
▁ꯑꯣꯐ	-7.09605
▁ꯁꯥ	-7.09785
▁ꯍꯥꯏꯔꯤꯕ	-7.10011
▁ꯑꯆꯧꯕ	-7.10386
▁ꯄꯨꯝꯅꯃꯛꯇ	-7.10716
▁ꯌꯥꯏ	-7.1073
▁ꯑꯅꯤ	-7.10899
▁ꯀꯥꯔ	-7.11085
▁ꯂꯥꯏꯔꯤꯛ	-7.11611
▁ꯃꯤ	-7.12988
"	-7.14264
▁ꯁꯤ	-7.15853
▁ꯇꯣꯝꯗ	-7.1605
▁ꯇꯧꯏ꯫	-7.16593
▁ꯑꯗꯨꯒ	-7.16734
▁ꯁꯦꯜ	-7.17284
▁ꯅꯨꯡꯉꯥꯏꯕ	-7.17387
▁ꯃꯗꯨꯒꯤ	-7.17615
▁ꯌꯨ	-7.17896
▁ꯋꯥꯐꯝ	-7.19599
▁ꯎ	-7.20959
▁ꯁꯔꯨꯛ	-7.21069
▁ꯏꯁꯩ	-7.21154
▁ꯂꯥꯛꯄ	-7.22088
▁ꯄꯤꯈꯤ꯫	-7.22989
▁ꯅꯠꯇꯦ꯫	-7.2299
▁ꯗ	-7.23411
▁ꯍꯥꯏꯕꯁꯤ	-7.2352
▁ꯈꯪꯕ	-7.23777
▁ꯗꯤ	-7.25221
꯭ꯔꯥ	-7.26985
ꯗꯦ	-7.27295
ꯇꯤ	-7.27817
▁ꯑꯐꯕ	-7.279
▁ꯃꯑꯣꯡ	-7.28101
▁ꯅꯨꯄꯤ	-7.28316
▁ꯑꯃꯒ	-7.2871
ꯗꯦ꯫	-7.2936
▁ꯃꯔꯤ	-7.29422
▁ꯀꯔꯝꯕ	-7.2947
ꯔꯥ	-7.29847
▁ꯑꯉꯥꯡ	-7.30414
▁ꯆꯥꯅ	-7.31074
ꯕꯤ	-7.31655
▁ꯆꯞ	-7.31799
▁ꯉꯝꯗꯦ꯫	-7.3182
▁ꯀꯥ	-7.32029
ꯒꯦ	-7.33447
▁ꯐꯕ	-7.33676
▁ꯇꯧꯅꯕ	-7.33899
▁ꯂꯩꯈꯤ꯫	-7.34431
▁ꯃꯁꯤꯅ	-7.34572
▁ꯄꯨꯡ	-7.35379
▁ꯋꯥꯈꯜꯂꯣꯟ	-7.36602
▁ꯌꯨꯝ	-7.36996
ꯀ	-7.37119
▁ꯃꯔꯛꯇ	-7.3731
▁ꯃꯇꯤꯛ	-7.37831
▁ꯊꯥꯖꯕ	-7.38021
ꯊ	-7.38031
▁ꯀꯌꯥꯝ	-7.38197
▁ꯆꯠꯈꯤ꯫	-7.3881
▁ꯃꯦꯔꯤ	-7.38894
▁ꯑꯍꯨꯝ	-7.39332
▁ꯂꯩꯕꯥꯛ	-7.39734
▁ꯆꯥꯟꯕꯤꯗꯨꯅ	-7.40025
▁ꯅꯠꯇ꯭ꯔꯥ	-7.40256
ꯈꯤ	-7.40371
▁ꯆꯥꯎꯔꯥꯛꯅ	-7.40764
▁ꯀꯗꯥꯏꯗ	-7.41272
ꯅꯥ	-7.42034
▁ꯑ	-7.42037
▁ꯄꯤꯕ	-7.42594
▁ꯈꯜꯂꯤ꯫	-7.42706
▁ꯊꯥ	-7.43115
▁ꯂꯩꯔꯤ꯫	-7.43168
▁ꯃꯔꯨꯑꯣꯏꯕ	-7.4349
▁ꯌꯥꯕ	-7.44002
▁ꯃꯄꯨꯡ	-7.44325
▁ꯕꯣꯁꯇꯟꯗ	-7.45271
▁ꯑꯣꯏꯗꯨꯅ	-7.45407
▁ꯄꯤ	-7.45881
▁ꯂꯩꯔꯤꯕ	-7.46072
▁ꯍꯥꯏ	-7.46215
▁ꯃꯃꯤ	-7.4729
▁ꯑꯣꯏ	-7.47626
▁ꯈꯪꯗꯦ꯫	-7.47718
ꯞ	-7.4794
▁ꯆꯥꯕ	-7.48491
▁ꯃꯈꯥꯗ	-7.4866
▁ꯂꯩꯔꯝꯃꯤ꯫	-7.48694
▁ꯊꯧꯔꯥꯡ	-7.4943
▁ꯄꯥꯝꯗꯦ꯫	-7.49688
ꯡ	-7.50314
▁ꯂꯥꯏ	-7.50404
▁ꯇꯥꯕ	-7.50709
ꯒꯅꯤ꯫	-7.50747
▁ꯉꯔꯥꯡ	-7.51259
▁ꯃꯍꯥꯛꯀ	-7.51888
▁ꯑꯩꯈꯣꯏꯗ	-7.52354
▁ꯑꯋꯥꯡ	-7.52671
▁ꯈꯨꯗꯣꯡꯆꯥꯗꯕ	-7.5287
▁ꯃꯅꯥꯛꯇ	-7.52911
ꯁꯀꯤ	-7.52918
▁ꯅꯨꯡꯉꯥꯏꯇꯕ	-7.5293
ꯤꯌꯨ꯫	-7.5328
▁ꯏꯁꯤꯡ	-7.53819
▁ꯋꯥꯍꯩ	-7.53986
ꯤ	-7.5408
▁ꯌꯨꯅꯥꯏꯇꯦꯗ	-7.54131
▁ꯄꯨꯟꯁꯤ	-7.54441
▁ꯃꯔꯨꯞ	-7.55294
▁ꯐꯣꯟ	-7.55759
ꯈ꯭ꯔꯦ꯫	-7.55966
ꯗꯕ	-7.5601
▁ꯂꯩꯕ꯭ꯔꯥ	-7.56244
▁ꯅꯪ	-7.56599
▁ꯑꯆꯨꯝꯕ	-7.57138
▁ꯑꯩꯕꯨ	-7.58572
▁ꯊꯣꯡ	-7.59498
▁ꯃꯁꯥ	-7.5956
▁ꯂꯝꯕꯤ	-7.59595
▁ꯑꯦꯟ	-7.59673
▁ꯃꯈꯥ	-7.60162
▁ꯀꯤ	-7.60164
▁ꯁꯦꯝ	-7.60488
▁ꯂꯩꯔꯦ꯫	-7.60836
▁ꯑꯌꯥꯝꯕ	-7.61284
ꯒꯨꯝꯅ	-7.61776
▁ꯑꯋꯥꯕ	-7.62164
ꯃꯤ	-7.62417
▁ꯃꯈꯣꯏꯗ	-7.62496
▁ꯈꯪꯏ꯫	-7.62724
▁ꯃꯃꯜ	-7.62926
ꯔꯦ	-7.63102
ꯆ	-7.63368
▁ꯐꯪꯈꯤ꯫	-7.63559
▁ꯐꯪꯏ꯫	-7.63739
▁ꯃꯇꯨꯡ	-7.64518
▁ꯄꯥꯎ	-7.65182
▁ꯑꯣ	-7.65459
ꯂꯦ	-7.6592
ꯂꯥ	-7.66166
▁ꯃꯦ	-7.66261
▁ꯍꯧꯈꯤꯕ	-7.66347
▁ꯂꯣꯟ	-7.66711
▁ꯈꯨꯗꯤꯡꯒꯤ	-7.67382
ꯇꯔ	-7.67527
▁ꯀꯟꯅ	-7.67551
▁ꯀꯝꯃ꯭ꯌꯨꯟ	-7.68162
▁ꯄꯥꯎꯈꯨꯝ	-7.6936
▁ꯃꯩ	-7.69401
▁ꯑꯣꯏꯔꯤꯕ	-7.69486
▁ꯑꯁꯤꯒꯨꯝꯕ	-7.6975
▁ꯉꯝꯈꯤꯗꯦ꯫	-7.70059
▁ꯅꯨꯄꯥ	-7.70093
▁ꯀꯔꯤꯅꯣ	-7.70398
▁ꯀꯨꯝꯍꯩ	-7.70406
▁ꯑꯔꯣꯏꯕ	-7.70605
▁ꯐꯠꯇꯕ	-7.70757
▁ꯆꯥꯡ	-7.70809
▁ꯇꯥꯈꯤ꯫	-7.71245
▁ꯃꯍꯧꯁꯥꯅ	-7.71372
▁ꯂꯧꯈꯤ꯫	-7.71387
▁ꯈꯥ	-7.72059
▁ꯐꯥꯎꯕꯗ	-7.72542
▁ꯇꯥꯏ	-7.72691
▁ꯃꯊꯛꯇ	-7.72763
▁ꯀꯦ	-7.72881
▁ꯃꯃꯥ	-7.73234
▁ꯁꯔꯨꯛꯇ	-7.736
▁ꯉꯥꯡꯕ	-7.74315
ꯄꯤ	-7.74434
ꯈꯤꯗꯦ꯫	-7.74564
▁ꯁꯥꯕ	-7.7468
ꯇꯥ	-7.75012
▁ꯐ꯭ꯔꯦꯟꯆ	-7.75192
▁ꯂꯧꯕ	-7.75309
ꯒꯗꯕꯅꯤ꯫	-7.76269
▁ꯆꯠꯂꯤ꯫	-7.76465
▁ꯑꯁꯣꯏꯕ	-7.76649
▁ꯇꯥ	-7.77623
▁ꯆꯥꯛ	-7.77871
▁ꯑꯣꯏꯈꯤ	-7.77873
▁ꯃꯦꯔꯤꯗ	-7.78328
▁ꯃꯊꯪ	-7.78432
▁ꯐꯪꯕ	-7.78714
▁ꯋꯥ	-7.78716
▁ꯈꯛꯇꯃꯛ	-7.78893
ꯁꯟ	-7.78922
▁ꯀꯧꯕ	-7.79398
▁ꯏꯟꯅ	-7.79401
▁ꯄꯥꯎꯇꯥꯛ	-7.79629
▁ꯁꯤꯖꯤꯟꯅꯕ	-7.79873
▁ꯇꯤꯝ	-7.79934
▁ꯍꯥꯏꯕꯤꯌꯨ꯫	-7.80127
▁ꯆꯥ	-7.80809
▁꯱꯸	-7.80919
ꯑꯦꯁ	-7.8106
▁ꯃꯥꯟꯅꯕ	-7.81219
▁ꯑꯄꯤꯛꯄ	-7.8132
▁ꯈꯟꯈꯤ꯫	-7.81396
▁ꯂꯩꯕꯒꯦ	-7.81504
▁ꯏꯟ	-7.81537
▁ꯃꯤꯌꯥꯝꯅ	-7.81538
ꯂꯣ	-7.81579
▁ꯂꯩꯅꯕ	-7.81584
ꯐ	-7.82453
▁ꯄꯨꯟꯅ	-7.82929
ꯇꯣ	-7.82963
▁ꯉꯝꯂꯣꯏ꯫	-7.83233
ꯏ꯫	-7.83697
▁ꯐ꯭ꯔꯥꯟꯁꯀꯤ	-7.83911
▁ꯅꯣꯡ	-7.83987
▁ꯋꯥꯔꯦꯞ	-7.84186
▁ꯁꯦꯟ	-7.84454
▁ꯏꯪꯂꯤꯁ	-7.84495
ꯅꯤꯡꯉꯥꯏ	-7.84695
▁ꯆꯥꯎꯕ	-7.84861
▁ꯄꯣꯠ	-7.85207
ꯁꯇ	-7.8568
▁ꯑꯗꯨꯗꯒꯤ	-7.85982
▁ꯃꯑꯣꯡꯗ	-7.86956
▁ꯃꯈꯜ	-7.87279
▁ꯇꯤ	-7.87317
▁ꯇꯔꯥ	-7.87332
▁ꯑꯔꯣꯏꯕꯗ	-7.87337
ꯃꯥ	-7.87815
▁ꯐꯤꯕꯝ	-7.88108
ꯔꯣ	-7.88499
ꯄꯨ	-7.89038
▁ꯆꯠꯅꯕ	-7.89144
▁ꯑꯔꯤꯕ	-7.89179
▁ꯍꯨꯏ	-7.89757
▁ꯃꯥꯏꯄꯥꯛꯄ	-7.89813
ꯕ꯭ꯔꯥ	-7.89927
▁ꯃꯍꯩ	-7.89955
ꯤꯡ	-7.90286
▁ꯑꯔꯨꯕ	-7.90496
ꯑꯣ	-7.91
ꯇꯨꯅ	-7.91066
▁ꯅ꯭ꯌꯨ	-7.91346
▁ꯔꯤ	-7.91526
ꯂꯤ꯫	-7.91593
ꯒꯅꯤ	-7.91656
▁ꯏꯃꯨꯡ	-7.91664
▁ꯑꯁꯨꯝꯅ	-7.91664
▁ꯁꯥꯅꯕ	-7.91981
▁ꯅꯠꯇꯦ	-7.92117
▁ꯄꯥꯡꯕ	-7.92156
▁ꯀꯔꯤꯃꯠꯇ	-7.92319
▁ꯋꯥꯍꯪ	-7.92725
▁ꯈꯪꯕ꯭ꯔꯥ	-7.92805
▁ꯑꯣꯏꯔꯝꯃꯤ꯫	-7.92812
▁ꯏꯕ	-7.93603
ꯔꯛ	-7.93642
▁ꯊꯧꯔꯝ	-7.93649
▁ꯄꯥꯔꯇꯤ	-7.93769
▁ꯎꯈꯤ꯫	-7.94004
▁ꯑꯣꯏꯔꯝꯕ	-7.94022
▁ꯃꯁꯤꯗ	-7.94045
▁ꯊꯥꯖꯩ꯫	-7.94257
▁ꯅꯨꯡꯁꯤꯕ	-7.94981
▁ꯈꯨꯗꯝ	-7.95
▁ꯇꯥꯛꯄ	-7.95259
▁ꯂꯤ	-7.95269
▁ꯃꯄꯥꯟꯗ	-7.95322
▁ꯃꯔꯝꯗꯤ	-7.95352
▁ꯃꯦꯔꯤꯕꯨ	-7.95561
▁ꯑꯃꯠꯇꯅ	-7.9573
ꯅꯦ	-7.95858
▁ꯇꯣꯝꯒ	-7.95914
▁ꯃꯗꯨꯗꯤ	-7.96065
▁ꯋꯥꯈꯜ	-7.96318
▁ꯐꯖꯔꯕ	-7.96349
ꯒꯨꯝ	-7.966
▁ꯃꯦꯔꯤꯒꯤ	-7.97166
▁ꯂꯥꯏꯅ	-7.97219
ꯀꯥ	-7.97263
▁ꯅꯍꯥ	-7.97698
▁ꯂꯥꯞꯅ	-7.97717
ꯀꯦ	-7.97784
▁ꯐꯥꯅ	-7.97919
▁ꯄꯥꯝꯃꯤ	-7.98041
▁ꯁ꯭	-7.98741
▁ꯀꯅꯥꯅ	-7.99444
▁ꯐꯩ꯫	-7.99453
ꯀꯣ	-7.99545
ꯄꯨꯝ	-7.99839
ꯚꯤ	-8.00133
ꯂꯕ	-8.0041
▁ꯂꯩꯇꯕ	-8.00496
▁ꯇꯥꯅ	-8.00593
▁ꯆꯨꯞꯄ	-8.00597
ꯍꯟꯈꯤ꯫	-8.00978
▁ꯅꯥ	-8.0152
▁ꯑꯅꯤꯁꯨꯕ	-8.01657
▁ꯑꯁꯨꯛ	-8.01895
ꯁꯦ	-8.01916
▁ꯆꯦ	-8.02077
ꯖꯤ	-8.02224
ꯇꯦ	-8.02266
▁ꯇꯝꯕ	-8.02316
ꯒꯨꯝꯕ	-8.02696
▁ꯃꯌꯦꯛ	-8.02909
▁ꯇꯧꯈꯤ	-8.02965
▁ꯃꯁꯥꯒꯤ	-8.03104
▁ꯍꯥꯏꯈꯤ	-8.03347
ꯌꯔ	-8.03454
▁ꯑꯌꯥꯝꯕꯅ	-8.03497
▁ꯅꯍꯥꯛꯀ	-8.03643
▁ꯍꯦ	-8.04009
▁ꯗꯦ	-8.04384
▁ꯑꯁꯦꯡꯕ	-8.04543
▁ꯐꯥꯎ	-8.04588
▁ꯕꯦ	-8.04601
▁ꯃꯆꯨ	-8.04902
ꯑꯦ	-8.05776
ꯁꯥ	-8.05793
?"	-8.06296
▁ꯑꯣꯖꯥ	-8.06415
▁ꯂꯝꯗꯝꯗ	-8.06769
▁ꯃꯔꯥꯜ	-8.07247
▁ꯀꯥꯡꯂꯨꯞ	-8.07306
▁ꯈꯨꯗꯤꯡꯃꯛꯅ	-8.07448
▁ꯀꯣ	-8.07463
▁ꯈꯨꯗꯤꯡꯃꯛ	-8.07761
▁ꯇꯨꯔꯦꯜ	-8.07858
▁ꯂꯥꯛꯈꯤ꯫	-8.07895
▁ꯂꯥꯟ	-8.07916
▁ꯄꯣꯠꯁꯤꯡ	-8.08108
▁ꯍꯌꯦꯡ	-8.08233
▁ꯉꯝꯕ	-8.08248
▁ꯌꯥ	-8.08433
▁ꯁꯦꯝꯕ	-8.08692
ꯃꯦꯟ	-8.09245
▁ꯀꯨꯏꯅ	-8.09374
ꯁꯤꯡꯒ	-8.09378
▁ꯃꯥꯏꯀꯩꯗ	-8.09859
▁ꯆꯌꯣꯜ	-8.10051
▁ꯂꯥꯟꯅ	-8.10071
▁ꯁꯦ	-8.10242
▁ꯗꯤꯄꯥꯔꯠꯃꯦꯟꯠꯀꯤ	-8.10399
▁ꯍꯥꯏꯈꯤꯕ	-8.10726
▁ꯄꯥꯡꯅꯕ	-8.10934
ꯈꯤꯕ	-8.11129
▁ꯃꯆꯥꯅꯨꯄꯥ	-8.11203
▁꯱꯹	-8.11597
▁ꯅꯨꯡꯉꯥꯏꯅ	-8.11716
▁ꯑꯥꯔ	-8.12059
▁ꯃꯊꯟꯇ	-8.1224
▁ꯑꯦꯁ	-8.12242
▁ꯈꯣꯡ	-8.12678
▁ꯂꯩꯈꯤꯗꯦ꯫	-8.12693
▁ꯃꯗꯨꯅ	-8.12765
ꯃꯦ	-8.12891
ꯄ	-8.12953
▁ꯈꯔꯒꯤ	-8.13283
▁ꯆꯤꯟꯖꯥꯛ	-8.13951
▁ꯂꯧꯁꯤꯡ	-8.14119
▁ꯃꯥꯂꯦꯝꯒꯤ	-8.14215
▁ꯈꯣꯟꯖꯦꯜ	-8.14428
▁ꯑꯅꯤꯃꯛ	-8.1453
▁ꯑꯗꯨꯝ	-8.1459
▁ꯇꯧꯔꯤꯕ	-8.14772
▁ꯒꯥꯔꯤ	-8.14857
▁ꯇꯧꯒꯅꯤ	-8.14911
▁ꯗꯣꯛꯇꯔ	-8.15003
▁ꯉꯝꯃꯤ꯫	-8.15055
▁ꯅꯨꯄꯥꯃꯆꯥ	-8.15102
▁ꯖꯣꯟ	-8.1522
▁ꯁꯣ	-8.15361
ꯤꯌꯨ	-8.15521
▁ꯅꯨꯃꯤꯗꯥꯡꯗ	-8.16331
▁ꯇꯥꯗꯦ꯫	-8.16354
▁ꯑꯗꯨꯒꯤꯗꯃꯛ	-8.1646
▁ꯇꯧꯒꯗꯒꯦ	-8.16509
ꯁꯤꯡꯕꯨ	-8.16523
▁ꯅꯨꯃꯤꯠꯇ	-8.16633
▁ꯎꯅꯕ	-8.16758
▁ꯄꯤꯅꯕ	-8.17128
▁ꯃꯤꯅꯤꯠ	-8.1717
ꯇꯒꯤ	-8.17199
▁ꯃꯥꯌꯣꯛꯇ	-8.17422
▁ꯈꯟꯕ	-8.17545
▁ꯑꯍꯥꯟꯕꯗ	-8.17849
▁ꯐꯤ	-8.18113
▁ꯂꯥ	-8.1833
▁ꯑꯥꯏ	-8.18482
▁ꯄꯥꯝꯕ꯭ꯔꯥ	-8.18567
▁ꯂꯩꯇꯦ	-8.19472
▁ꯊꯣꯛꯄ	-8.19758
▁ꯄꯦ	-8.20273
▁ꯇꯧꯈꯤꯕ	-8.20482
▁ꯍꯧꯈꯤ꯫	-8.20579
▁ꯁ꯭ꯇꯦꯠꯁꯀꯤ	-8.20622
ꯗ꯭ꯔꯥ	-8.20651
▁ꯀꯥꯎꯟꯇꯤ	-8.20999
▁ꯔꯦ	-8.2119
▁ꯃꯄꯥꯟ	-8.21504
▁ꯍꯧꯅ	-8.21634
▁ꯃꯥꯏ	-8.21756
▁ꯈꯨꯗꯣꯡꯊꯤꯅꯤ	-8.21912
▁ꯈꯪꯈꯤ꯫	-8.22099
▁꯲	-8.22431
▁ꯅꯈꯣꯏ	-8.22888
ꯡꯉꯥꯏ	-8.2311
▁ꯂꯩꯔꯝꯃꯤ	-8.23147
▁ꯃꯥꯏꯊꯤꯕ	-8.23155
ꯂꯦ꯫	-8.2336
ꯂꯔ	-8.23669
▁ꯃꯄꯥ	-8.23982
▁ꯑꯩꯍꯥꯛꯀꯤ	-8.24122
▁ꯄꯥꯝꯖꯕ	-8.24258
▁ꯄꯥꯝꯈꯤ꯫	-8.24444
▁ꯊꯧꯗꯥꯡ	-8.24995
ꯂꯨ	-8.25062
▁ꯂꯝ	-8.25674
▁ꯆꯤꯡ	-8.25924
▁ꯌꯦꯡꯕ	-8.2679
▁ꯈꯨꯗꯣꯡꯆꯥꯕ	-8.26861
▁ꯅꯨꯡꯉꯥꯏꯇꯦ꯫	-8.26895
▁ꯕꯤ	-8.26947
▁ꯇꯣꯉꯥꯟ	-8.27253
▁ꯑꯀꯣꯏꯕꯗ	-8.27462
▁ꯁ꯭ꯀꯨꯜ	-8.27564
▁ꯇꯞꯅ	-8.27847
ꯍꯜꯂꯤ꯫	-8.28008
▁ꯂꯣ	-8.28188
▁ꯑꯍꯜ	-8.28406
▁ꯊꯧꯗꯣꯛ	-8.28442
▁ꯅꯪꯕꯨ	-8.28559
▁ꯇꯧꯔꯤ꯫	-8.28742
▁ꯀꯝꯄꯅꯤ	-8.29142
ꯃ	-8.29259
▁ꯄꯥꯝꯕꯩ	-8.29333
▁ꯂꯧ	-8.29405
▁ꯊꯛꯄ	-8.29444
▁ꯄꯥ	-8.29672
ꯒꯗ꯭ꯔꯥ	-8.29672
▁ꯁ꯭ꯀꯨꯜꯗ	-8.29886
ꯛꯀꯤ	-8.30043
ꯒꯗꯕ	-8.30175
▁ꯁꯦꯟꯐꯝ	-8.3022
▁ꯉꯝꯒꯅꯤ	-8.30452
ꯍꯟꯕ	-8.30487
▁ꯊꯤꯕ	-8.30508
▁ꯑꯔꯥꯟꯕ	-8.30654
▁ꯊꯝꯕ	-8.30763
ꯗꯥ	-8.30847
▁ꯍꯣꯠꯅꯈꯤ꯫	-8.30849
▁ꯇ꯭ꯔꯦꯟ	-8.30895
ꯁꯠ	-8.31142
▁ꯄꯥꯝꯂꯤꯕ	-8.31753
▁ꯆꯤꯊꯤ	-8.31843
▁ꯍꯥꯏꯕꯒꯤ	-8.32343
▁ꯍꯛꯆꯥꯡ	-8.32376
▁ꯅꯤꯡꯊꯧ	-8.32441
▁ꯅꯨꯡꯊꯤꯜꯒꯤ	-8.32586
ꯍꯟꯅꯕ	-8.32683
▁ꯃꯁꯤꯡ	-8.32795
▁ꯃꯣ	-8.32933
▁ꯗꯦꯟꯅ	-8.33082
▁ꯄꯨꯊꯣꯛꯄ	-8.33257
ꯁꯅ	-8.33274
▁ꯍꯥꯏꯅꯕ	-8.33527
▁ꯃꯥꯂꯦꯝ	-8.33646
ꯌꯥ	-8.33755
▁ꯈꯟꯕ꯭ꯔꯥ	-8.34213
▁ꯂꯂꯣꯟ	-8.34333
▁ꯃꯇꯝꯒꯤ	-8.34712
ꯇꯣꯉꯥꯟꯕ	-8.34712
▁ꯉꯥ	-8.34731
▁ꯄꯥꯔꯛ	-8.34905
▁ꯆꯪꯕ	-8.35207
▁ꯊꯥꯗꯣꯛꯄ	-8.35234
▁ꯇꯨ	-8.3558
▁ꯀꯟꯕ	-8.35729
▁ꯑꯃꯍꯦꯛꯇ	-8.35752
ꯔꯝꯃꯤ꯫	-8.35787
▁ꯂꯦ	-8.35794
▁ꯇꯨꯝ	-8.36038
▁ꯇꯣꯏꯅ	-8.36324
▁ꯖꯦ	-8.36429
▁ꯃꯍꯩꯔꯣꯏ	-8.36771
▁ꯌꯦꯡꯈꯤ꯫	-8.3684
▁ꯈꯨꯠ	-8.36895
▁ꯐꯝ	-8.37223
▁ꯑꯗꯨꯅꯤ꯫	-8.37229
ꯕꯔ	-8.37393
▁ꯐꯅ	-8.37978
▁ꯅꯦꯁꯅꯦꯜ	-8.38075
▁ꯃꯈꯣꯏꯒ	-8.38136
▁ꯄꯥꯛ	-8.38248
▁ꯃꯀꯣꯛ	-8.38748
▁ꯍꯤ	-8.38832
▁ꯇꯧꯔꯕ	-8.39025
▁ꯇꯣꯞ	-8.39125
▁ꯂꯥꯏꯕꯛ	-8.39437
▁ꯍꯥꯏ꯫	-8.39725
▁ꯍꯥꯟꯅ	-8.3974
ꯈ꯭ꯔꯦ	-8.39786
▁ꯅꯠꯇꯅ	-8.39853
ꯗꯣ	-8.39991
ꯂꯝꯃꯤ꯫	-8.40026
▁ꯅꯨꯃꯤꯗꯥꯡ	-8.40157
▁ꯔꯣ	-8.40176
▁ꯊꯝꯈꯤ꯫	-8.40283
ꯃꯣ	-8.40287
▁ꯍꯧꯖꯤꯛꯇꯤ	-8.40299
▁ꯃꯁꯥꯟꯅ	-8.40606
▁ꯁꯝ	-8.40781
▁ꯃꯁꯤꯕꯨ	-8.40818
▁ꯁꯣꯏꯗꯅ	-8.41023
▁ꯑꯣꯏꯔꯝꯃꯤ	-8.41169
▁ꯃꯤꯑꯣꯏꯁꯤꯡ	-8.4121
▁ꯅꯨꯃꯤꯗꯥꯡꯒꯤ	-8.41354
ꯄꯣ	-8.41753
▁ꯄꯥꯟꯗꯝ	-8.41787
▁ꯂꯩꯔꯝꯕ	-8.42164
ꯁꯨꯕ	-8.42483
▁ꯁ꯭ꯇꯦꯁꯟ	-8.42544
▁ꯚꯤ	-8.42583
▁ꯇꯧꯒꯅꯤ꯫	-8.42846
ꯇꯟ	-8.429
▁ꯑꯗꯨꯗꯤ	-8.43191
▁ꯄꯥꯕ	-8.43317
▁ꯉꯝꯗꯕ	-8.43334
▁ꯁꯦꯟꯠ	-8.43464
▁ꯇꯧ	-8.43507
ꯖꯥ	-8.43849
▁ꯊꯣꯛꯈꯤꯕ	-8.43954
▁ꯃꯤꯐꯝ	-8.44016
▁ꯐꯥꯕ	-8.44059
▁ꯁꯥꯟꯅꯕ	-8.44116
ꯀꯤꯗꯃꯛ	-8.44222
ꯗ꯭ꯔꯤ꯫	-8.44592
▁ꯁꯦꯡꯅ	-8.44679
▁ꯑꯩꯍꯥꯛ	-8.45182
ꯂꯤꯕ	-8.45317
▁ꯃꯈꯜꯒꯤ	-8.4533
▁ꯃꯁꯛ	-8.45392
▁ꯄꯨ	-8.45447
ꯗ꯭ꯔꯤꯉꯩ	-8.45501
▁ꯀ	-8.45508
▁ꯒꯦꯝ	-8.45589
▁ꯆꯪ	-8.45612
▁ꯐꯖꯕ	-8.45697
▁ꯃ	-8.45899
▁ꯃꯉꯥ	-8.45933
ꯔꯕ	-8.45967
ꯁꯤꯡꯗꯒꯤ	-8.46111
▁ꯂꯩꯈꯤ	-8.46354
▁ꯐꯪ	-8.46408
▁ꯌꯦꯡ	-8.46917
▁ꯑꯅꯥꯕ	-8.47478
ꯄꯥ	-8.47513
ꯦꯁ	-8.47645
▁ꯃꯍꯨꯠꯇ	-8.47647
▁ꯑꯣꯏꯅꯃꯛ	-8.47961
▁ꯁꯃꯨꯗ꯭ꯔ	-8.47987
▁ꯈꯨꯗꯛꯇ	-8.4835
▁ꯐꯣꯇꯣ	-8.4842
ꯒꯥ	-8.48451
▁ꯀꯥꯟꯅꯕ	-8.4868
▁ꯀꯣꯐꯤ	-8.49106
ꯗꯨ	-8.49185
▁ꯂꯝꯕꯤꯗ	-8.49321
▁ꯌꯥꯎꯕ	-8.49506
▁ꯅꯨꯡꯁꯤꯠ	-8.49955
▁ꯂꯩꯔꯕ	-8.5001
▁ꯈꯪꯈꯤꯗꯦ꯫	-8.50049
ꯁ꯭	-8.50229
▁ꯑꯣꯏꯔꯦ꯫	-8.50508
ꯁꯤꯟ	-8.50643
▁ꯆꯥꯅꯕ	-8.50706
ꯇꯣꯞꯄ	-8.50892
ꯔꯛꯄ	-8.50944
▁ꯈꯪꯅꯕ	-8.51076
▁ꯐꯥ	-8.51093
▁ꯆꯨ	-8.51152
▁ꯄꯦꯟ	-8.51209
▁ꯆꯠꯈꯤ	-8.5137
▁ꯊꯥꯖ	-8.51482
▁ꯃꯍꯧꯁꯥ	-8.51533
▁꯱	-8.51606
▁ꯄꯨꯝꯅꯃꯛꯅ	-8.5197
ꯑꯃꯒ	-8.52317
▁ꯐꯨꯠꯕꯣꯜ	-8.52327
▁ꯈꯔꯗꯤ	-8.52505
꯰꯰꯰	-8.52713
▁ꯃꯆꯥ	-8.52904
ꯛꯁ	-8.52987
▁ꯂꯩꯒꯅꯤ꯫	-8.53479
▁ꯑꯩꯈꯣꯏꯒ	-8.53564
▁ꯎꯟ	-8.53771
▁ꯐꯪꯈꯤ	-8.53845
ꯀꯔ	-8.53951
▁ꯇꯧꯕꯤꯌꯨ꯫	-8.54224
▁ꯑꯉꯧꯕ	-8.54504
▁ꯀꯞ	-8.54673
▁ꯇꯦ	-8.54832
▁ꯄꯤꯈꯤ	-8.54878
▁ꯂꯦꯞꯄ	-8.54902
▁ꯂꯦꯞ	-8.54976
ꯎ	-8.5514
▁ꯃꯅꯥ	-8.55152
▁ꯁꯤꯁꯇꯦꯝ	-8.55241
▁ꯃꯨ	-8.55565
ꯒꯣ	-8.55577
ꯒꯅꯨ꯫	-8.55817
▁ꯇꯧꯒꯗꯕꯅꯤ꯫	-8.5598
▁ꯗꯣꯂꯔ	-8.56004
ꯦ	-8.56145
▁ꯉꯥꯡ	-8.56154
▁ꯄꯥꯏ	-8.56188
▁ꯆꯠ	-8.56215
▁ꯊꯨꯝ	-8.56654
ꯂ	-8.56685
▁ꯉꯥꯏꯔꯕ	-8.56992
▁ꯍꯥꯟꯅꯅ	-8.57225
ꯕꯥ	-8.57338
▁ꯍꯩꯁꯤꯡꯕ	-8.57359
▁ꯍꯪ	-8.57368
ꯁꯤꯡꯒꯤꯗꯃꯛ	-8.57843
▁ꯃꯐꯝꯗ	-8.57901
▁꯱꯴	-8.57905
▁ꯌꯥꯔꯣꯏ꯫	-8.57999
▁ꯈꯨꯗꯤꯡꯃꯛꯇ	-8.58121
▁ꯇꯧꯕꯗ	-8.58387
꯭	-8.58581
▁ꯌꯥꯎ	-8.58642
▁ꯆꯪꯈꯤ꯫	-8.58852
▁ꯅꯪꯒꯤ	-8.5951
ꯥꯟ	-8.59813
▁ꯊꯣꯛꯈꯤ꯫	-8.59844
▁ꯅꯪꯅ	-8.59876
ꯕꯦ	-8.59911
▁ꯑꯣꯏꯗꯦ꯫	-8.60018
▁ꯑꯏꯪ	-8.60283
ꯂꯣꯏ꯫	-8.60284
▁ꯃꯅꯥꯎꯅꯨꯄꯥ	-8.60365
▁ꯁꯨ	-8.60372
▁ꯂꯧꯅꯕ	-8.60415
▁ꯄꯤꯔꯤꯕ	-8.60559
▁ꯇꯝ	-8.61286
▁ꯈꯟꯅ	-8.61392
ꯗꯔ	-8.61691
▁ꯀꯦꯟ	-8.61769
▁ꯊꯧꯕ	-8.61854
▁ꯑꯦꯝ	-8.62072
▁ꯊꯤ	-8.62177
▁ꯃꯤꯌꯥꯝꯒꯤ	-8.62224
ꯔꯨ	-8.62349
▁ꯅꯨꯡꯉꯥꯏ꯫	-8.62434
▁ꯐꯥꯒꯤ	-8.625
▁ꯑꯃꯗꯒꯤ	-8.62649
▁ꯍꯣꯡ	-8.62786
▁ꯈꯜꯂꯤ	-8.62899
▁ꯃꯄꯥꯡꯒꯜ	-8.62922
▁ꯃꯆꯥꯅꯨꯄꯤ	-8.62927
▁ꯁꯥꯎ	-8.6311
▁ꯆꯥꯡꯌꯦꯡ	-8.63189
▁ꯕꯁ	-8.6319
ꯥ	-8.63475
▁ꯃꯗꯨꯗ	-8.6357
ꯐꯝ	-8.6363
▁ꯈꯔꯅ	-8.6387
▁ꯇꯨꯝꯕ	-8.63978
▁ꯃꯤꯠꯌꯦꯡ	-8.64127
▁ꯑꯉꯥꯡꯕ	-8.64446
▁ꯂꯟ	-8.6446
▁ꯂꯧꯈꯤ	-8.64504
▁ꯍꯧꯗꯣꯡ	-8.64533
▁꯳	-8.64602
▁ꯂꯩꯕꯥꯛꯀꯤ	-8.64667
▁ꯄꯥꯝꯅꯕ	-8.64694
▁ꯐꯥꯎꯈꯤ꯫	-8.64839
▁ꯌꯨꯝꯐꯝ	-8.65003
▁ꯇꯧꯔꯤꯕꯅꯣ	-8.6503
▁ꯈꯣꯡꯆꯠ	-8.65075
▁ꯉꯥꯛ	-8.65166
ꯄꯦ	-8.65259
▁ꯊꯣꯛꯂꯛꯄ	-8.65436
▁ꯗꯨꯀꯥꯟ	-8.65484
▁ꯈꯪꯍꯧꯗ	-8.65547
▁ꯍꯪꯈꯤ꯫	-8.65725
▁ꯊꯥꯒꯠꯆꯔꯤ꯫	-8.65729
▁ꯕ꯭ꯔꯤꯇꯤꯁ	-8.6576
ꯈ꯭ꯔꯕ	-8.65794
▁ꯈꯪꯂꯦ꯫	-8.65821
▁ꯃꯔꯨꯑꯣꯏꯅ	-8.65833
▁ꯅꯨꯡꯉꯥꯏꯈꯤ꯫	-8.65866
ꯀꯨ	-8.6591
▁ꯏꯔꯣꯏꯕ	-8.65938
▁ꯀꯝꯄ꯭ꯌꯨꯇꯔ	-8.66108
ꯂꯛꯄ	-8.66119
▁ꯈꯦꯠꯅꯕ	-8.66226
▁ꯅꯨꯡ	-8.66552
▁ꯊꯕꯛꯇ	-8.66584
▁ꯅꯤꯡꯁꯤꯡ	-8.66625
▁ꯀꯟ	-8.66627
ꯂꯣꯏ	-8.66818
▁ꯂꯦꯞꯈꯤ꯫	-8.66912
▁ꯑꯌꯨꯛꯇ	-8.67028
ꯍꯟ	-8.6717
▁ꯄꯤꯔꯤ꯫	-8.67234
ꯁꯣ	-8.67261
ꯈꯤꯕꯅꯣ	-8.67416
▁ꯅꯣꯡꯃꯩ	-8.67693
▁ꯔꯦꯀꯣꯔꯗ	-8.67794
▁ꯊꯥꯗꯣꯛꯈꯤ꯫	-8.67845
▁ꯖꯤ	-8.68155
▁ꯑꯣꯏꯒꯅꯤ꯫	-8.68328
▁ꯑꯔꯣꯟꯕ	-8.68392
▁ꯄꯣ	-8.68447
▁ꯐꯤꯔꯣꯜ	-8.68463
▁ꯃꯤꯑꯣꯏꯁꯤꯡꯅ	-8.68838
▁ꯀꯅꯥꯅꯣ	-8.68878
▁ꯑꯃꯗꯤ	-8.68972
▁ꯁꯤꯖꯤꯟꯅꯩ꯫	-8.69144
▁ꯆꯠꯅ	-8.69197
▁ꯑꯦꯜ	-8.69465
▁ꯍꯧꯖꯤꯛꯁꯨ	-8.69746
▁ꯂꯩꯔꯦ	-8.69988
ꯔꯤ꯫	-8.70028
ꯈꯤꯕ꯭ꯔꯥ	-8.70122
▁ꯉꯁꯤꯒꯤ	-8.70129
▁ꯍꯣꯠꯅꯕ	-8.70135
▁ꯀ꯭ꯂꯥꯁ	-8.70151
▁ꯎꯕꯗ	-8.70303
▁ꯁꯦꯠ	-8.70446
▁ꯖꯄꯥꯅꯤꯁ	-8.70666
ꯗ꯭ꯔꯕꯗꯤ	-8.70876
▁ꯄꯨꯝꯅꯃꯛꯀꯤ	-8.70925
▁ꯌꯨꯅꯤꯚꯔꯁꯤꯇꯤ	-8.70971
▁ꯇꯣ	-8.71096
▁ꯇꯣꯉꯥꯟꯕ	-8.71246
▁꯵	-8.71823
▁ꯈꯟ	-8.71897
▁ꯊꯣꯛꯈꯤꯕꯒꯦ	-8.71918
▁ꯂꯩꯔꯕꯗꯤ	-8.72237
▁ꯃꯅꯤꯡꯗ	-8.7244
▁ꯃꯤꯠ	-8.72671
▁ꯌꯥꯅꯕ	-8.72918
ꯅꯤꯡ	-8.73067
ꯐꯦ	-8.73458
▁ꯆꯦꯛꯁꯤꯟꯅ	-8.73499
▁ꯃ꯭ꯌꯨꯅꯤꯁꯤꯄꯥꯂꯤꯇꯤ	-8.73584
▁ꯍꯥꯏꯈꯤꯗꯦ꯫	-8.73585
▁ꯌꯦꯡꯕꯤꯌꯨ꯫	-8.73647
▁ꯄꯨꯋꯥꯔꯤ	-8.73878
▁ꯅꯨꯄꯤꯃꯆꯥ	-8.74054
ꯒꯤꯗꯃꯛꯇ	-8.74054
▁ꯇꯧꯏ	-8.7421
ꯚ	-8.74444
▁ꯂꯧꯊꯣꯛꯈꯤ꯫	-8.74546
▁ꯂꯥꯏꯅꯤꯡ	-8.74656
▁ꯃꯥꯏꯀꯩ	-8.74933
▁꯱꯰	-8.74936
▁ꯆꯨꯝꯅ	-8.74988
▁ꯐꯖꯩ꯫	-8.75016
▁ꯅꯤꯡꯁꯤꯡꯕ	-8.75074
▁ꯂꯩꯉꯥꯛ	-8.75075
▁ꯆꯠꯀꯅꯤ꯫	-8.75175
▁ꯃꯦꯔꯤꯒ	-8.7518
ꯈ꯭ꯔꯕ꯭ꯔꯥ	-8.75443
ꯅꯣꯡꯃꯥꯏ	-8.7547
▁ꯉꯝ	-8.75634
ꯒꯗꯒꯦ	-8.75677
▁ꯊꯋꯥꯏ	-8.7568
▁ꯈꯪ	-8.75884
▁ꯑꯣꯏꯔꯛꯈꯤ꯫	-8.75917
▁ꯀ꯭ꯂꯕ	-8.75978
▁ꯌꯥꯗꯕ	-8.76477
▁ꯃꯍꯥꯛꯀꯤꯗꯃꯛ	-8.76486
▁ꯕꯣꯛꯁ	-8.76489
▁ꯅꯣ	-8.76622
ꯖꯔ	-8.76708
▁ꯑꯉꯛꯄ	-8.76742
▁ꯉꯛ	-8.76809
ꯀꯦꯜ	-8.76811
▁ꯑꯃꯈꯛꯇꯃꯛ	-8.76886
▁ꯍꯧꯖꯤꯛꯇ	-8.76941
ꯋꯥ	-8.77052
▁ꯀꯌꯥꯅ	-8.7727
▁ꯁꯔ	-8.77309
▁ꯍꯤꯗꯥꯛ	-8.77355
▁ꯋꯥꯐꯝꯁꯤꯡ	-8.77396
ꯕꯣ	-8.77798
▁ꯍꯜꯂꯛꯄ	-8.77844
▁꯲꯰	-8.7789
▁ꯑꯩꯒ	-8.77995
▁ꯁ	-8.78078
▁ꯑꯦꯜꯕꯝ	-8.78127
▁ꯊꯣꯡꯅꯥꯎ	-8.78228
▁ꯎꯈꯤꯗꯦ꯫	-8.78271
▁ꯃꯤꯍꯨꯠ	-8.78493
▁ꯑꯈꯟꯅꯕ	-8.78502
ꯂꯕꯗꯤ	-8.78523
▁ꯅꯨꯡꯁꯤ	-8.78662
▁ꯏꯊꯤꯜ	-8.78905
▁ꯑꯉꯥꯡꯁꯤꯡ	-8.79101
▁ꯀꯥꯏ	-8.79161
▁ꯐꯪꯒꯅꯤ	-8.79363
▁ꯗꯣ	-8.79373
ꯊꯤ	-8.79468
▁ꯊꯥꯈꯤ꯫	-8.79639
ꯤꯕ	-8.79772
▁ꯃꯥꯟꯅꯩ꯫	-8.79773
▁ꯕꯔ	-8.79827
▁ꯑꯀꯥꯏꯕ	-8.79887
▁ꯃꯌꯥꯏ	-8.8011
▁ꯄꯥꯝꯈꯤꯗꯦ꯫	-8.80178
▁ꯕ	-8.80272
▁ꯋꯥꯍꯩꯁꯤꯡ	-8.80362
▁ꯍꯧ	-8.80388
▁ꯂꯣꯏꯅꯕꯤ	-8.80437
▁ꯌꯥꯗꯦ꯫	-8.8046
▁ꯂꯧꯊꯣꯛꯄ	-8.80528
▁ꯃꯤꯁꯤꯡ	-8.80538
▁ꯐꯦ	-8.8054
▁ꯁꯤꯟ	-8.80615
ꯔꯤꯕ	-8.80667
▁ꯀꯧ	-8.80758
▁ꯆꯨꯔꯨꯞ	-8.80796
ꯔꯝꯕ	-8.80829
▁ꯇꯦꯕꯜ	-8.80845
ꯂꯤꯡ	-8.80854
ꯕꯅꯣ	-8.80884
▁ꯑꯣꯏꯔꯤ꯫	-8.80939
▁ꯊꯥꯡ	-8.81109
▁ꯑꯦꯛꯁꯤꯗꯦꯟꯠ	-8.81114
ꯔꯦ꯫	-8.81124
▁ꯊꯦꯡꯅ	-8.81189
▁ꯈꯪꯗꯕ	-8.81192
▁ꯊꯕꯛꯁꯤꯡ	-8.81194
▁ꯂꯥꯛꯀꯅꯤ	-8.81223
▁ꯃꯄꯨ	-8.81366
ꯌꯨ	-8.81382
▁ꯖꯣ	-8.81396
▁ꯀꯣꯅꯨꯡ	-8.81444
▁ꯇꯦꯛꯁ	-8.81487
▁ꯂꯨꯕ	-8.81572
▁ꯑꯣꯔꯗꯔ	-8.81765
▁ꯇꯧꯒꯗꯕ	-8.81773
▁ꯑꯣꯏꯒꯅꯤ	-8.81846
ꯂꯦꯟ	-8.82092
ꯊꯣꯛ	-8.82148
▁ꯇꯦꯂꯤꯚꯤꯖꯟ	-8.82561
▁ꯑꯃꯦꯔꯤꯀꯥꯟ	-8.82804
▁ꯄ꯭ꯔꯣ	-8.82985
▁ꯉꯟ	-8.83038
▁ꯄꯥꯝꯗꯦ	-8.83074
▁ꯇꯤꯟ	-8.83235
▁ꯃꯦꯟ	-8.8334
ꯊꯣꯛꯄ	-8.8359
▁ꯑꯁꯥꯕ	-8.8366
ꯑ	-8.83776
▁ꯈꯣꯡꯕ	-8.83795
▁ꯑꯄꯨꯟꯕ	-8.83866
ꯋꯦ	-8.83978
▁ꯑꯦꯐ	-8.84015
ꯅꯔ	-8.84101
▁ꯆꯠꯅꯕꯤ	-8.84149
▁ꯆꯤꯡꯁꯤꯟ	-8.84218
ꯒꯗꯕꯅꯤ	-8.84303
▁ꯁꯥꯟꯅ	-8.84328
▁ꯁꯤꯇꯤ	-8.84387
▁ꯑꯃꯦꯔꯤꯀꯥꯒꯤ	-8.8452
▁ꯑꯀꯛꯅꯕ	-8.84524
▁ꯖꯔꯃꯟ	-8.84524
▁ꯄꯥꯝ	-8.84527
▁ꯄꯥꯡ	-8.84547
▁ꯂꯤꯁꯠ	-8.84586
▁ꯊꯛꯅꯕ	-8.84823
▁ꯎꯏ꯫	-8.84832
▁ꯁꯥꯟꯅꯔꯣꯏ	-8.84833
▁ꯂꯣꯏꯁꯤꯟꯕ	-8.84842
ꯇꯤꯡ	-8.84913
꯲	-8.85071
▁ꯃꯆꯨꯒꯤ	-8.85207
▁ꯀꯌꯥꯗ	-8.85239
ꯔꯝ	-8.85266
▁ꯏꯊꯠ	-8.85333
▁ꯎꯅ	-8.85482
▁ꯉꯥꯏ	-8.85586
ꯅꯣꯡꯃꯥꯏꯒꯤ	-8.85596
▁ꯄꯥꯝꯕꯤ	-8.85748
▁ꯌꯥꯒꯅꯤ	-8.859
▁ꯐꯪꯈꯤꯕ	-8.85942
▁ꯃꯤꯂꯤꯌꯟ	-8.86053
▁ꯐꯥꯎꯏ꯫	-8.86086
ꯖꯤꯟ	-8.8614
▁ꯊꯥꯒꯠꯄ	-8.86168
▁ꯖꯨ	-8.86217
▁ꯂꯧꯈꯤꯕ	-8.86394
▁꯴	-8.86477
▁ꯑꯋꯥꯡꯕ	-8.86495
▁ꯂꯥꯏꯔꯕ	-8.8658
▁ꯃꯇꯧ	-8.86605
▁ꯗꯥꯏ	-8.8668
▁ꯊꯥꯗ	-8.86699
ꯇ꯭ꯔꯤ	-8.86921
▁ꯔꯥꯖ꯭ꯌ	-8.86991
▁ꯈꯨꯠꯊꯥꯡꯗ	-8.87032
▁ꯃꯥꯜꯂꯤ꯫	-8.87125
▁ꯗꯦꯟ	-8.87193
▁ꯅꯝꯕꯔ	-8.872
▁ꯈꯥꯡꯕ	-8.87209
▁ꯎꯅꯈꯤ꯫	-8.87356
▁ꯖꯒꯣꯏ	-8.87372
▁ꯂꯩꯒꯗꯕꯅꯤ꯫	-8.87399
▁ꯂꯩꯇꯅ	-8.8742
▁ꯍꯤꯡꯕ	-8.87467
ꯃꯔ	-8.87514
꯰꯰	-8.87661
▁ꯌꯥꯎꯗꯅ	-8.87755
ꯑꯦꯜ	-8.87889
▁꯱꯲	-8.8793
▁ꯌꯥꯎꯅ	-8.88041
▁ꯇꯧꯕꯒꯤ	-8.88155
▁ꯄꯤꯌꯨ꯫	-8.88155
▁ꯑꯜ	-8.88336
▁ꯄꯨꯂꯤꯁꯅ	-8.8842
ꯁꯇꯔ	-8.88496
▁ꯁꯤꯖꯟ	-8.88662
▁ꯋꯥꯔ	-8.88665
▁ꯋꯥꯡꯕ	-8.88798
ꯨ	-8.88822
ꯔꯒ	-8.89021
▁ꯅꯣꯡꯂꯩ	-8.89264
▁ꯆꯦꯟ	-8.89325
ꯍ	-8.89412
ꯪ	-8.89644
ꯧ	-8.89749
▁ꯊꯧꯅꯥ	-8.89762
▁ꯃꯤꯑꯣꯏꯕꯒꯤ	-8.89807
▁ꯍꯥꯡ	-8.89927
▁ꯊꯣꯡꯕ	-8.90087
ꯩ	-8.90126
ꯁꯦꯜ	-8.90248
▁ꯉꯝꯗꯦ	-8.90375
▁ꯄ꯭ꯔꯁꯤꯗꯦꯟꯠ	-8.90478
▁ꯅꯨꯡꯉꯥꯏꯇꯦ	-8.90499
▁ꯂꯧꯏ꯫	-8.90505
▁ꯕꯣ	-8.90865
▁ꯄꯥꯁ	-8.90996
▁꯱꯷	-8.91119
▁ꯃꯥꯔ	-8.91178
ꯐꯤ	-8.91318
▁ꯀꯦꯁ	-8.91358
▁ꯑꯀꯨꯞꯄ	-8.91358
▁ꯄꯨꯂꯤꯁ	-8.9142
▁ꯐꯪꯒꯅꯤ꯫	-8.91683
▁ꯃꯉꯥꯜ	-8.91875
▁ꯄꯤꯒꯅꯤ꯫	-8.91912
▁ꯒ꯭ꯂꯥꯁ	-8.91945
▁ꯍꯧꯔꯛꯈꯤ꯫	-8.92008
ꯖꯦ	-8.92082
ꯁꯦꯟ	-8.92113
▁ꯄꯤꯈꯤꯕ	-8.92156
▁ꯂꯥꯏꯟ	-8.9218
▁ꯃꯅꯥꯎꯅꯨꯄꯤ	-8.9225
ꯗ꯭ꯔꯦ꯫	-8.92387
▁ꯅꯣꯕꯦꯜ	-8.9241
ꯑꯦꯟ	-8.92463
▁ꯍꯧꯔꯛꯄ	-8.92539
ꯅꯩ꯫	-8.92569
ꯗ꯭ꯔꯤ	-8.92779
!"	-8.93063
▁ꯊꯛ	-8.93197
▁ꯊꯧ	-8.93301
ꯄꯔ	-8.93311
▁ꯇꯧꯈ꯭ꯔꯦ꯫	-8.9349
▁ꯑꯃꯒꯨꯝꯅ	-8.93542
ꯔꯣꯏ꯫	-8.93572
꯳	-8.9366
▁ꯀꯌꯥꯒꯤ	-8.93667
▁ꯂꯩꯉꯥꯛꯀꯤ	-8.93875
▁ꯑꯅꯤꯒꯤ	-8.94
ꯑꯩ	-8.94029
▁ꯕꯤꯜ	-8.9426
ꯅꯨꯡꯁꯤꯠ	-8.94333
▁ꯍꯣꯇꯦꯜ	-8.94603
ꯒꯔ	-8.94695
▁ꯃꯤꯑꯣꯏꯁꯤꯡꯒꯤ	-8.94707
▁ꯌꯦꯟ	-8.94722
ꯔꯁ	-8.94837
▁ꯃꯅꯨꯡ	-8.94857
▁ꯑꯃꯒꯤꯗꯃꯛ	-8.94974
▁ꯅꯥꯏ	-8.95059
▁ꯌꯥꯎꯔꯤ꯫	-8.95077
▁ꯃꯥꯂꯦꯝꯗ	-8.95179
▁ꯅꯣꯡꯄꯣꯛ	-8.95184
▁ꯌꯨꯝꯒꯤ	-8.95272
▁ꯕꯦꯟ	-8.95275
▁ꯄꯤ꯫	-8.9528
▁ꯂꯥꯏꯔꯤꯛꯁꯤꯡ	-8.95302
▁ꯐꯨ	-8.95303
▁ꯃꯍꯨꯠ	-8.95331
▁ꯖꯄꯥꯟꯗ	-8.95439
▁ꯎꯠꯈꯤ꯫	-8.95449
▁ꯁꯦꯝꯈꯤ꯫	-8.95677
▁ꯖꯍꯥꯖ	-8.95695
▁ꯒꯦ	-8.9582
▁ꯂꯣꯏꯁꯤꯟꯈꯤ꯫	-8.96015
▁ꯑꯉꯟꯕ	-8.96078
▁ꯑꯣꯏꯔꯕ	-8.96144
ꯑꯁꯥ	-8.96163
▁ꯑꯣꯏꯔꯕꯁꯨ	-8.96203
▁ꯃꯥꯡꯍꯟ	-8.96207
▁ꯑꯣꯏꯗꯕ	-8.96267
▁ꯍꯧꯈꯤ	-8.96434
▁ꯂꯦꯞꯇꯅ	-8.96441
▁ꯈꯪꯗꯦ	-8.96546
▁ꯈꯨꯠꯂꯥꯏ	-8.96638
▁ꯉꯝꯈꯤ꯫	-8.96747
▁ꯑꯀꯤꯕ	-8.96819
▁ꯃꯆꯤꯟ	-8.97018
▁ꯅꯪꯉꯣꯟꯗ	-8.97184
▁ꯇꯦꯅꯤꯁ	-8.97202
▁ꯄꯨꯛꯆꯦꯜ	-8.97371
ꯂꯥꯏ	-8.97449
▁ꯁꯤꯕ	-8.97459
▁ꯄꯨꯝꯕ	-8.97533
▁ꯑꯊꯨꯕ	-8.97559
▁ꯑꯀꯟꯕ	-8.97559
▁ꯁꯛꯇꯝ	-8.97764
▁ꯂꯥꯛ	-8.97765
ꯊꯥ	-8.97933
▁ꯈꯨꯡꯒꯡ	-8.97936
▁ꯐꯩ	-8.97986
▁ꯐꯪꯅꯕ	-8.98104
▁꯱꯵	-8.9819
ꯁꯤꯡꯅꯤ꯫	-8.98427
ꯏꯟ	-8.9847
▁ꯁꯒꯣꯜ	-8.98507
ꯕꯒꯦ	-8.9862
▁ꯅꯦ	-8.98709
▁ꯂꯩꯐꯝ	-8.98715
▁ꯕꯥꯔ	-8.98754
▁ꯑꯍꯨꯝꯁꯨꯕ	-8.98801
▁ꯌꯥꯈꯤꯗꯦ꯫	-8.98909
▁ꯍꯤꯡ	-8.99065
▁ꯑꯃꯨꯕ	-8.99085
▁ꯂꯣꯏꯔꯕ	-8.99137
▁ꯊꯝ	-8.992
▁ꯇꯥꯔꯛꯄ	-8.99211
▁ꯑꯦꯛꯁ	-8.99401
▁ꯅꯤꯡꯊꯧꯔꯦꯜ	-8.99475
ꯇꯤꯛ	-8.99744
▁ꯀꯨ	-8.99777
ꯆꯤ	-8.99955
ꯟꯅ	-8.99965
▁ꯀꯤꯂꯣꯃꯤꯇꯔ	-9.00035
▁ꯈꯨꯗꯤꯡꯃꯛꯀꯤ	-9.00047
▁ꯇꯧꯈꯤꯗꯦ꯫	-9.00061
ꯔꯣꯏ	-9.00119
▁ꯆꯨꯝ	-9.00159
▁ꯕꯣꯜ	-9.002
▁ꯀꯝ	-9.00393
▁ꯇꯧꯗꯨꯅ	-9.00423
▁ꯊꯨꯡꯅ	-9.00438
▁ꯀꯧꯏ꯫	-9.00616
ꯃꯦꯟꯠ	-9.0068
ꯠꯁꯤꯡ	-9.00742
▁ꯋꯔꯜꯗ	-9.0081
▁ꯆꯥꯈꯤ꯫	-9.00892
▁ꯆꯦꯟꯕ	-9.01043
▁ꯋꯤ	-9.01083
▁ꯂꯨ	-9.01099
ꯇꯨ	-9.01124
▁ꯅꯥꯏꯅ	-9.01158
▁ꯑꯏꯕ	-9.01218
ꯜꯗ	-9.01681
ꯛꯇ	-9.01725
ꯂꯝ	-9.01782
▁ꯑꯃꯁꯨ	-9.01829
▁ꯍꯟꯊ	-9.01869
▁ꯚꯦ	-9.02054
▁ꯆꯤꯡꯅꯕ	-9.02247
▁ꯑꯌꯨꯛ	-9.02416
ꯔꯝꯃꯤ	-9.02416
▁ꯑꯍꯨꯝꯒꯤ	-9.02436
ꯃꯁꯤꯡ	-9.02512
ꯅꯦꯜ	-9.02707
▁ꯊꯥꯎ	-9.02845
▁ꯑꯃꯥ	-9.02857
ꯈꯤꯕꯒꯦ	-9.02892
▁꯱꯶	-9.02984
ꯛꯄ	-9.0311
▁ꯑꯄꯥꯝꯕ	-9.03154
▁ꯈꯨ	-9.03213
▁ꯊꯥꯗꯣꯛ	-9.03319
ꯤꯌꯁ	-9.03571
▁ꯂꯝꯖꯦꯜ	-9.03577
ꯣ	-9.03746
▁ꯍꯪꯕ	-9.03778
ꯂꯛ	-9.0384
ꯅꯩ	-9.0393
ꯗ꯭ꯔꯤꯕ	-9.03978
▁ꯐꯪꯈꯤꯗꯦ꯫	-9.04037
▁ꯁꯨꯇꯤ	-9.04058
ꯚꯥ	-9.04086
▁ꯍꯩ	-9.04255
▁ꯈꯣꯡꯅ	-9.04393
▁ꯍꯣꯜ	-9.04499
▁ꯉꯝꯃꯤ	-9.04508
▁ꯇꯧꯔꯤ	-9.04549
▁ꯃꯦꯛ	-9.04584
▁ꯁꯤꯔꯤꯖ	-9.04679
▁ꯇꯦꯝꯄ꯭ꯂꯦꯠ	-9.04775
▁ꯐ	-9.0479
▁ꯃꯄꯥꯅ	-9.04877
▁ꯑꯍꯦꯟꯕ	-9.04977
▁ꯅꯤꯡꯊꯧꯀꯥꯕ	-9.04977
▁ꯏꯀꯥꯏ	-9.04986
ꯟꯗ	-9.05094
▁ꯎꯠꯄ	-9.05111
▁ꯇꯔꯨꯛ	-9.05177
▁ꯆꯠꯊ	-9.05239
▁ꯎꯠ	-9.05608
▁ꯁ꯭ꯇꯥꯔ	-9.05673
▁ꯕꯤꯜꯗꯤꯡ	-9.05996
▁ꯒꯣ	-9.06077
▁ꯆꯠꯀꯅꯤ	-9.0608
▁ꯑꯣꯛ	-9.06114
▁ꯂꯦꯟ	-9.06141
▁ꯁꯤꯟꯕ	-9.06225
▁ꯍꯣꯡꯗꯣꯛꯄ	-9.06226
▁ꯆꯤ	-9.0642
▁ꯁꯤꯖꯤꯟꯅ	-9.06622
▁ꯄꯥꯡꯊꯣꯛꯄ	-9.06649
▁ꯀꯥꯎꯟꯁꯤꯜ	-9.06818
▁ꯑꯌꯨꯛꯀꯤ	-9.06936
▁ꯉꯝꯈꯩ	-9.06992
▁ꯍꯛ	-9.07219
▁ꯅꯣꯡꯆꯨꯞ	-9.07348
▁ꯊꯣꯛꯀꯅꯤ	-9.07351
▁ꯄꯦꯖ	-9.07353
▁ꯃꯤꯌꯥꯝ	-9.07415
▁ꯇꯪꯈꯥꯏ	-9.07439
▁ꯚꯤꯗꯤꯑꯣ	-9.07439
▁ꯃꯥꯡꯈꯤ꯫	-9.07457
▁ꯀꯣꯛ	-9.07544
▁ꯑꯉꯟꯕꯗ	-9.07632
▁ꯈꯨꯟꯅꯥꯏ	-9.07647
▁ꯐꯤꯚꯝ	-9.07647
▁ꯂꯨꯆꯤꯡꯕ	-9.07747
▁ꯑꯣꯏꯔꯤꯉꯩꯗ	-9.07779
ꯇꯦꯜ	-9.07853
▁ꯑꯌꯥꯕ	-9.07855
▁ꯄꯥꯝꯂꯕꯗꯤ	-9.07874
▁ꯂꯨꯍꯣꯡꯕ	-9.0806
▁ꯑꯣꯏꯔꯕꯗꯤ	-9.08061
ꯟꯁ	-9.08112
▁ꯅꯤꯡꯇꯝꯕ	-9.08131
▁ꯚꯣꯠ	-9.08151
▁ꯀꯧꯈꯤ꯫	-9.08372
ꯔꯕꯗꯤ	-9.08394
▁ꯄ꯭ꯔꯣꯕꯤꯟꯁ	-9.08409
▁ꯍꯔꯤꯀꯦꯟ	-9.08483
▁ꯂꯩꯔꯤ	-9.08607
▁ꯃꯤꯁꯇꯔ	-9.08683
▁ꯆꯠꯀꯗꯕꯅꯤ꯫	-9.08718
▁ꯑꯣꯏꯕ꯭ꯔꯥ	-9.08835
▁ꯔꯦꯁꯇꯣꯔꯦꯟꯠ	-9.09114
ꯅꯨ	-9.09178
ꯑꯥꯏ	-9.09303
▁ꯍꯜꯂꯛ	-9.09352
▁ꯌꯥꯎꯏ꯫	-9.09359
▁ꯁꯦꯝꯈꯤꯕ	-9.09361
▁ꯅꯤ	-9.09423
▁ꯍꯨ	-9.09543
▁ꯋꯥꯈꯜꯂꯣꯟꯁꯤꯡ	-9.09845
▁ꯑꯃꯠꯇꯗ	-9.09919
▁ꯁꯟꯗꯣꯛꯅ	-9.10013
ꯆꯔ	-9.10022
▁ꯍꯣꯝꯋꯔꯛ	-9.10177
▁ꯈꯣꯡꯖꯦꯜ	-9.10186
▁ꯃꯥ	-9.10342
▁ꯌꯦꯡꯁꯤꯟꯕ	-9.10496
▁ꯋꯥꯁꯛ	-9.10631
▁ꯊꯥꯕ	-9.10633
▁ꯅꯝꯊꯥꯛ	-9.10743
▁ꯂꯥꯏꯕ	-9.10756
▁ꯐꯣꯔ	-9.10901
▁ꯇꯥꯡ	-9.11002
▁ꯆꯥꯗ	-9.11136
▁ꯑꯣꯏꯔꯛꯄ	-9.11136
▁ꯏꯀꯥꯏꯈꯨꯝꯅꯕ	-9.11191
▁ꯆꯥꯏ	-9.1121
▁ꯃꯍꯥꯎ	-9.11255
▁ꯃꯤꯑꯣꯏꯅꯤ꯫	-9.11309
▁ꯕꯤꯌꯔ	-9.11339
ꯊꯨꯝ	-9.11362
▁ꯄꯥꯝꯒꯅꯤ	-9.11413
▁ꯀꯥꯔꯗ	-9.11529
▁ꯄ	-9.11737
▁ꯄꯨꯟꯁꯤꯒꯤ	-9.11909
ꯖꯟ	-9.11919
▁ꯀꯣꯔ	-9.11971
▁ꯂꯩꯅ	-9.11998
▁ꯋꯦ	-9.12002
▁ꯇ꯭ꯔꯣꯄꯤꯀꯦꯜ	-9.12021
▁ꯑꯣꯏꯔꯛꯈꯤ	-9.12053
▁ꯈꯛꯇ	-9.12114
▁ꯀꯣꯂꯦꯖ	-9.12123
▁ꯖꯄꯥꯟꯒꯤ	-9.12142
▁ꯂꯥꯟꯃꯤ	-9.12197
▁ꯑꯍꯣꯡꯕ	-9.12277
▁ꯅꯨꯃꯤꯠꯀꯤ	-9.12608
▁ꯏꯈꯤ꯫	-9.1263
▁ꯂꯥꯛꯂꯤ꯫	-9.12715
▁ꯖ	-9.12766
▁ꯑꯣꯏꯈꯤꯗꯦ꯫	-9.12907
▁ꯒꯤꯇꯥꯔ	-9.12993
▁ꯌꯥꯝꯗ꯭ꯔꯕ	-9.12993
꯶	-9.13007
▁ꯂꯣꯛ	-9.13056
▁ꯈꯨꯗꯣꯜ	-9.13253
▁ꯍꯣ	-9.13285
ꯄꯥꯎ	-9.13311
▁꯶	-9.13313
ꯉꯤ	-9.13403
▁ꯁ꯭ꯋꯤꯠꯖꯔꯂꯦꯟ	-9.1343
▁ꯅꯣꯛ	-9.13446
▁ꯁꯨꯔꯛꯄꯗ	-9.136
▁ꯁ꯭ꯇꯦ	-9.13657
ꯌꯟ	-9.13813
▁ꯅꯨꯡꯉꯥꯏ	-9.13901
▁ꯑꯃꯥꯡ	-9.13902
▁ꯂꯤꯁꯤꯡ	-9.14007
▁ꯍꯥꯏꯕꯒꯨꯝ	-9.14013
ꯂꯒ	-9.14073
▁ꯑꯁꯤꯅꯤ꯫	-9.14185
▁ꯆꯠꯈꯤꯕ	-9.14203
▁ꯇꯥꯒꯅꯤ꯫	-9.14285
▁ꯋꯥꯍꯟꯊꯣꯛ	-9.14316
▁ꯍꯟꯗꯣꯛꯄ	-9.14374
▁ꯉꯛꯈꯤ꯫	-9.14388
▁ꯍꯣꯠꯅꯔꯤ꯫	-9.14422
▁ꯑꯥꯏꯟ	-9.14727
▁ꯁꯤꯈꯤ꯫	-9.14745
▁ꯍꯥꯞꯄ	-9.14865
▁ꯊꯣꯛꯏ꯫	-9.14876
ꯖꯦꯟ	-9.14879
▁ꯁꯨꯕ	-9.1502
▁ꯈꯟꯅꯔꯤ꯫	-9.15104
▁ꯀꯔꯤꯒꯤꯅꯣ	-9.15398
▁ꯂꯩꯔꯝꯗꯦ꯫	-9.15492
▁ꯇꯧꯗꯦ꯫	-9.15523
▁ꯆꯌꯣꯜꯗ	-9.15602
▁ꯇꯨꯡꯗ	-9.1588
▁ꯑꯁꯥꯡꯕ	-9.15885
▁ꯑꯇꯦꯟꯕ	-9.15885
▁ꯄ꯭ꯂꯦꯟ	-9.15905
▁ꯉꯝꯒꯗ꯭ꯔꯥ	-9.15924
▁ꯑꯩꯒꯤꯗꯃꯛ	-9.15929
▁ꯇꯥꯡꯅ	-9.15976
▁ꯍꯣꯠꯅ	-9.15984
▁ꯌꯥꯎꯈꯤ꯫	-9.16074
▁ꯊꯤꯡꯕ	-9.16116
▁ꯆꯥꯛꯂꯦꯟ	-9.16143
▁ꯈꯪꯅꯩ꯫	-9.16201
ꯠꯀꯤ	-9.16308
▁ꯄꯨꯕ	-9.16324
▁ꯂꯥꯏꯅꯥ	-9.16334
▁ꯁꯣꯛ	-9.16585
▁ꯉꯥꯏꯔꯤ꯫	-9.16588
ꯦꯜ	-9.16679
▁ꯅꯨꯡꯗꯥꯡꯗ	-9.16684
꯴	-9.16709
ꯂꯕ꯭ꯔꯥ	-9.1671
▁ꯄꯥꯠ	-9.16755
▁ꯕꯦꯡꯛ	-9.16827
꯭ꯔ	-9.16963
▁ꯃ꯭ꯌꯨꯖꯤꯛ	-9.17022
▁ꯃꯅꯝ	-9.17024
ꯔꯦꯟ	-9.17162
▁ꯈꯟꯅꯕ	-9.17194
ꯅꯣꯡꯆꯨꯞꯇ	-9.17235
▁ꯁꯦꯞꯇꯦꯝꯕꯔ	-9.17272
▁ꯈꯟꯈꯤ	-9.17444
▁ꯈꯪꯂꯦ	-9.17481
▁ꯄꯨꯔꯛꯄ	-9.1749
ꯇ꯭ꯔꯣ	-9.17618
▁ꯑꯥꯔꯇꯤꯀꯜ	-9.17643
▁ꯕꯥ	-9.17734
▁ꯆꯦꯝꯄꯤꯌꯟꯁꯤꯞ	-9.17921
ꯋꯤ	-9.18021
▁ꯄꯥꯝꯗꯕ	-9.1811
▁ꯁꯤꯖꯤꯟꯅꯩ	-9.18118
▁ꯌꯦꯡꯅꯕ	-9.18146
▁ꯂꯩꯒꯅꯤ	-9.18166
▁ꯁꯪꯒꯣꯝ	-9.18171
▁ꯇꯣꯂꯣꯞ	-9.18171
▁ꯇꯣꯝ꯫	-9.18199
▁ꯂꯥꯛꯀꯅꯤ꯫	-9.18257
▁ꯑꯣꯏꯊꯣꯛꯄ	-9.18482
ꯔꯛꯂꯤ꯫	-9.18533
▁ꯄ꯭ꯔꯤ	-9.1855
ꯗꯅꯕ	-9.18592
▁ꯄꯥꯎꯆꯦ	-9.18682
ꯌꯣ	-9.18738
ꯆꯦ	-9.18852
▁ꯂꯨꯞ	-9.19182
▁ꯉꯝꯒꯅꯤ꯫	-9.193
▁ꯂꯣꯏꯅꯕ	-9.19389
▁ꯂꯧꯗꯨꯅ	-9.19605
▁ꯈꯜꯂꯤꯕꯒꯦ	-9.19616
▁ꯑꯩꯆ	-9.1963
▁ꯃꯥꯡꯈꯤꯕ	-9.19704
ꯚꯦ	-9.19716
▁ꯂꯧꯊꯣꯛ	-9.19845
ꯗꯦꯟ	-9.19847
▁ꯁꯤꯖꯤꯟꯅꯔꯤꯕ	-9.19886
▁ꯃꯃꯥꯅ	-9.19896
▁ꯃꯁꯥꯅ	-9.19922
▁ꯔꯨ	-9.20039
▁ꯃꯥꯟꯅꯅ	-9.2006
▁ꯐ꯭ꯔꯤ	-9.20085
▁ꯊꯥꯛ	-9.20259
▁ꯁꯩꯔꯦꯡ	-9.20274
▁ꯄꯥꯡꯈꯤ꯫	-9.20397
▁ꯐꯝꯐꯝ	-9.20551
▁ꯄꯥꯡꯊꯣꯛꯈꯤ꯫	-9.20555
ꯏꯇꯤꯛ	-9.20591
▁ꯎꯅꯅꯕ	-9.20661
▁ꯍꯦꯟꯒꯠ	-9.20695
▁ꯂꯨꯅ	-9.20747
▁ꯀꯥꯎ	-9.20768
▁ꯑꯣꯐꯤꯁꯇ	-9.20779
ꯋꯔ	-9.20907
▁ꯆꯔꯆ	-9.21053
▁ꯆꯨꯕ	-9.21123
ꯅꯤꯌꯥ	-9.21257
▁ꯃꯅꯥꯎ	-9.21279
ꯅꯥꯏ	-9.21425
▁ꯔꯦꯗꯤꯑꯣ	-9.2146
▁ꯇꯥꯛꯈꯤ꯫	-9.21488
▁ꯁꯥꯏ	-9.21709
▁ꯍꯨꯔꯥꯟꯕ	-9.21998
▁ꯆꯦꯛꯁꯤꯟ	-9.22025
▁ꯇꯣꯡ	-9.22053
ꯍꯥ	-9.22068
▁ꯌꯧꯔꯛꯄ	-9.22199
▁ꯌꯨꯅꯤꯌꯟ	-9.22226
▁ꯎꯆꯦꯛ	-9.22307
ꯤꯌꯝ	-9.2239
▁ꯅꯍꯥꯛꯀꯤꯗꯃꯛ	-9.22412
▁ꯏꯆꯝ	-9.22428
▁ꯍꯟꯖꯤꯟ	-9.2255
ꯇ꯭ꯔ	-9.22565
▁ꯉꯁꯤꯗꯤ	-9.22604
▁ꯆꯦꯟꯈꯤ꯫	-9.22749
▁ꯇꯔꯦꯠ	-9.22821
▁ꯑꯍꯥꯡꯕ	-9.22906
▁ꯄꯔꯤꯡ	-9.22938
ꯀꯅꯤ꯫	-9.22948
▁ꯀꯦꯟꯇꯟ	-9.22951
▁ꯎꯠꯂꯤ꯫	-9.22953
▁ꯃꯤꯇꯔ	-9.2306
▁ꯀꯔꯤꯒꯤꯗꯃꯛ	-9.2308
ꯌꯦ	-9.23171
▁ꯊꯝꯅꯕ	-9.23522
▁ꯍꯥꯏꯒꯗꯕꯅꯤ꯫	-9.23525
▁ꯅꯣꯡꯃꯥꯏꯖꯤꯡ	-9.23636
▁ꯔꯦꯗ	-9.23879
▁ꯆꯠꯂꯤ	-9.23956
▁ꯃꯔꯨꯑꯣꯏ꯫	-9.23975
▁ꯂꯝꯗꯝ	-9.24
▁ꯄꯣꯠꯂꯝꯁꯤꯡ	-9.24027
▁ꯇꯥꯈꯤ	-9.24043
ꯑꯦꯝ	-9.24079
▁ꯖꯤꯂꯥꯒꯤ	-9.24137
▁ꯆꯥꯗꯤꯡ	-9.24171
▁ꯍꯣꯠꯅꯈꯤ	-9.24429
▁ꯅꯨꯡꯁꯥ	-9.24483
ꯕꯤꯌꯨ꯫	-9.24535
▁ꯍꯥꯏꯕꯗꯤ	-9.24603
ꯃꯅꯥꯎ	-9.24629
▁ꯆꯍꯤꯗ	-9.24642
▁ꯐꯥꯈꯤ꯫	-9.24646
▁ꯈꯜꯂꯨꯗꯦ꯫	-9.25125
▁ꯑꯦꯔ	-9.25126
▁ꯀꯨꯟ	-9.25135
▁ꯐꯤꯔꯣꯜꯁꯤꯡ	-9.25248
▁ꯅꯁꯥ	-9.25259
▁ꯕꯦꯟꯗ	-9.25274
ꯁꯔ	-9.25488
▁ꯅꯨꯡꯊꯤꯜꯗ	-9.25541
▁꯱꯱	-9.25567
▁ꯊꯤꯑꯣꯔꯤ	-9.25609
ꯚꯤꯜ	-9.25808
ꯅꯣꯡꯆꯨꯞ	-9.25838
ꯚꯔ	-9.25873
▁ꯁ꯭ꯇꯦꯠꯁꯇ	-9.25954
▁ꯅꯛꯅꯕ	-9.26148
▁ꯇꯥꯈꯤꯗꯦ꯫	-9.26177
▁ꯔꯣꯛ	-9.26218
▁ꯂꯥꯛꯏ꯫	-9.26321
ꯗ꯭ꯔꯦ	-9.26362
▁ꯊꯣꯛꯂꯛꯈꯤ꯫	-9.26413
▁ꯑꯉꯥꯡꯁꯤꯡꯅ	-9.26426
▁ꯃꯃꯤꯠ	-9.26639
ꯗ꯭ꯔꯤꯕꯅꯣ	-9.26822
▁꯱꯰꯰	-9.26826
▁ꯍꯥꯞꯈꯤ꯫	-9.26864
▁ꯑꯣꯏꯔꯤꯉꯩ	-9.27001
▁ꯀꯛ	-9.27108
ꯃꯄꯥ	-9.27203
▁ꯂꯩꯕꯥꯛꯇ	-9.27231
ꯃꯟ	-9.27267
▁ꯇꯧꯗꯕ	-9.27305
▁ꯆꯠꯂꯨ	-9.27399
▁꯳꯰	-9.27512
▁ꯋꯥꯈꯜꯗ	-9.27597
▁ꯐꯪꯗꯦ꯫	-9.27616
▁ꯋꯥꯌꯦꯜ	-9.27623
ꯗꯕꯜꯌꯨ	-9.27635
▁ꯊꯣꯛꯈꯤ	-9.2767
▁ꯁꯕ	-9.27682
▁ꯆꯪꯏ꯫	-9.27855
▁ꯁꯥꯏꯀꯜ	-9.27886
▁ꯄꯣꯛꯄ	-9.2805
▁ꯉꯝꯂꯣꯏ	-9.281
▁ꯒ꯭ꯔꯥꯟ	-9.28165
▁ꯅꯤꯡꯕ	-9.28209
▁ꯆꯦꯛ	-9.28225
▁ꯀꯦꯛ	-9.28292
▁ꯀꯥꯂꯦꯟ	-9.28306
▁ꯍꯥꯟꯅꯗ	-9.28481
▁ꯅꯁꯥꯕꯨ	-9.28569
▁ꯐꯣꯡꯗꯣꯛꯄ	-9.28665
▁ꯂꯨꯍꯣꯡ	-9.28666
ꯈ	-9.28989
▁ꯈꯪꯅ	-9.29003
▁꯷	-9.29083
▁ꯌꯣꯔꯛ	-9.29086
▁ꯑꯦꯗ	-9.29101
ꯒꯨ	-9.29155
▁ꯇ꯭ꯔꯥꯐꯤꯛ	-9.29158
▁ꯂꯪ	-9.2926
ꯁꯀ	-9.29303
▁ꯅꯤꯄꯥꯟ	-9.29416
▁ꯄꯤꯌꯥꯅꯣ	-9.29417
ꯀꯜ	-9.29451
▁ꯒ꯭ꯔꯦ	-9.29479
ꯑꯥꯔ	-9.29585
▁ꯃꯅꯨꯡꯒꯤ	-9.29679
▁ꯑꯔ	-9.29719
▁ꯁꯔꯕꯤꯁ	-9.29888
▁ꯍꯥꯏꯒꯅꯤ	-9.29892
▁ꯊꯣꯏꯗꯣꯛ	-9.29906
▁ꯃꯄꯣꯛ	-9.29935
▁ꯁꯛꯄ	-9.29988
▁ꯅꯨꯡꯉꯥꯏꯔꯦ꯫	-9.30044
ꯀꯟ	-9.30175
▁ꯄꯤꯒꯗꯕꯅꯤ꯫	-9.30358
▁ꯀꯣꯠ	-9.30485
▁ꯇꯣꯛ	-9.30716
▁ꯑꯣꯛꯇꯣꯕꯔ	-9.30827
ꯍꯜꯂꯤ	-9.30901
▁ꯌꯥꯈꯤ꯫	-9.30916
▁ꯆꯠꯊꯈꯤ	-9.31156
▁ꯁ꯭ꯇꯦꯠꯁ	-9.31166
ꯒꯟ	-9.31188
▁ꯇꯝꯊꯤꯕ	-9.31244
ꯁꯤꯡꯒꯤꯗꯃꯛꯇ	-9.31268
▁ꯊꯃꯣꯏ	-9.31406
ꯁꯤꯌꯥ	-9.31483
ꯑꯇꯥ	-9.31611
ꯂꯝꯃꯤ	-9.31645
▁ꯉꯥꯏꯗꯨꯅ	-9.31682
▁ꯁ꯭ꯀꯨꯜꯒꯤ	-9.31693
▁ꯂꯝꯆꯠ	-9.31773
▁ꯊꯧꯑꯣꯡ	-9.31862
▁ꯏꯁꯤꯡꯗ	-9.31874
▁ꯐꯪꯏ	-9.31969
▁ꯗꯤꯁꯦꯝꯕꯔ	-9.32038
▁ꯅꯣꯔꯊ	-9.32063
▁ꯇꯦꯁꯠ	-9.32093
▁ꯂꯝꯖꯤꯡ	-9.32098
ꯂꯤꯟ	-9.32221
▁ꯁꯃꯨꯗ꯭ꯔꯒꯤ	-9.32222
▁ꯍꯥꯏꯈꯤꯕ꯭ꯔꯥ	-9.32243
▁ꯗꯕꯜꯌꯨ	-9.32294
▁ꯆꯥꯏ꯫	-9.3233
▁ꯁꯥꯏꯟꯁ	-9.32347
▁ꯏꯀꯥꯏꯕ	-9.32395
▁ꯄꯣꯊꯥꯕ	-9.32527
▁ꯑꯊꯣꯏꯕ	-9.3257
▁ꯏꯔꯣꯏ	-9.32671
▁ꯈꯨꯠꯌꯦꯛ	-9.32838
▁꯹	-9.32917
▁ꯄ꯭ꯔ	-9.32967
▁ꯔꯥꯖ꯭ꯌꯒꯤ	-9.33097
▁ꯍ	-9.3311
▁ꯄꯥꯈꯠꯄ	-9.33172
▁ꯖꯨꯟ	-9.33225
▁ꯑꯅꯤꯃꯛꯅ	-9.33264
▁ꯖꯦꯅꯔꯦꯜ	-9.33375
▁ꯃꯤꯡ	-9.33397
▁ꯂꯟꯗꯟ	-9.33438
▁ꯏꯪꯂꯤꯁꯇ	-9.3354
▁ꯅꯕꯦꯝꯕꯔ	-9.33644
▁ꯋꯦꯁꯠ	-9.33675
▁ꯑꯃꯦꯔꯤꯀꯥꯗ	-9.33805
▁ꯃꯈꯣꯟ	-9.33914
▁ꯍꯥꯏꯔꯤ	-9.34086
▁ꯄꯥꯝꯕ	-9.34149
▁ꯁꯤꯠ	-9.34182
ꯟꯒꯤ	-9.34203
ꯀ꯭ꯌꯨ	-9.34301
▁ꯈꯥꯎ	-9.34351
▁ꯆꯥꯛꯄ	-9.34405
▁ꯕꯦꯖꯕꯣꯜ	-9.34731
▁ꯄꯥꯎꯗꯝ	-9.34787
▁ꯇꯧꯔꯝꯃꯤ꯫	-9.34876
▁꯲꯰꯰꯰	-9.35143
ꯍꯟꯒꯅꯤ꯫	-9.35181
▁ꯇꯨꯃꯤꯟꯅ	-9.35227
▁ꯐꯃꯨꯡꯗ	-9.35245
▁ꯑꯃꯍꯦꯛꯇꯗ	-9.35294
▁ꯅꯦꯝꯕ	-9.3535
▁ꯑꯃꯕꯨ	-9.35516
▁ꯑꯣꯐꯤꯁꯤꯑꯦꯜ	-9.35551
꯵	-9.35571
▁ꯁꯦꯝꯅꯕ	-9.356
▁ꯃꯪ	-9.35856
▁ꯃꯤꯑꯣꯏꯕ	-9.36026
▁ꯇꯨꯡ	-9.36031
▁ꯆꯥꯎꯈꯠ	-9.36135
▁ꯖꯣꯔꯖ	-9.36416
▁ꯌꯣꯟꯕ	-9.36418
▁ꯇꯧꯔꯣꯏꯗꯕꯅꯤ꯫	-9.36452
▁ꯂꯩꯃꯥꯏꯗ	-9.36475
▁ꯁꯟ	-9.36692
▁ꯐꯥꯎꯅꯕ	-9.36751
▁ꯕꯥꯁ	-9.36846
▁ꯀꯣꯄꯤ	-9.36884
▁ꯄꯨꯟꯁꯤꯗ	-9.37098
▁ꯑꯆꯨꯝꯕꯅꯤ	-9.37122
▁ꯋꯥꯟ	-9.37143
ꯩ꯫	-9.37231
▁ꯂꯩꯇ꯭ꯔꯕꯗꯤ	-9.3736
ꯂꯦꯠ	-9.37443
▁ꯄ꯭ꯔꯣꯒ꯭ꯔꯥꯝ	-9.37501
▁ꯍꯥꯏꯔꯤ꯫	-9.37597
▁꯲꯰꯰꯶	-9.3768
▁ꯇꯨꯝꯈꯤ꯫	-9.37771
▁ꯁꯥꯎꯊ	-9.37908
▁ꯇ꯭ꯔꯦ	-9.37914
ꯔꯣꯏꯗꯕꯅꯤ꯫	-9.3797
ꯕꯔꯒ	-9.37978
ꯀꯗꯕꯅꯤ꯫	-9.37978
▁ꯍꯥꯏꯒꯅꯤ꯫	-9.38428
▁ꯃꯄꯨꯔꯣꯏꯕ	-9.38631
▁ꯅꯦꯝ	-9.38774
▁ꯂꯤꯒ	-9.38892
▁ꯁꯥꯅꯈꯤ꯫	-9.38925
▁ꯆꯥꯎꯈꯠꯄ	-9.3894
▁ꯑꯃꯒꯨꯝ	-9.39031
ꯇꯦꯟ	-9.39063
▁ꯀꯣꯏ	-9.39343
▁ꯍꯥꯎꯁ	-9.39367
▁ꯑꯏꯪꯕ	-9.39507
ꯖꯨ	-9.39529
▁ꯊꯦꯡꯅꯈꯤ꯫	-9.39625
▁ꯄꯤꯒꯅꯤ	-9.39627
▁ꯉꯥꯏꯕ	-9.39707
▁ꯄꯨꯝꯕꯗ	-9.39912
▁ꯃꯆꯥꯛ	-9.39915
▁ꯐꯪꯂꯦ꯫	-9.4001
▁ꯊꯣꯛꯂꯛ	-9.4001
▁ꯄꯥꯡꯒꯜ	-9.40061
ꯔꯦꯜ	-9.40062
▁ꯔꯥ	-9.40063
▁ꯐꯣ	-9.40212
▁ꯒꯨ	-9.40818
▁ꯃꯐꯝꯁꯤꯡꯗ	-9.40828
▁ꯁ꯭ꯇꯦꯠ	-9.40856
▁ꯀꯪ	-9.40955
ꯒꯅꯨ	-9.40958
▁ꯇꯝꯈꯤ꯫	-9.41046
ꯑꯦꯐ	-9.41049
▁ꯁꯦꯡꯕ	-9.41103
▁ꯆꯠꯈ꯭ꯔꯦ꯫	-9.41146
▁ꯁ꯭ꯇꯦꯗꯤꯌꯝ	-9.41502
▁ꯐꯨꯔꯤꯠ	-9.41503
▁ꯂꯥꯛꯅꯕ	-9.41661
▁ꯑꯔꯊ	-9.41694
▁ꯄꯔ	-9.41708
▁ꯕꯣꯁꯇꯟ	-9.41731
▁ꯔꯥꯏ	-9.41737
ꯍꯟꯈꯤ	-9.41807
▁꯱꯳	-9.4183
▁ꯖꯦꯟ	-9.41953
▁ꯐꯣꯡꯈꯤ꯫	-9.41956
▁ꯊꯣꯛꯍꯟꯕ	-9.42028
ꯇ꯭ꯔꯦ	-9.42045
▁ꯄꯣꯛꯈꯤ꯫	-9.42126
▁ꯍꯤꯔꯝ	-9.42128
▁ꯊꯤꯡꯅꯕ	-9.42189
▁ꯄꯥꯏꯕ	-9.42302
▁ꯀꯥꯎꯈꯤ꯫	-9.42405
▁ꯆꯠꯂꯤꯕ	-9.42477
▁ꯑꯣꯏꯔꯝꯒꯅꯤ꯫	-9.42582
▁ꯈꯟꯅꯩ꯫	-9.42593
▁ꯊꯤꯕꯗ	-9.42612
▁ꯄꯣꯜ	-9.42636
▁ꯊꯤꯖꯤꯟꯕ	-9.42673
▁ꯑꯣꯟ	-9.42701
▁ꯇꯥꯛꯄꯤ	-9.42713
▁ꯃꯃꯥꯡꯒꯤ	-9.42917
▁ꯀꯣꯜ	-9.42949
▁ꯊꯤꯡ	-9.43027
ꯠꯇ	-9.43063
▁ꯊꯤꯅꯕ	-9.43206
▁ꯅꯨꯄꯤꯁꯤꯡ	-9.43219
▁ꯖꯨꯂꯥꯏ	-9.43219
▁ꯃꯤꯀꯨꯞ	-9.43292
▁ꯂꯝꯕꯥ	-9.43331
▁ꯆꯩ	-9.43464
▁ꯑꯥꯏꯁ	-9.43494
▁ꯒ	-9.43523
▁ꯄꯥꯝꯒꯗ꯭ꯔꯥ	-9.43611
▁ꯂꯥꯎꯕ	-9.43613
▁ꯊꯥꯗꯣꯛꯅꯕ	-9.43721
▁ꯂꯥꯛꯈꯤ	-9.43783
ꯕꯜ	-9.4388
▁ꯂꯣꯏꯁꯤꯟ	-9.44001
▁ꯆꯠꯂꯝꯃꯤ꯫	-9.44042
▁ꯀꯧꯏ	-9.44092
▁ꯂꯣꯠ	-9.44144
▁ꯍꯣꯁꯄꯤꯇꯥꯜꯗ	-9.44195
ꯍꯣ	-9.44203
▁ꯍꯟꯗꯛꯇ	-9.44236
ꯅꯦꯠ	-9.44244
▁ꯄꯤꯛ	-9.4434
▁ꯆꯍꯤꯆꯥꯒꯤ	-9.44345
▁ꯑꯩꯒꯤꯗꯃꯛꯇ	-9.44527
▁ꯄꯥꯏꯈꯠ	-9.44607
▁ꯁꯤꯖꯤꯟꯅꯗꯨꯅ	-9.44622
▁ꯆꯩꯔꯥꯛ	-9.44767
▁ꯂꯅꯥꯏꯒꯤ	-9.44887
▁ꯗꯤꯖꯥꯏꯟ	-9.45069
▁ꯁꯤꯡꯒꯜ	-9.45079
▁ꯅꯨꯡꯁꯤꯗꯦ꯫	-9.45153
▁ꯖꯤꯟ	-9.45159
꯳꯰	-9.45167
▁ꯆꯔꯥ	-9.45346
ꯅꯤꯛ	-9.45381
▁ꯅꯨꯡꯊꯤꯜ	-9.45558
▁ꯅꯥꯏꯇꯣꯝ	-9.45611
ꯝꯕ	-9.45703
ꯂꯤꯌꯥ	-9.45793
▁ꯏꯪꯂꯦꯟ	-9.4584
▁ꯄꯤꯕꯤꯌꯨ꯫	-9.45852
▁ꯂꯧꯊꯣꯛꯈꯤ	-9.45855
▁ꯁꯥꯅ	-9.46185
ꯂꯝꯕ	-9.4619
▁ꯑꯥ	-9.46211
▁ꯑꯣꯒꯁꯠ	-9.46282
▁ꯎꯈꯤ	-9.46307
▁ꯁꯦꯀꯦꯟ	-9.46309
ꯇꯦ꯫	-9.46412
▁ꯍꯟꯊꯅ	-9.46585
▁ꯅꯣꯔꯗꯄꯥꯁꯗꯦꯀꯦꯂ	-9.46593
▁ꯈꯨꯠꯂꯥꯏꯁꯤꯡ	-9.46606
ꯀꯤꯡ	-9.46766
ꯇꯤꯁ	-9.46822
▁ꯑꯉꯥꯡꯁꯤꯡꯕꯨ	-9.46887
▁ꯃꯦꯒꯥꯖꯤꯟ	-9.46901
▁ꯈꯨꯖꯤꯡ	-9.46909
▁ꯇ꯭ꯔꯤ	-9.46993
▁ꯅꯨꯄꯥꯁꯤꯡ	-9.4704
▁ꯄꯤꯈꯤꯗꯦ꯫	-9.47065
▁꯲꯰꯰꯷ꯀꯤ	-9.47255
ꯁ꯭ꯠ	-9.47329
▁ꯅꯝ	-9.47557
▁ꯊꯤꯔꯤ꯫	-9.47558
▁ꯎꯈꯤꯕ	-9.47587
▁ꯂꯩꯈꯤꯗ꯭ꯔꯕ	-9.4761
▁ꯀꯩ	-9.47735
▁ꯒ꯭	-9.47811
▁ꯁꯩꯁꯛꯄ	-9.4783
ꯁꯤꯁ	-9.47872
▁ꯄ꯭ꯔꯣꯖꯦꯛ	-9.47876
ꯂꯤꯕꯅꯣ	-9.47957
▁ꯈꯣꯡꯎꯞꯁꯤꯡ	-9.48041
ꯊꯦ	-9.48063
▁ꯁꯦꯡ	-9.48246
▁꯵꯰	-9.48425
▁ꯇꯦꯂꯤꯐꯣꯟ	-9.48456
ꯌ	-9.48494
ꯇꯤꯟ	-9.4865
▁ꯆꯦꯛꯁꯤꯟꯕ	-9.48651
▁ꯄꯥꯛꯊꯣꯛ	-9.48667
▁ꯕ꯭ꯔꯦꯗ	-9.48704
▁ꯆꯦꯜꯂꯤ	-9.48714
▁ꯂꯩꯔꯛꯂꯤ꯫	-9.48797
▁ꯄꯥꯝꯂꯤꯕꯅꯣ	-9.48876
▁ꯃꯤꯑꯣꯏꯁꯤꯡꯕꯨ	-9.4895
▁ꯁꯥꯡꯅ	-9.49043
▁ꯃꯥꯏꯜ	-9.49125
▁ꯍꯥꯏꯈꯤꯕꯅꯣ	-9.49142
▁ꯅꯩꯅꯕ	-9.49148
▁ꯐꯝꯈꯤ꯫	-9.49238
ꯍꯜ	-9.49302
▁ꯇꯝꯅꯕ	-9.49329
▁ꯍꯛꯊꯦꯡꯅ	-9.49397
▁ꯄꯣꯛ	-9.49524
▁ꯑꯁꯪꯕ	-9.49714
ꯟꯠ	-9.49782
▁ꯂꯟꯗꯟꯗ	-9.49791
▁ꯃꯃꯤꯔꯣꯏ	-9.49807
▁ꯕ꯭ꯂꯦꯛ	-9.49849
▁ꯍꯜꯂꯛꯈꯤ꯫	-9.49925
▁ꯁꯦꯝꯈꯤ	-9.49958
▁ꯄꯔꯤꯈ꯭ꯌꯥ	-9.50031
ꯍꯟꯕꯤꯌꯨ꯫	-9.50083
ꯅꯣꯡꯄꯣꯛ	-9.50173
▁ꯄꯥꯝꯕꯤꯁꯤꯡ	-9.50185
▁ꯊꯥꯖꯗꯕ	-9.5021
▁ꯏꯟꯇꯔꯅꯦꯁꯅꯦꯜ	-9.50349
ꯥꯎ	-9.50425
▁ꯎꯅꯒꯅꯤ	-9.50443
▁ꯖꯦꯛꯁꯟ	-9.50493
▁ꯆꯣꯛ	-9.50505
▁ꯊꯤꯖꯤꯟ	-9.50554
▁ꯃꯥꯔꯆ	-9.50597
▁ꯉꯥꯡꯅꯕ	-9.50609
▁ꯂꯤꯟꯗꯥ	-9.50669
▁ꯄꯨꯟꯁꯤꯟꯅꯕ	-9.5076
▁ꯉꯥꯡꯉꯤ꯫	-9.50832
▁ꯊꯝꯕꯤꯌꯨ꯫	-9.50865
▁ꯁꯥꯁꯤꯡ	-9.50868
▁ꯆꯥꯎꯏ꯫	-9.50878
▁ꯋꯥꯀꯠ	-9.50959
▁ꯄꯣꯛꯈꯤ	-9.50971
ꯀꯨꯝꯕ	-9.51066
▁꯲꯰꯰꯸ꯒꯤ	-9.513
▁ꯀꯥꯗ	-9.51489
▁ꯃꯥꯡꯈꯤ	-9.51513
▁ꯃ꯭ꯌꯨꯖꯤꯌꯝ	-9.51634
▁ꯑꯥꯔꯠ	-9.51671
▁ꯂꯥꯎꯊꯣꯛꯈꯤ꯫	-9.51764
▁ꯁꯥꯈꯤ꯫	-9.51772
ꯇꯤꯕ	-9.51812
▁ꯂꯧꯕꯤꯌꯨ꯫	-9.51827
▁ꯑꯣꯏꯅꯕ	-9.51865
ꯅꯣꯔꯃꯦꯟꯗꯤ	-9.51957
▁ꯀꯝꯄꯦꯅꯤ	-9.51957
▁ꯀ꯭ꯂꯥꯁꯇ	-9.51987
▁ꯌꯥꯎꯈꯤ	-9.51996
▁ꯃꯐꯝꯁꯤꯡ	-9.52011
▁ꯄꯣꯏꯟꯠ	-9.52015
▁ꯁ꯭ꯇꯦꯁꯟꯗ	-9.52096
ꯂꯦꯟꯗ	-9.52118
▁ꯂꯣꯏ	-9.5222
▁ꯈ꯭ꯔꯤꯁꯇ꯭ꯌꯥꯟ	-9.52283
▁ꯈꯨꯠꯇ	-9.52306
▁ꯖꯣꯟꯅ	-9.52373
▁ꯂꯩꯀꯣꯜ	-9.52505
▁ꯑꯣꯁꯇ꯭ꯔꯦꯂꯤꯌꯥꯗ	-9.52534
▁ꯑꯀꯣꯏꯕ	-9.52558
▁ꯈꯨꯗꯣꯡꯊꯤꯕ	-9.52608
▁ꯏꯁꯠ	-9.52637
ꯄ꯭ꯂ	-9.52773
▁ꯂꯨꯏ꯫	-9.52834
▁ꯃꯔꯨ	-9.52836
ꯂꯦꯁ	-9.52837
▁ꯑꯆꯨꯝꯕꯅꯤ꯫	-9.52875
▁ꯒ꯭ꯌꯥꯁ	-9.52935
▁ꯇꯥꯛꯏ꯫	-9.52937
▁ꯔꯣꯗ	-9.53005
▁ꯋꯥꯡ	-9.53041
▁ꯄꯥꯡꯒꯅꯤ	-9.53129
▁ꯇꯨꯡꯒꯤ	-9.53377
▁ꯍꯣꯡꯗꯣꯛ	-9.53387
▁ꯐ꯭ꯂꯥꯏꯠ	-9.53402
▁ꯇꯥꯛ	-9.53602
▁ꯋꯥꯊꯣꯛ	-9.53675
▁ꯀꯞꯄ	-9.53728
▁ꯄꯥꯝꯒꯅꯤ꯫	-9.53846
▁ꯄꯣꯊꯥ	-9.539
▁ꯄꯣꯠꯁꯛ	-9.53924
▁ꯂꯩꯉꯥꯛꯅ	-9.54181
▁ꯊꯦꯡꯊ	-9.54228
ꯍꯜꯂꯦ꯫	-9.54248
▁ꯇꯨꯔ	-9.54251
▁ꯑꯃꯝꯕ	-9.54266
▁ꯖꯅꯨꯋꯥꯔꯤ	-9.54269
▁ꯂꯦꯟꯈꯤ꯫	-9.5429
ꯆꯥ	-9.54358
ꯇꯔꯤ	-9.54372
▁ꯗꯥ	-9.54412
▁ꯊꯝꯃꯣꯏ	-9.54585
▁ꯐꯤꯖꯣꯜ	-9.54585
ꯄꯜ	-9.54614
▁ꯚꯦꯟ	-9.54702
▁ꯂꯥꯛꯂꯦ꯫	-9.54745
▁ꯇ꯭ꯔꯦꯛ	-9.54884
ꯇꯦꯁꯟ	-9.54887
▁ꯇꯤꯀꯦꯠ	-9.54933
▁ꯔꯤꯄꯣꯔꯠ	-9.54934
▁ꯍꯧꯒꯠ	-9.54966
▁ꯊꯨ	-9.54974
▁ꯑꯁꯤꯒꯤꯗꯃꯛ	-9.55022
▁ꯍꯩꯊꯣꯏ	-9.55255
▁ꯊꯥꯏ	-9.55336
▁ꯖꯤꯂꯥ	-9.55479
▁ꯆꯦꯛꯁꯤꯟꯋꯥ	-9.5561
ꯇ꯭ꯔꯥ	-9.55628
▁ꯉꯥꯛꯄꯤ	-9.55699
▁ꯁꯤꯖꯤꯟꯅꯈꯤ꯫	-9.55906
▁ꯈꯣꯡꯊꯥꯡ	-9.5593
▁ꯌꯨꯔꯣꯄꯤꯌꯟ	-9.55956
▁ꯁꯥꯊꯤ	-9.55962
▁ꯑꯅꯤꯔꯛ	-9.56005
▁ꯐꯖꯩ	-9.5609
▁ꯑꯗꯨꯃꯛ	-9.56107
▁ꯄ꯭ꯂꯦ	-9.56133
▁ꯌꯦꯛꯅꯕ	-9.5622
▁ꯊꯥꯖꯗꯦ꯫	-9.56242
▁ꯌꯥꯝꯕ	-9.56268
▁ꯑꯦꯋꯥꯔꯗ	-9.56292
▁ꯆ	-9.56373
▁ꯍꯥꯡꯗꯣꯛꯈꯤ꯫	-9.56422
▁ꯇꯦꯛ	-9.56428
▁ꯑꯣꯐꯤꯁ	-9.56439
▁ꯋꯥꯡꯏ꯫	-9.56473
▁ꯗꯤꯁ	-9.56542
▁ꯂꯩꯉꯥꯛꯂꯣꯟ	-9.56624
꯷	-9.56689
▁ꯉꯥꯛꯊꯣꯛꯄ	-9.56849
▁ꯃꯊꯛ	-9.5689
▁ꯆꯌꯣꯜꯒꯤ	-9.56892
▁ꯄꯥꯡꯊꯣꯛꯈꯤꯕ	-9.56893
▁ꯂꯥꯛꯁꯤꯟꯕ	-9.56915
▁ꯔꯦꯜꯋꯦ	-9.56953
▁ꯐꯒꯅꯤ꯫	-9.57001
▁ꯏꯁꯤꯡꯒꯤ	-9.57075
▁ꯀꯨꯝ	-9.57102
▁ꯃꯤꯁ	-9.5712
▁ꯅꯥꯄꯤ	-9.57147
▁ꯍꯥꯏꯔꯕꯗ	-9.5723
▁ꯂꯩꯉꯥꯛꯂꯣꯟꯒꯤ	-9.57276
▁ꯌꯥꯊꯪ	-9.57292
▁ꯄꯣꯁꯠ	-9.57344
▁ꯂꯩꯁꯤꯡ	-9.57351
▁ꯃꯥꯡ	-9.575
▁ꯇꯧꯈꯤꯕꯅꯣ	-9.57563
ꯈꯥꯏ	-9.57651
ꯖꯣ	-9.57726
▁ꯒ꯭ꯔꯤꯟ	-9.57735
ꯁꯤꯡꯁꯨ	-9.57798
▁ꯆꯦꯡ	-9.5783
▁ꯏꯟꯖꯤꯟ	-9.57885
▁ꯑꯥꯔꯇꯤꯁꯠ	-9.57976
ꯥꯏꯁ	-9.57985
ꯜꯁ	-9.58037
▁ꯈꯨꯠꯁꯤꯡ	-9.58043
▁ꯑꯣꯔ	-9.5808
▁ꯈꯔꯈꯛꯇꯃꯛ	-9.5811
▁ꯃꯔꯨꯞꯁꯤꯡ	-9.58213
▁ꯂꯥꯟꯃꯤꯁꯤꯡ	-9.5826
▁ꯊꯥꯖꯈꯤ꯫	-9.58309
▁ꯁꯟꯅ	-9.58315
ꯂꯛꯂꯤ꯫	-9.58378
▁ꯈꯔꯗ	-9.58383
ꯝꯗ	-9.58414
▁ꯆꯥꯏꯅꯥ	-9.58467
▁ꯍꯥꯏꯔꯛꯄ	-9.58486
▁ꯅꯨꯡꯉꯥꯏꯒꯅꯤ꯫	-9.58618
▁ꯕꯣꯇꯜ	-9.5867
ꯐꯥꯏ	-9.58688
ꯊꯣꯛꯈꯤ꯫	-9.58773
▁ꯆꯥꯎꯅ	-9.58804
▁ꯕꯥꯏ	-9.58806
ꯏꯇꯤꯛꯀꯤ	-9.58816
▁ꯂꯩꯈꯤꯗꯦ	-9.58816
▁ꯇꯧꯔꯝꯕ	-9.58816
꯱	-9.58834
▁ꯑꯦꯄ꯭ꯔꯤꯜ	-9.58839
▁ꯅꯣꯛꯈꯤ꯫	-9.589
▁ꯎꯅꯈꯤꯕ	-9.58919
▁ꯂꯥꯏ꯫	-9.58932
▁ꯄ꯭ꯔꯣꯐꯦꯁꯔ	-9.59007
▁ꯈꯪꯗꯣꯛꯄ	-9.59029
▁ꯆꯣꯡ	-9.59076
▁ꯑꯣꯁꯇ꯭ꯔꯦꯂꯤꯌꯥꯒꯤ	-9.59125
▁ꯏꯟꯇꯔ	-9.59177
ꯗꯁꯨ	-9.59346
▁ꯁ꯭ꯄꯦꯅꯤꯁ	-9.59362
▁ꯃꯥꯡꯍꯟꯕ	-9.59389
▁ꯂꯣꯏꯁꯤꯟꯅꯕ	-9.59476
▁ꯍꯥꯔ	-9.59514
▁ꯃꯦꯅꯦꯖꯔ	-9.59705
▁ꯍꯧꯕ	-9.59771
▁ꯊꯧꯔꯝꯁꯤꯡ	-9.59773
▁ꯌꯥꯎꯔꯤ	-9.59861
▁ꯃꯥꯟꯅꯩ	-9.59889
▁ꯀ꯭ꯔꯦ	-9.59925
▁ꯇꯧꯔꯣꯏ꯫	-9.60007
▁ꯐꯣꯔꯃꯨꯂꯥ	-9.60056
▁ꯇꯧꯈꯤꯕꯒꯦ	-9.60067
▁ꯔꯣꯃꯥꯟ	-9.60076
▁ꯑꯣꯏꯔꯤ	-9.60086
▁ꯀ꯭ꯔꯨ	-9.60087
▁ꯄꯥꯈꯠ	-9.60091
▁ꯁꯦꯟꯊꯣꯛ	-9.60138
▁ꯂꯨꯍꯣꯡꯈꯤ꯫	-9.60305
▁ꯍꯦꯟ	-9.60325
▁ꯊꯝꯃꯤ꯫	-9.60347
ꯁꯤꯌꯟ	-9.60408
▁ꯁꯦꯀ꯭ꯔꯦꯇꯔꯤ	-9.60409
▁ꯃꯟꯇ꯭ꯔꯤ	-9.60415
ꯇꯕ	-9.6053
▁ꯆꯠꯅꯕꯤꯒꯤ	-9.60535
▁ꯄꯔꯦꯡ	-9.60537
▁ꯑꯔꯨꯝꯕ	-9.60544
ꯀꯦꯠ	-9.60553
▁ꯂꯥꯎ	-9.6056
ꯅꯍꯥꯛꯅ	-9.60652
▁ꯀꯛꯄ	-9.6071
▁ꯀꯧꯈꯤ	-9.60726
▁ꯂꯨꯏ	-9.60758
▁ꯐꯣꯡꯈꯤꯕ	-9.60884
ꯃꯄꯥꯅ	-9.60904
▁ꯂꯩꯔꯤꯉꯩꯗ	-9.60915
▁ꯔꯦꯟ	-9.60982
▁ꯖꯦꯛ	-9.60987
▁ꯍꯧꯔꯛꯐꯝ	-9.61116
▁ꯁꯦꯝꯒꯠꯄ	-9.6115
▁ꯁꯦꯝꯃꯤ꯫	-9.61209
ꯞꯄ	-9.61235
▁ꯊꯧꯗꯣꯛꯁꯤꯡ	-9.61293
▁ꯑꯁꯤꯕꯨ	-9.61306
▁ꯁ꯭ꯄꯦꯁ	-9.61377
▁ꯆꯪꯗꯦ꯫	-9.61457
▁ꯇꯥꯕꯗ	-9.61537
▁ꯍꯥ	-9.61555
▁ꯇꯣꯔꯕꯥꯟꯗ	-9.61558
▁ꯑꯣꯏꯍꯟꯈꯤ꯫	-9.61645
▁ꯂꯩꯃꯥꯏ	-9.618
▁ꯅ	-9.61811
▁ꯀꯦꯅꯗꯥꯒꯤ	-9.61858
▁ꯀꯗꯥꯏꯗꯒꯤ	-9.61991
▁ꯄꯤꯛꯄ	-9.6201
ꯐꯥ	-9.62052
ꯔꯗ	-9.62126
▁꯸	-9.62138
▁ꯆꯠꯊꯔꯤꯕ	-9.62248
▁ꯁꯣꯔ	-9.62274
▁ꯊꯣꯛꯂꯤꯕꯒꯦ	-9.62578
▁ꯚꯔ	-9.62678
▁ꯇ	-9.62691
▁ꯏꯈꯤꯕ	-9.62719
ꯁꯟꯒꯤ	-9.62845
▁ꯉꯝꯂꯤꯕ	-9.62874
▁ꯑꯍꯤꯡ	-9.62908
ꯈꯛꯇ	-9.62931
▁ꯁꯨꯄꯔ	-9.62947
▁ꯈꯨꯗꯣꯡꯆꯥꯗꯕꯁꯤꯡ	-9.63019
▁ꯅꯨꯡꯁꯤꯅ	-9.63054
▁ꯈꯟꯈꯤꯕ	-9.63072
▁ꯃꯁꯥꯃꯛꯅ	-9.63136
ꯑꯩꯆ	-9.63236
▁ꯀꯦꯃꯦꯔꯥ	-9.63271
▁ꯄꯤꯀꯥꯔꯗꯤ	-9.63271
ꯊꯔ	-9.63274
▁ꯁꯛ	-9.63277
ꯆꯥꯅ	-9.63298
▁ꯇꯔꯥꯝꯅ	-9.6332
▁ꯆꯣꯠ	-9.63383
▁ꯌꯦꯠ	-9.63451
▁ꯈꯨꯠꯅ	-9.63463
▁ꯄꯥꯔ	-9.63515
▁ꯇꯣꯈꯥꯏꯅ	-9.63565
▁ꯕ꯭ꯔꯦ	-9.63613
▁ꯎꯃꯪ	-9.63638
▁ꯃꯦꯠꯆ	-9.63676
▁ꯇꯛ	-9.63692
▁ꯂꯩꯔꯕꯁꯨ	-9.63743
▁ꯈꯛꯇꯗ	-9.63803
▁ꯆꯠꯄꯒꯤ	-9.63816
▁ꯆꯪꯈꯤ	-9.63866
▁ꯈꯪꯉꯤ꯫	-9.63958
ꯍꯤ	-9.64006
▁ꯂꯩꯇꯦꯡ	-9.64014
▁ꯗꯤꯄꯥꯔꯠꯃꯦꯟꯠ	-9.64065
▁ꯁꯦꯟꯇꯔ	-9.64083
ꯅꯦꯁ	-9.64177
ꯗ꯭ꯔ	-9.64211
▁ꯊꯝꯂꯤꯕ	-9.64255
▁ꯆꯥꯡꯗꯝꯅꯕꯗ	-9.64325
▁ꯃꯆꯥꯛꯁꯤꯡ	-9.64368
▁ꯔꯣꯌꯦꯜ	-9.64382
▁ꯄꯥꯋꯔ	-9.64403
▁ꯊꯥꯒꯠ	-9.64484
▁ꯒ꯭ꯔꯤꯛ	-9.64528
▁ꯄꯨꯔꯛ	-9.64562
▁ꯍꯥꯏꯕꯗ	-9.64627
▁ꯒ꯭ꯔꯨꯞ	-9.64733
▁ꯀꯦꯃꯤꯀꯦꯜ	-9.64733
▁ꯌꯥꯔꯤꯕꯃꯈꯩ	-9.64734
▁ꯑꯁꯥ	-9.64735
ꯂꯣꯟ	-9.64736
▁ꯋꯥꯔꯣꯜ	-9.64769
▁ꯒ꯭ꯔꯦꯠ	-9.64836
ꯁꯤꯡꯅꯤ	-9.64869
▁ꯀꯣꯗ	-9.64884
▁ꯀ꯭ꯔꯣ	-9.64966
▁ꯀꯔ	-9.64988
▁ꯁꯥꯟꯅꯈꯤ꯫	-9.65033
▁ꯃꯦꯞ	-9.65089
▁ꯅꯨꯡꯁꯤꯅꯕ	-9.65105
ꯒ꯭	-9.65145
ꯆꯨ	-9.65158
ꯕꯦꯜ	-9.65177
▁ꯃꯁꯥꯃꯛ	-9.65249
ꯃꯨ	-9.65416
▁ꯄ꯭ꯔꯣꯐꯦꯁꯅꯦꯜ	-9.65473
▁ꯏꯁ꯭ꯋꯔ	-9.65542
▁ꯋꯥꯏ	-9.65579
▁ꯇꯦꯟ	-9.65603
▁ꯑꯗꯨꯃꯛꯇꯗ	-9.65748
▁ꯋꯦꯕ	-9.6576
▁ꯄꯥꯔꯇꯤꯗ	-9.65812
▁ꯔꯤꯄꯕ꯭ꯂꯤꯛ	-9.65844
▁ꯃꯍꯩꯁꯪ	-9.6589
ꯕꯤꯌꯥ	-9.65939
꯭ꯔꯨ	-9.66006
▁ꯐꯦꯟ	-9.66077
▁ꯁꯍꯔꯒꯤ	-9.66097
▁ꯗꯦꯇꯥ	-9.66151
▁ꯀ꯭ꯂꯣ	-9.66278
▁ꯔ	-9.66321
▁ꯃꯥꯏꯄꯥꯛꯈꯤ꯫	-9.66377
▁ꯃꯀꯣꯛꯇ	-9.66421
▁ꯎꯆꯦꯛꯁꯤꯡ	-9.66442
▁ꯆꯪꯁꯤꯟꯈꯤ꯫	-9.66478
▁ꯔꯦꯁ	-9.66507
▁ꯄꯨꯔꯛꯈꯤ꯫	-9.66604
▁ꯈꯪꯏ	-9.66638
▁ꯍꯤꯡꯂꯤꯕ	-9.66642
▁ꯅꯨꯡꯁꯤ꯫	-9.66697
▁ꯇꯧꯅ	-9.66917
▁ꯔꯁꯤꯌꯥ	-9.66979
▁ꯊꯦꯡꯅꯕ	-9.67074
ꯎ꯫	-9.67123
ꯇꯦꯗ	-9.67236
ꯔꯦꯠ	-9.67243
▁ꯀꯥꯞꯈꯤ	-9.67249
ꯤꯛ	-9.67336
...	-9.67541
▁ꯃꯥꯏꯄꯥꯛ	-9.67553
▁ꯂꯤꯟ	-9.67583
ꯇ꯭ꯔꯤ꯫	-9.67628
ꯕꯦꯟ	-9.67642
▁ꯐꯣꯡ	-9.67715
▁ꯅꯣꯛꯄ	-9.6781
▁ꯄꯥꯝꯈꯤ	-9.67857
▁ꯅꯣꯡꯖꯨ	-9.67858
▁ꯂꯝꯗ	-9.67913
▁ꯃꯥꯔꯛ	-9.67964
▁ꯃꯔꯨꯑꯣꯏ	-9.68228
▁ꯑꯅꯤꯃꯛꯇ	-9.68325
ꯛꯅ	-9.68338
▁ꯊꯤꯡꯖꯤꯟꯈꯤ꯫	-9.68393
▁ꯄꯨꯅꯕ	-9.68469
▁ꯂꯩꯔꯒꯅꯤ	-9.68502
▁ꯆꯂꯥꯏ	-9.68565
▁ꯆꯥꯗꯕ	-9.68565
▁ꯊꯦꯡ	-9.68584
▁ꯀꯥꯏꯈꯤ꯫	-9.68622
▁ꯌꯧ	-9.68927
ꯔꯛꯈꯤ꯫	-9.69005
ꯒ꯭ꯔꯦ	-9.69014
▁ꯄꯣꯠꯂꯝ	-9.69099
ꯀꯥꯔ	-9.69255
▁ꯄꯨꯟꯁꯤꯟꯕ	-9.69289
▁ꯇꯥꯅꯕ	-9.6932
▁ꯂꯧꯒꯅꯤ꯫	-9.69372
▁ꯈꯣꯡꯎꯞ	-9.69378
▁ꯀꯤꯔꯤ꯫	-9.69393
▁ꯆꯠꯊꯣꯛ	-9.69421
▁ꯑꯃꯍꯦꯛꯇꯅ	-9.69483
▁ꯏꯈꯤ	-9.6949
▁ꯂꯦꯡꯗ	-9.69505
▁ꯃꯁꯤꯟ	-9.69524
▁ꯌꯧꯕ	-9.69561
▁ꯆꯤꯅꯤ	-9.69685
▁ꯆꯨꯝꯃꯤ	-9.69728
▁ꯏꯝ	-9.69988
▁ꯃꯊꯪꯗ	-9.70041
▁ꯇꯥꯔꯕꯗꯤ	-9.7014
ꯈꯤꯗꯦ	-9.70148
▁ꯂꯥꯟꯒꯤ	-9.70153
▁ꯗꯨ	-9.70218
▁ꯃꯥꯡꯖꯧꯅꯅ	-9.70416
▁ꯑꯦꯄꯥꯔꯠꯃꯦꯟꯠ	-9.70416
▁ꯏꯅꯔꯖꯤ	-9.70417
▁ꯃꯤꯅꯣꯛ	-9.70435
▁ꯐꯣꯡꯗꯣꯛꯈꯤ꯫	-9.70456
▁ꯆꯪꯂꯛꯄ	-9.70474
ꯇꯞꯅ	-9.70726
▁ꯐꯖꯈꯤ꯫	-9.70802
▁ꯗꯦꯁꯛ	-9.70838
▁꯲꯰꯰꯵	-9.70927
▁ꯂꯩꯈꯤꯗꯕ	-9.7102
▁ꯃꯌꯥꯏꯗ	-9.71112
▁ꯅꯥꯔꯕ	-9.7112
▁ꯗꯦꯠ	-9.71217
▁ꯇꯧꯔꯕꯗꯤ	-9.71347
▁ꯀꯨꯏ	-9.71482
▁ꯀꯦꯔꯤꯌꯔ	-9.71603
ꯀꯦꯟ	-9.71608
▁ꯎꯍꯩ	-9.71615
▁ꯄꯨꯊꯣꯛ	-9.71617
▁ꯍꯦꯟꯗꯥꯟꯅꯕ	-9.71622
▁ꯍꯥꯏꯈ꯭ꯔꯦ꯫	-9.71688
ꯀꯨꯝꯅ	-9.71767
▁ꯍꯣꯡꯗꯣꯛꯈꯤ꯫	-9.71818
▁ꯃꯈꯣꯏꯒꯤꯗꯃꯛ	-9.71855
▁ꯀ꯭ꯂꯤ	-9.71888
▁ꯖꯄꯥꯟ	-9.71903
▁ꯃꯈꯨꯔꯥ	-9.71918
▁ꯆꯥꯎ	-9.7195
▁ꯒ꯭ꯔꯦꯖꯨꯑꯦꯠ	-9.71988
▁ꯍꯤꯒꯣꯛ	-9.71988
▁ꯆꯦꯂꯦꯟꯖ	-9.71989
▁ꯁꯥꯟꯇꯤ	-9.71991
▁ꯊꯦꯡꯊꯕ	-9.72123
▁ꯁ꯭ꯇꯤ	-9.72163
▁ꯍꯦꯗ	-9.72203
▁ꯂꯦꯡ	-9.72228
ꯇ꯭ꯔꯤꯕ	-9.72306
▁꯲꯰꯰꯹ꯒꯤ	-9.72331
▁ꯊꯣꯛꯍꯟꯈꯤ꯫	-9.72347
ꯑꯩꯅ	-9.72369
▁ꯆꯣꯀꯣꯂꯦꯠ	-9.72385
▁ꯄꯥꯁꯗꯦꯀꯦꯂꯦꯁ	-9.72393
▁ꯗ꯭ꯔꯥꯏꯕꯔ	-9.72493
▁ꯃꯄꯥꯒꯤ	-9.72622
▁ꯍꯣꯀꯤ	-9.7267
▁ꯖꯤꯝ	-9.72689
▁ꯇꯧꯔꯝꯃꯤ	-9.72717
ꯦꯟꯠ	-9.72774
▁ꯍꯧꯔꯒ	-9.72788
▁ꯂꯥꯟꯖꯥꯎ	-9.7279
▁ꯆꯠꯈꯤꯗꯦ꯫	-9.729
▁ꯇꯝꯕꯗ	-9.72965
ꯝꯃꯤ꯫	-9.73004
▁ꯉꯝꯅꯕ	-9.73044
▁ꯂ	-9.73052
▁ꯐꯖ	-9.73196
ꯥꯏꯖ	-9.73237
▁ꯑꯉꯥꯡꯁꯤꯡꯒꯤ	-9.73373
▁ꯃꯅꯤꯡ	-9.73571
▁ꯈꯟꯖꯔꯤ	-9.73588
▁ꯑꯃꯃꯝ	-9.73602
▁ꯖꯤꯔꯣꯟꯗ	-9.73756
ꯕ꯭ꯔ	-9.73762
ꯔꯤꯕꯅꯣ	-9.73815
▁ꯋꯤꯂꯤꯌꯝ	-9.73833
ꯉ	-9.73935
▁ꯂꯥꯡ	-9.73947
▁ꯊꯥꯗꯣꯛꯈꯤ	-9.73948
▁ꯉꯥꯛꯊꯣꯛꯅꯕ	-9.73988
▁ꯑꯣꯏꯔꯦ	-9.74005
▁ꯁꯛꯇꯤ	-9.74079
▁ꯇ꯭ꯔꯛ	-9.74119
▁ꯍꯦꯟꯒꯠꯂꯛꯄ	-9.74306
▁ꯅꯨꯡꯉꯥꯏꯍꯟ	-9.74329
▁ꯄꯤꯔꯤ	-9.7435
▁ꯑꯦꯟꯇꯤ	-9.74354
▁ꯆꯥꯏꯅꯤꯁ	-9.74427
▁꯲꯵	-9.74489
▁ꯃꯆꯦꯠ	-9.74635
▁ꯃꯦꯆ	-9.74658
▁ꯐꯦꯕ꯭ꯔꯨꯋꯥꯔꯤ	-9.74659
ꯈꯛ	-9.74663
▁ꯍꯨꯝꯅꯤ	-9.7476
ꯈꯛꯇꯃꯛ	-9.74788
▁ꯍꯥꯎ	-9.74805
▁ꯗꯤꯒ꯭ꯔꯤ	-9.74848
▁ꯁꯦꯝꯈꯤꯕꯅꯤ꯫	-9.74849
▁ꯇꯥꯗꯕ	-9.74907
▁ꯁꯥꯟꯅꯩ꯫	-9.74925
ꯂꯕꯁꯨ	-9.7504
▁ꯐꯪꯂꯤꯕ	-9.75091
▁ꯍꯥꯡꯗꯣꯛ	-9.75144
▁ꯇꯥꯎ	-9.75151
▁ꯑꯗꯣꯝꯒꯤ	-9.75191
ꯚꯦꯟ	-9.75196
▁ꯃꯣꯗꯦꯜ	-9.7523
ꯆꯠꯁꯤꯟ	-9.75301
▁ꯕꯣꯁ	-9.75343
▁ꯁꯃꯨꯗ꯭ꯔꯗ	-9.75355
▁ꯇꯨꯄꯤ	-9.75381
▁ꯄꯥꯝꯅ	-9.7539
ꯅꯩꯅꯕ	-9.75432
▁ꯆꯪꯒꯅꯤ꯫	-9.75492
▁ꯄꯣꯠꯊꯣꯛ	-9.75555
▁ꯐꯣꯡꯗꯣꯛ	-9.75662
ꯇꯦꯛ	-9.75677
▁ꯂꯨꯍꯣꯡꯅꯕ	-9.75781
▁ꯍꯥꯠꯈꯤꯕ	-9.75812
▁ꯋꯥꯁꯛꯈꯤ꯫	-9.75914
▁ꯐꯪꯂꯕ	-9.75934
▁ꯌꯨꯅꯤꯚꯔꯁꯤꯇꯤꯗ	-9.75943
▁ꯃꯍꯤ	-9.75956
▁ꯏꯅꯥꯛ	-9.76034
ꯛꯁꯤꯡ	-9.76102
▁ꯂꯧꯅꯩ꯫	-9.76332
▁ꯈꯪꯅꯩ	-9.76378
▁ꯕꯣꯏ	-9.76398
ꯍꯦ	-9.76408
▁ꯑꯁꯣꯛ	-9.76415
▁ꯁ꯭ꯄꯦꯁꯤꯁ	-9.76448
ꯂꯦꯛ	-9.76461
ꯅꯈꯤ꯫	-9.76523
▁ꯕ꯭ꯔꯤ	-9.76561
▁ꯌꯨꯔꯣꯞꯇ	-9.76607
▁ꯂꯣꯟꯁꯤꯡ	-9.7661
ꯃꯥꯟ	-9.76676
▁ꯑꯦꯛ	-9.76718
▁ꯐꯥꯏ	-9.76806
▁ꯆꯦꯝꯄꯤꯌꯟ	-9.76852
ꯑꯄꯟ	-9.76856
▁ꯌꯦꯡꯕꯗ	-9.76858
▁ꯃꯔꯝꯅ	-9.77172
▁ꯁꯤꯕꯒꯤ	-9.77287
▁ꯊꯦꯡꯊꯅ	-9.77307
▁ꯍꯣꯠꯅꯧ꯫	-9.77361
▁ꯏꯪꯂꯦꯟꯗ	-9.7737
ꯅꯤꯌꯟ	-9.77557
▁ꯅꯥꯟꯊꯣꯛꯄ	-9.77604
▁ꯊꯝꯈꯤ	-9.77658
▁ꯍꯜꯂꯛꯀꯅꯤ꯫	-9.77705
ꯍꯧ	-9.77716
▁ꯉꯝꯂꯕꯗꯤ	-9.77733
▁ꯀꯥꯞꯄ	-9.77779
꯭ꯌꯨ	-9.77866
▁ꯄꯣꯞ	-9.77907
▁ꯑꯣꯐꯤꯁꯔ	-9.77927
▁ꯂꯥꯟꯊꯦꯡꯅꯕ	-9.77953
▁ꯆꯦꯁ	-9.78055
▁ꯉꯝꯕ꯭ꯔꯥ	-9.78181
ꯁꯦꯟꯕ	-9.78226
▁ꯈꯪꯒꯗꯕꯅꯤ꯫	-9.78348
▁ꯅꯤꯡꯁꯤꯡꯂꯤ꯫	-9.78353
▁ꯇꯧꯗꯅ	-9.78392
▁ꯇꯝꯈꯤ	-9.78413
▁ꯈꯔꯅꯤ	-9.78413
ꯤꯖꯝ	-9.78449
▁ꯊꯣꯛꯍꯟ	-9.78486
▁ꯏꯆꯥꯎ	-9.78593
ꯀ꯭	-9.78604
▁ꯃꯃꯥꯡ	-9.78714
▁ꯐꯠꯇꯦ꯫	-9.78793
▁ꯌꯦꯡꯁꯤꯟ	-9.78812
▁ꯇ꯭ꯔꯥꯟꯁ	-9.78841
▁ꯄꯥꯏꯈꯤ꯫	-9.78842
▁ꯆꯤꯟ	-9.7895
▁ꯁꯦꯟꯇ꯭ꯔꯦꯜ	-9.78958
ꯃꯛ	-9.79098
▁ꯁꯥꯊꯤꯕ	-9.79134
▁ꯂꯦꯟꯕ	-9.79164
▁ꯊꯝꯂꯤ꯫	-9.79236
▁ꯕ꯭ꯔꯦꯟ	-9.79372
▁ꯌꯦꯔꯨꯝ	-9.79384
▁ꯅꯛꯄ	-9.79409
▁ꯆꯪꯒꯅꯤ	-9.79412
▁ꯁꯦꯡꯗꯣꯛꯄ	-9.79418
▁ꯄꯥꯎꯖꯦꯜ	-9.79419
▁ꯂꯥꯟꯗꯥꯕ	-9.79472
▁ꯌꯦꯡꯂꯤ꯫	-9.79516
▁ꯄꯣꯂꯤꯁꯤ	-9.79516
▁ꯈꯛꯇꯅꯤ꯫	-9.79688
▁ꯊꯧꯔꯥꯡꯁꯤꯡ	-9.79747
▁ꯂꯥꯏꯁꯦꯟꯁ	-9.79821
▁ꯖꯦꯝꯁ	-9.79835
▁ꯄꯨꯈꯤ꯫	-9.7984
▁ꯃꯍꯩꯔꯣꯏꯁꯤꯡ	-9.80096
▁ꯄꯥꯡꯒꯅꯤ꯫	-9.80208
▁ꯆꯠꯂꯒ	-9.8023
▁ꯗꯤꯛꯁꯟꯅꯔꯤ	-9.8024
▁ꯎꯇꯨꯝ	-9.80266
▁ꯍꯥꯡꯗꯣꯛꯄ	-9.80288
▁ꯉꯥꯛꯄꯤꯅꯕ	-9.80362
▁ꯆꯦꯌꯔ	-9.80437
▁ꯎꯠꯅꯕ	-9.80459
ꯂꯤꯌꯟ	-9.80511
▁ꯊꯤꯡꯖꯤꯟ	-9.80643
▁ꯈꯨꯡꯒꯪ	-9.80671
▁ꯂꯣꯏꯁꯤꯟꯈꯤ	-9.80689
▁ꯀꯦꯟꯁꯔ	-9.80708
ꯜꯂꯤ꯫	-9.80919
ꯁꯟꯁꯤꯡ	-9.80965
▁ꯁ꯭ꯃꯤꯊ	-9.81105
▁ꯀꯟꯇ꯭ꯔꯦꯛ	-9.8111
▁ꯃꯥꯜ	-9.81112
▁ꯄ꯭ꯔꯤꯊꯤꯕꯤ	-9.81193
▁ꯍꯥꯏꯒꯗꯒꯦ	-9.81268
▁ꯑꯣꯏꯗꯦ	-9.81286
ꯍꯝ	-9.813
▁ꯃꯤꯑꯣꯏꯁꯤꯡꯗ	-9.81411
▁ꯍꯨꯔꯥꯟꯈꯤ꯫	-9.81424
▁ꯅꯨꯡꯁꯤꯗꯕ	-9.8144
▁ꯈꯔꯈꯛ	-9.81538
▁ꯄꯥꯔꯇꯃꯦꯟꯠ	-9.81539
▁ꯀ꯭ꯔꯣꯁ	-9.81569
ꯇꯥꯏ	-9.81582
▁ꯆꯍꯤꯆꯥꯗ	-9.81599
▁ꯄꯦꯄꯔ	-9.81604
ꯃꯦꯜ	-9.81672
▁ꯖꯨꯔꯥ	-9.81713
▁ꯁꯤꯖꯤꯟꯅꯈꯤ	-9.81796
▁ꯖꯥ	-9.81815
▁ꯊꯤꯔꯤꯕ	-9.81949
ꯁꯤꯞ	-9.81953
▁ꯃꯍꯩꯔꯣꯏꯁꯤꯡꯅ	-9.82123
▁ꯁꯤꯖꯤꯟꯅꯅꯕ	-9.82186
▁ꯄꯟ	-9.82244
▁ꯃꯤꯌꯥꯝꯗ	-9.82277
▁ꯔꯦꯜ	-9.82361
ꯗꯨꯗ	-9.8238
▁ꯍꯣꯠ	-9.82416
▁ꯐꯦꯛꯇꯔꯤ	-9.8242
▁ꯏꯪꯂꯤꯁꯀꯤ	-9.82476
▁ꯄꯤꯇꯔ	-9.8248
▁ꯐꯥꯎꯈꯤ	-9.82493
▁ꯁꯥꯅꯅꯕ	-9.82577
▁ꯁ꯭ꯇꯦꯟ	-9.82594
ꯀ꯭ꯔꯤ	-9.82845
▁ꯃꯈꯣꯡ	-9.82847
▁ꯑꯥꯔꯃꯤ	-9.82854
▁ꯀꯝꯃꯤꯇꯤ	-9.82855
▁ꯆꯃꯝꯅ	-9.82911
ꯂꯣꯏꯗꯕꯅꯤ꯫	-9.82962
▁ꯆꯠꯊꯕ	-9.83014
▁ꯂꯦꯛ	-9.83093
▁ꯍꯛꯆꯥꯡꯒꯤ	-9.83093
ꯖꯤꯡ	-9.83095
▁ꯂꯩꯈꯤꯕ	-9.83166
ꯂꯨ꯫	-9.8319
▁ꯀ꯭ꯌꯨ	-9.83221
ꯍꯟꯈꯤꯕ	-9.83245
▁ꯅꯥꯏꯠ	-9.83283
▁ꯍꯥꯏꯖꯈꯤ	-9.83325
ꯨ꯫	-9.83432
▁ꯕꯨꯛ	-9.83447
▁ꯖꯔꯃꯅꯤꯒꯤ	-9.83508
▁ꯐꯣꯔꯁ	-9.83519
▁ꯕꯣꯔꯗ	-9.83533
▁ꯂꯦꯞꯄꯨ꯫	-9.83606
▁ꯊꯥꯒꯠꯂꯤ	-9.83713
▁ꯃꯗꯨꯗꯒꯤ	-9.83725
▁ꯀꯥꯎꯊꯣꯛ	-9.83731
▁ꯁꯦꯝꯒꯠ	-9.83732
▁ꯀꯥꯈꯠ	-9.83739
▁ꯍꯔ	-9.83924
▁ꯃꯁꯤꯒꯤꯗꯃꯛ	-9.83925
ꯈꯛꯇꯅꯤ꯫	-9.83964
ꯦꯠ	-9.83966
▁ꯐ꯭ꯂꯦ	-9.84017
ꯅꯨ꯫	-9.84191
▁ꯍꯧꯔꯦ꯫	-9.84231
▁ꯈꯨꯝꯅꯕ	-9.84239
ꯗ꯭ꯔꯕ	-9.84284
▁ꯀꯅꯥ	-9.84362
▁ꯀꯗꯥꯏꯗꯒꯦ	-9.84487
▁ꯕ꯭ꯂꯨ	-9.84517
▁ꯁꯦꯝꯃꯤ	-9.84562
▁ꯋꯥꯉꯥꯡ	-9.84637
▁ꯑꯃꯨꯛꯇꯪ	-9.84637
▁ꯅꯥꯀꯟ	-9.84698
▁ꯇꯣꯝꯒꯤꯗꯃꯛ	-9.84737
▁ꯋꯥꯏꯠ	-9.84796
▁ꯃꯈꯨꯠꯇ	-9.84807
▁ꯍꯣꯠꯅꯒꯅꯤ꯫	-9.84884
▁ꯃꯁꯤꯗꯒꯤ	-9.84961
▁ꯍꯣꯝ	-9.84999
ꯁꯤ꯫	-9.85005
ꯔꯅ	-9.85015
ꯠꯅ	-9.85151
▁ꯎꯆꯤ	-9.85237
▁ꯂꯩꯕꯅ	-9.8532
ꯏꯗ	-9.85327
▁ꯊꯥꯒꯤ	-9.8535
ꯇ꯭ꯔꯤꯉꯩ	-9.85386
▁ꯍꯥꯠ	-9.85445
▁꯴꯰	-9.85511
▁ꯔꯣꯝꯗ	-9.85562
▁ꯍꯣꯡꯂꯛꯄ	-9.85614
▁ꯁꯦꯠꯂꯤ꯫	-9.85654
▁ꯍꯥꯏꯈꯤꯕꯒꯦ	-9.85667
▁ꯂꯥꯛꯈꯤꯗꯦ꯫	-9.85742
▁ꯆꯨꯞꯄꯒꯤ	-9.85753
ꯣꯏ	-9.85767
ꯁꯇꯤ	-9.85789
▁ꯍꯦꯛ	-9.85818
▁ꯑꯃꯈꯛꯇꯅꯤ꯫	-9.85858
ꯐꯣꯟ	-9.85876
▁ꯃꯦꯌꯔ	-9.85882
▁ꯍꯥꯠꯄ	-9.85916
▁ꯑꯣꯄꯦꯔꯥ	-9.85994
▁ꯑꯣꯔꯀꯦꯁꯇ꯭ꯔꯥ	-9.85994
▁ꯑꯦꯄꯤꯁꯣꯗ	-9.85994
▁ꯀꯔꯤꯅ	-9.86
▁ꯌꯦꯛꯄ	-9.86002
▁ꯄꯥꯝꯖꯩ꯫	-9.86003
▁ꯈꯥꯏꯗꯣꯛꯄ	-9.86008
▁ꯂꯥꯎꯊꯣꯛ	-9.86011
▁ꯂꯩꯇ꯭ꯔꯕ	-9.86044
ꯔꯣꯟ	-9.86051
▁ꯑꯁꯣꯏꯕꯁꯤꯡ	-9.86116
▁ꯃꯦꯖꯔ	-9.86134
▁ꯂꯨꯄꯥ	-9.86148
▁ꯃꯁꯤꯒ	-9.86278
▁ꯅꯨꯡꯁꯤꯖꯩ	-9.864
▁ꯀꯣꯟ	-9.8653
▁ꯁꯣꯀꯔ	-9.86559
▁ꯐ꯭ꯔꯦꯟꯆꯇ	-9.86661
ꯝꯅ	-9.86667
▁ꯑꯥꯏꯟꯅ	-9.86703
ꯔꯤꯌꯟ	-9.86756
▁ꯕꯦꯜꯖꯤꯌꯝꯒꯤ	-9.86836
▁ꯂꯥꯛꯈꯤꯕ	-9.87045
▁ꯃꯪꯂꯥꯟ	-9.87115
▁ꯂꯩꯔꯣꯏꯗꯕꯅꯤ꯫	-9.87153
▁ꯆꯠꯂꯤꯕꯅꯣ	-9.87167
▁ꯂꯦꯞꯈꯤ	-9.8717
▁ꯏꯟꯗꯁꯇ꯭ꯔꯤ	-9.87173
ꯂꯤꯁ	-9.87175
▁ꯉꯥꯡꯈꯤ꯫	-9.87197
▁ꯁꯦꯟꯃꯤꯠꯂꯣꯟꯒꯤ	-9.87309
ꯔꯟ	-9.87323
▁ꯍꯥꯠꯈꯤ꯫	-9.87485
▁ꯉꯥꯏꯈꯤ꯫	-9.87489
▁ꯆꯠꯄꯗ	-9.87508
▁ꯐꯣꯡꯈꯤ	-9.87517
▁ꯑꯣꯇꯣ	-9.87713
▁ꯆꯥꯡꯆꯠꯇ	-9.87833
▁ꯈꯪꯈꯤ	-9.87926
▁ꯐꯥꯗꯣꯛ	-9.87933
▁ꯍꯥꯏꯕꯁꯤꯅꯤ꯫	-9.87979
ꯗꯦꯜ	-9.88027
▁ꯍꯣꯠꯅꯩ꯫	-9.88033
ꯐꯣꯔ	-9.88042
ꯋꯦꯜ	-9.88044
ꯁꯤꯟꯕ	-9.88096
▁ꯁꯪ	-9.8811
▁ꯃꯥꯡꯈ꯭ꯔꯦ꯫	-9.88165
▁ꯑꯣꯏꯔꯛꯂꯤ꯫	-9.88232
ꯍꯟꯒꯗꯕꯅꯤ꯫	-9.88235
▁ꯆꯥꯔꯕ	-9.88247
▁ꯃꯤꯡꯆꯠ	-9.88299
▁ꯄ꯭ꯔꯃꯥꯟ	-9.88309
ꯟꯁꯤꯡ	-9.88408
▁ꯀ꯭ꯔꯤ	-9.88453
ꯤꯒꯗꯕꯅꯤ꯫	-9.8867
ꯅꯤꯁ	-9.88674
▁ꯂꯥꯏꯐ	-9.88687
▁ꯈ꯭ꯔꯤꯁꯇ	-9.88759
▁ꯁ꯭ꯇꯨꯗꯤꯑꯣ	-9.88766
▁ꯐꯤꯔꯥꯜ	-9.88766
▁ꯀꯥꯜꯚꯥꯗꯣꯁ	-9.88805
▁ꯍꯛꯁꯦꯜ	-9.88862
▁ꯄ꯭ꯔꯦꯁꯔ	-9.88921
▁ꯆꯦꯛꯁꯤꯟꯕꯤꯌꯨ꯫	-9.88992
▁ꯆꯥꯎꯈꯠꯂꯛꯄ	-9.89264
▁ꯊꯨꯒꯥꯏ	-9.89417
▁ꯐꯖꯗꯦ꯫	-9.89466
▁ꯃꯤꯍꯨꯠꯁꯤꯡ	-9.89537
▁ꯐ꯭ꯔꯦ	-9.89548
▁ꯍꯥꯏꯖ	-9.89551
▁꯱ꯗ	-9.89692
▁ꯑꯥꯏꯑꯣꯋꯥ	-9.89707
ꯎꯟ	-9.89724
ꯕꯦꯛ	-9.89878
▁ꯈꯛꯇꯅ	-9.89894
▁ꯃꯦꯜ	-9.89896
▁ꯀꯤꯕ	-9.8996
▁ꯍꯧꯏ꯫	-9.9
ꯁ꯭ꯇꯦ	-9.90154
▁ꯂꯩꯉꯥꯛꯄ	-9.90171
▁ꯁꯥꯈꯤꯕ	-9.90175
▁ꯁ꯭ꯀ꯭ꯋꯥꯔ	-9.90185
▁ꯂꯥꯏꯁꯪ	-9.90208
▁ꯀ꯭ꯂꯦ	-9.90397
▁ꯎꯔꯤ꯫	-9.90426
꯳꯰ꯗ	-9.9045
ꯅꯥꯎ	-9.90452
ꯤꯌꯟ	-9.90556
▁ꯂꯤꯡꯈꯠꯈꯤ꯫	-9.90583
ꯇꯜ	-9.906
▁ꯂꯨꯍꯣꯡꯈꯤ	-9.90729
▁ꯐꯤꯕꯝꯗ	-9.90738
▁ꯌꯣꯔꯛꯇ	-9.90838
▁ꯑꯥꯏꯂꯦꯟꯗ	-9.90882
▁ꯊꯧꯒꯠꯄ	-9.90908
ꯖꯩ	-9.90922
▁ꯂꯩꯇ꯭ꯔꯦ꯫	-9.90939
▁ꯅꯥꯠꯀꯤ	-9.90942
▁ꯂꯣꯟꯅ	-9.91121
▁ꯇꯥꯡꯀꯛ	-9.91137
▁ꯀꯦꯞꯇꯦꯟ	-9.91143
ꯃꯣꯔ	-9.91144
▁ꯕ꯭ꯔꯤꯇꯦꯟ	-9.91145
▁ꯇꯥꯕ꯭ꯔꯥ	-9.91282
▁ꯊꯣꯝ	-9.91353
▁ꯄꯦꯔꯤꯁꯇ	-9.91374
ꯅꯪ	-9.91388
▁ꯁꯤꯜ	-9.91414
▁ꯃꯤꯑꯣꯏꯕꯅ	-9.91426
▁ꯕꯦꯖ	-9.91468
▁ꯃꯤꯈꯜ	-9.91657
▁ꯆꯠꯂꯨ꯫	-9.91686
▁ꯕꯣꯝ	-9.91691
▁ꯁꯥꯈꯤ	-9.91737
▁ꯑꯣꯟꯅ	-9.91738
▁ꯄꯦꯔꯤꯁ	-9.91826
▁ꯅꯨꯡꯉꯥꯏꯈꯤ	-9.91864
ꯔꯛꯂꯦ꯫	-9.91866
▁ꯐꯪꯗꯕ	-9.91905
ꯃꯤꯟ	-9.91983
ꯀꯗ꯭ꯔꯥ	-9.91985
▁ꯋꯥꯍꯪꯁꯤꯡ	-9.92011
▁ꯄꯨꯈꯠ	-9.92015
▁ꯁ꯭ꯀꯤ	-9.92053
ꯀꯗꯒꯦ	-9.92091
ꯋ	-9.92092
▁ꯍꯥꯏꯈꯤꯗꯦ	-9.92095
▁ꯇꯝꯂꯤ꯫	-9.92229
▁ꯑꯣꯜ	-9.92236
▁ꯁꯦꯝꯕꯅꯤ꯫	-9.9226
▁ꯈꯟꯗꯦ꯫	-9.92316
▁ꯊꯥꯛꯇ	-9.92366
▁ꯑꯅꯤꯅ	-9.92372
ꯄ꯭ꯂꯦ	-9.9241
▁ꯍꯣꯡꯗꯣꯛꯈꯤ	-9.92431
▁ꯀꯥꯟꯅ	-9.92541
▁ꯄꯦꯔꯥꯃꯤꯇꯔ	-9.92585
▁ꯄꯦꯟꯁꯤꯜ	-9.92604
▁ꯑꯁꯣꯛꯄ	-9.92619
ꯁꯥꯏ	-9.92633
▁ꯍꯣꯠꯅꯒꯗꯕꯅꯤ꯫	-9.9267
▁꯲꯰꯱꯰ꯒꯤ	-9.927
▁ꯍꯦꯟꯔꯤ	-9.92713
▁ꯍꯥꯡꯗꯣꯛꯈꯤ	-9.92751
ꯅꯨꯡ	-9.92852
▁ꯆꯤꯡꯅ	-9.9286
▁ꯄꯥꯈꯤ꯫	-9.92864
▁ꯂꯤꯡꯈꯠꯈꯤꯕ	-9.92889
▁ꯍꯥꯏꯗꯨꯅ	-9.92926
ꯔꯕꯁꯨ	-9.93082
▁ꯃꯣꯇꯣꯔ	-9.93096
▁ꯃꯁꯥꯃꯛꯄꯨ	-9.93122
▁ꯊꯥꯖꯩ	-9.93148
▁ꯊꯛꯈꯤ꯫	-9.93154
▁ꯁ꯭ꯇꯣꯔꯝ	-9.93159
ꯄꯦꯟ	-9.93174
ꯇꯤꯀꯦꯜ	-9.9319
▁ꯕꯦꯛ	-9.93228
▁ꯌꯧꯔꯛꯈꯤ	-9.93237
▁ꯂꯩꯔꯣꯏ꯫	-9.93306
▁ꯄ꯭ꯔꯦ	-9.93364
▁ꯑꯦꯂꯤ	-9.93382
ꯔꯝꯒꯅꯤ꯫	-9.93473
▁ꯃꯍꯩꯁꯪꯗ	-9.93521
▁ꯇꯧꯕꯒꯦ	-9.9355
▁ꯌꯦꯅꯤꯡꯊꯥ	-9.93563
▁ꯈꯪꯂꯨꯗꯦ꯫	-9.93563
▁ꯎꯀꯤꯜ	-9.93569
▁ꯍꯋꯥꯏ	-9.9357
▁ꯆꯠꯁꯤ꯫	-9.93585
▁ꯇꯥꯗꯦ	-9.93625
▁ꯏꯔꯥꯏ	-9.93741
ꯠꯁ	-9.93938
▁ꯂꯥꯟꯊꯣꯛꯄ	-9.94018
▁ꯑꯦꯀ꯭ꯋꯤꯇꯦꯟ	-9.94055
▁ꯉꯝꯈꯤꯗꯦ	-9.94083
▁ꯑꯦꯠꯂꯥꯟꯇꯤꯛ	-9.94096
▁ꯀꯨꯝꯍꯩꯁꯤꯡ	-9.94137
▁ꯆꯦꯅꯦꯜ	-9.94138
ꯔꯤꯉꯩꯗ	-9.94286
ꯂꯤꯁꯠ	-9.94393
▁ꯑꯅꯤꯃꯛꯀꯤ	-9.9444
▁ꯊꯤꯡꯈꯤ꯫	-9.94491
▁ꯃꯤꯜ	-9.94528
▁ꯅꯦꯠꯋꯔꯛ	-9.94551
▁ꯂꯤꯡꯛ	-9.94565
▁ꯀꯣꯝꯂꯥ	-9.94587
▁ꯑꯣꯏꯒꯗꯕꯅꯤ꯫	-9.94694
▁ꯅꯛꯅ	-9.94776
▁ꯀꯥꯏꯅ	-9.94946
▁ꯏꯀꯥꯏꯈꯨꯝꯅ	-9.94947
▁ꯂꯥꯏꯠ	-9.94957
▁ꯕꯦꯒ	-9.94992
▁ꯑꯦꯁꯄꯦꯔꯥꯟꯇꯣ	-9.95048
▁ꯁꯨꯠꯀꯦꯁ	-9.95048
▁ꯀꯣꯔꯠ	-9.95136
▁ꯈꯣꯏ	-9.95243
ꯜꯂꯛꯄ	-9.95271
ꯌꯦꯜ	-9.95337
▁ꯀꯛꯊꯠ	-9.95433
▁ꯂꯥꯛꯁꯤꯟ	-9.95511
▁ꯊꯥꯛꯀꯤ	-9.95518
▁ꯍꯟꯗꯣꯛ	-9.95534
▁ꯆꯥꯟꯕꯤꯔꯒ	-9.95554
▁ꯑꯣꯏꯔꯒ	-9.95573
▁ꯀꯦꯠ	-9.9559
ꯅꯠꯇꯦ	-9.95609
▁ꯂꯥꯛꯀꯗꯧꯔꯤꯕ	-9.95633
ꯅꯤꯡꯕ	-9.9566
▁ꯈꯪꯂꯕ	-9.95716
▁ꯐ꯭ꯂꯣꯔꯤꯗꯥ	-9.95726
▁ꯂꯟꯗꯟꯒꯤ	-9.95816
▁ꯀꯩꯁꯨꯝꯁꯪꯗ	-9.95892
▁ꯑꯦꯔꯄꯣꯔꯠꯇ	-9.95943
▁ꯀꯥꯡ	-9.95958
▁ꯀꯟꯐꯔꯦꯟꯁ	-9.9605
▁ꯑꯣꯀ꯭ꯂꯥꯍꯣꯃꯥ	-9.9605
▁ꯇꯦꯛꯅꯣꯂꯣꯖꯤ	-9.96053
▁ꯃꯥꯎꯟꯠ	-9.96056
▁ꯊ	-9.96062
▁ꯇꯥꯎꯟ	-9.9608
▁ꯄꯣꯛꯈꯤꯕ	-9.96096
▁ꯊꯥꯒꯠꯈꯤ	-9.96108
▁ꯎꯗꯦ꯫	-9.96116
▁ꯋꯤꯜ	-9.96118
ꯈꯠꯂ	-9.96134
▁ꯌꯦꯡꯂꯝꯃꯤ꯫	-9.96147
ꯝꯞ	-9.9617
▁ꯐꯥꯎꯅ	-9.96204
ꯗ꯭ꯔꯕꯁꯨ	-9.96217
▁ꯂꯥꯎꯊꯣꯛꯈꯤ	-9.96218
▁ꯕ꯭ꯔꯥ	-9.96247
▁ꯑꯅꯤꯗ	-9.96338
▁ꯀꯦꯝꯞ	-9.9635
▁ꯌꯣꯟ	-9.9635
ꯃꯁꯤ	-9.9637
ꯀꯣꯟ	-9.96408
ꯔꯤꯌꯥ	-9.9642
▁ꯃꯆꯥꯁꯤꯡ	-9.96432
▁ꯇꯥꯛꯂꯤ꯫	-9.96433
ꯤꯁꯠ	-9.96446
▁ꯃꯩꯒꯤ	-9.96471
▁ꯕꯦꯠ	-9.96553
▁ꯅ꯭ꯌꯨꯀ꯭ꯂꯤꯌꯔ	-9.96555
▁ꯄꯨꯟꯁꯤꯟꯈꯤ꯫	-9.96562
▁ꯄꯥꯏꯈꯠꯄ	-9.96615
꯱꯰	-9.96636
▁ꯀ꯭ꯔꯤꯁ	-9.96664
▁ꯀꯤꯡ	-9.96705
▁ꯚꯥꯔꯠꯀꯤ	-9.96735
ꯅꯔꯤ	-9.96738
▁ꯂꯣꯏꯔꯦ꯫	-9.96807
▁ꯒ꯭ꯔꯥ	-9.96808
▁ꯍꯥꯕ	-9.96827
▁ꯑꯣꯏꯍꯜꯂꯤ꯫	-9.97042
ꯐꯔ	-9.97054
▁ꯒꯕꯔꯅꯔ	-9.97063
▁ꯍꯟꯊꯔꯛꯄ	-9.97115
▁ꯚꯥꯔꯥ	-9.97121
ꯒꯜ	-9.97122
▁ꯂꯣꯏꯅ	-9.97123
▁ꯑꯃꯦꯔꯤꯀꯥ	-9.97123
▁ꯅꯣꯛꯅꯤꯡꯉꯥꯏ	-9.97153
▁ꯁꯨꯠ	-9.97199
▁ꯈꯪꯅꯔꯕ	-9.97207
▁ꯐꯝꯕ	-9.973
▁ꯀꯦꯞ	-9.97332
▁ꯇꯦꯛꯁꯤ	-9.97379
▁ꯑꯥꯎꯠ	-9.97386
▁ꯂꯩꯅꯩ꯫	-9.97415
▁ꯆꯥꯔꯜꯁ	-9.97423
ꯊꯨꯝꯒꯤ	-9.97425
ꯍꯟꯒꯅꯤ	-9.97431
ꯐꯣꯔꯗ	-9.97479
ꯨꯟ	-9.97518
▁ꯃꯥꯟꯅ	-9.97519
▁ꯇ꯭ꯔꯥꯏꯕ	-9.97567
▁ꯄꯦꯁꯤꯐꯤꯛ	-9.97573
▁꯱꯹꯸꯰	-9.97591
▁ꯅꯤꯛ	-9.97593
▁ꯉꯝꯗ꯭ꯔꯦ꯫	-9.97615
▁ꯁꯥꯡꯕ	-9.97627
▁ꯊꯣ	-9.97629
▁ꯇꯧꯔꯣꯏꯗꯕꯅꯤ	-9.97635
▁ꯐꯤꯜꯗ	-9.97645
▁ꯃꯥꯏꯄꯥꯛꯀꯅꯤ	-9.97701
▁ꯑꯗꯣꯝ	-9.97768
▁ꯀꯨꯞ	-9.97832
▁ꯄꯣꯂꯤ	-9.97856
▁ꯖꯦꯜꯗ	-9.97864
▁ꯆꯠꯂꯣꯏ	-9.97929
▁ꯕ꯭ꯔꯣ	-9.98074
▁ꯀꯦꯊꯣꯂꯤꯛ	-9.98086
▁ꯀꯨꯟꯊ꯭ꯔꯥ	-9.98086
▁ꯏꯂꯦꯛꯇ꯭ꯔꯤꯛ	-9.98248
▁ꯂꯧꯊꯣꯛꯅꯕ	-9.9831
ꯂꯛꯂꯤ	-9.9843
ꯂꯥꯏꯟ	-9.98442
▁ꯍꯣꯁꯄꯤꯇꯥꯜ	-9.98551
ꯃꯦꯠ	-9.98567
▁ꯆꯥꯅꯅꯕ	-9.98568
▁ꯏꯇꯥꯂꯤꯒꯤ	-9.98592
▁ꯗꯤꯔꯦꯛꯇꯔ	-9.98602
▁ꯑꯥꯔꯇꯤꯀꯜꯁꯤꯡ	-9.98752
▁ꯀꯣꯟꯅ	-9.98871
▁ꯁꯥꯏ꯫	-9.98876
▁ꯌꯨꯅꯤꯠ	-9.98887
▁ꯒꯣꯜꯐ	-9.98943
▁ꯐ꯭ꯔꯥꯟꯁꯇ	-9.98967
▁ꯄ꯭ꯂꯥ	-9.98972
▁ꯃꯃꯥꯏ	-9.99051
▁ꯆꯂꯥꯏꯕ	-9.99056
▁꯲꯰꯰꯴	-9.99081
▁ꯈꯣꯡꯖꯪ	-9.9912
▁ꯐꯝꯕꯥꯛ	-9.99123
▁ꯀꯣꯂꯣꯝ	-9.99175
▁ꯈꯪꯂꯛꯄ	-9.99182
ꯐꯤꯜꯗ	-9.99192
▁ꯍꯦꯜ	-9.99211
▁ꯃꯑꯣꯡꯁꯤꯡ	-9.99223
▁ꯑꯦꯔꯄꯣꯔꯠ	-9.99237
▁ꯊꯝꯃꯨ꯫	-9.99248
▁ꯅꯨꯡꯉꯥꯏꯈꯤꯗꯦ꯫	-9.99288
▁꯲꯲	-9.993
▁ꯎꯠꯂꯤ	-9.99333
▁ꯍꯤꯔꯣ	-9.99357
ꯂꯥꯟ	-9.99414
▁ꯆꯥꯗꯦ꯫	-9.99423
▁ꯍꯥꯏꯖꯕ	-9.99471
ꯈꯛꯇꯗ	-9.99483
ꯆꯥꯎꯔꯕ	-9.99553
▁ꯍꯤꯠ	-9.99556
▁ꯌꯥꯗꯦ	-9.99564
▁ꯂꯥꯟꯊꯦꯡꯅ	-9.99628
▁ꯊꯣꯛꯏ	-9.99634
▁ꯂꯩꯕꯤꯌꯨ꯫	-9.99635
▁ꯄ꯭ꯔꯦꯁꯤꯗꯦꯟꯠ	-9.9964
▁ꯕꯁꯇ	-9.99668
▁ꯁꯣꯛꯈꯤ꯫	-9.99676
ꯗꯣꯛ	-9.998
▁ꯂꯦꯟꯗ	-9.99898
▁ꯂꯣꯁ	-9.99933
▁ꯀ꯭ꯋꯤꯟ	-9.99973
▁ꯄꯦꯔꯥ	-10.0005
▁ꯊꯤꯌꯦꯇꯔ	-10.0011
▁ꯏꯟꯇꯔꯚ꯭ꯌꯨ	-10.0017
▁ꯂꯩꯔꯝ	-10.0023
▁ꯁꯦꯟꯃꯤꯠꯂꯣꯟ	-10.0023
▁ꯔꯤꯡ	-10.0029
▁ꯈꯦꯠꯅꯩ꯫	-10.004
ꯍꯟꯗꯨꯅ	-10.0043
▁ꯊꯣꯡꯗ	-10.0043
▁ꯀꯣꯏꯅ	-10.0043
ꯕꯤꯌꯨ	-10.0047
▁ꯑꯗꯣꯝꯅ	-10.0054
ꯂꯟ	-10.0055
ꯁꯤꯜ	-10.0055
▁ꯄꯥꯡꯕꯤꯕ	-10.0055
▁ꯂꯥꯟꯗꯥ	-10.0058
ꯦꯟꯁ	-10.0064
▁ꯇꯉꯥꯏꯐꯗꯕ	-10.0069
▁ꯃꯌꯣꯜ	-10.0069
▁ꯅꯠꯇꯕ	-10.007
▁ꯃꯥꯏꯄꯥꯛꯈꯤ	-10.0081
▁ꯆꯍꯤꯒꯤ	-10.0082
▁ꯅꯨꯄꯤꯁꯤꯡꯅ	-10.0091
▁ꯀ꯭ꯋꯥ	-10.0096
▁ꯁꯅꯥ	-10.0099
▁ꯍꯥꯏꯒꯗ꯭ꯔꯥ	-10.0101
꯭ꯌꯥ	-10.011
▁ꯃꯦꯊ	-10.011
▁ꯍꯣꯏ	-10.0117
▁ꯑꯇꯦꯛꯄ	-10.0122
▁ꯄꯨꯋꯥꯔꯤꯗ	-10.0123
▁ꯇꯥꯏꯝ	-10.0125
ꯚꯣ	-10.0131
▁ꯅꯥꯀꯣꯡ	-10.0138
ꯇꯤꯒꯤ	-10.0143
▁ꯏꯇꯤꯛ	-10.0146
ꯜꯂꯤ	-10.0147
▁ꯐꯥꯎꯕꯒꯤ	-10.0148
ꯡꯒ	-10.0156
ꯐꯠ	-10.0158
▁ꯆꯦꯟꯊ	-10.0158
▁ꯑꯇꯤꯌꯥ	-10.0163
ꯗꯧ	-10.0163
▁꯲꯴	-10.0169
▁ꯃꯁꯤꯒꯨꯝꯕ	-10.0171
▁ꯂꯣꯏꯁꯪ	-10.0173
▁ꯗꯤꯕꯤꯖꯟ	-10.0175
ꯍꯨꯝꯖꯤꯟꯕ	-10.0176
ꯜꯅ	-10.0182
▁ꯂꯩꯔꯛꯄ	-10.0189
▁ꯑꯣꯁ	-10.0192
▁ꯅꯝꯊ	-10.0195
▁ꯁ꯭ꯇꯦꯖ	-10.0196
▁ꯕꯦꯜ	-10.0224
▁ꯃꯥꯄꯟ	-10.0225
▁ꯄꯨꯊꯣꯛꯏ	-10.0229
ꯅꯥꯒꯤ	-10.0238
▁ꯍꯥꯞꯆꯤꯟ	-10.0255
ꯔꯣꯏꯗꯕꯅꯤ	-10.0262
▁ꯃꯔꯤꯁꯨꯕ	-10.0262
▁ꯅꯤꯡꯊꯝꯊꯥ	-10.0269
▁ꯈꯣꯡꯁꯤꯡ	-10.0271
ꯔꯥꯏ	-10.0273
▁ꯎꯠꯂꯤꯕ	-10.028
▁ꯋꯦꯕꯁꯥꯏꯠ	-10.0283
▁ꯍꯜꯂꯛꯀꯅꯤ	-10.0283
▁ꯐ꯭ꯔꯥꯟꯁ	-10.0284
▁ꯒꯦꯝꯁꯤꯡ	-10.0293
▁ꯁ꯭ꯔꯤ	-10.0302
꯸	-10.0303
ꯀ꯭ꯋꯤ	-10.0307
▁ꯋꯤꯀꯤꯄꯤꯗꯤꯌꯥ	-10.032
▁ꯑꯃꯍꯦꯛꯇꯕꯨ	-10.0322
▁ꯑꯦꯅꯤꯃꯦ	-10.0329
ꯃꯁ	-10.0333
꯸꯵	-10.0339
▁ꯆꯥꯎꯊꯣꯛꯆꯩ꯫	-10.0348
▁ꯃꯃꯥꯒꯤ	-10.0359
▁ꯆꯥꯎꯊꯣꯛ	-10.0363
ꯆꯝꯕ	-10.0369
▁ꯅꯨꯄꯥꯃꯆꯥꯁꯤꯡ	-10.0381
▁ꯄꯥꯀꯤꯁꯇꯥꯟꯒꯤ	-10.0389
▁ꯒ꯭ꯔꯍ	-10.0391
▁ꯇꯨꯝꯅꯕ	-10.0391
▁ꯍꯛꯁꯦꯜꯒꯤ	-10.0409
ꯔꯤꯟ	-10.0417
▁ꯑꯣꯏꯕꯅ	-10.0421
▁ꯃꯇꯥꯡ	-10.0426
▁ꯆꯥꯛꯈꯤ꯫	-10.043
ꯕ꯭ꯔꯦ	-10.0433
▁ꯇꯣꯝꯅꯤ꯫	-10.0434
▁ꯈꯪꯂꯤꯕ	-10.0436
▁ꯋꯥꯕ	-10.0437
▁ꯂꯝꯄꯥꯛ	-10.0446
ꯁꯥꯖꯠ	-10.0446
▁ꯔꯁꯤꯌꯟ	-10.0447
▁ꯈꯨꯠꯁꯥ	-10.0448
ꯖꯝ	-10.0454
▁ꯁꯨꯞ	-10.0456
▁ꯒ꯭ꯂꯣꯕ	-10.0459
▁ꯍꯟꯊꯕ	-10.0464
ꯂꯁ	-10.0464
▁ꯍꯥꯏꯔꯣꯏ	-10.0469
▁ꯍꯥꯏꯕꯤꯕ	-10.0469
▁ꯇꯧꯈꯤꯕ꯭ꯔꯥ	-10.0471
▁ꯃꯥꯏꯄꯥꯛꯄꯒꯤ	-10.0484
▁ꯂꯧꯅ	-10.0485
ꯃꯥꯔ	-10.0497
▁ꯇꯔꯥꯅꯤꯊꯣꯏ	-10.05
▁ꯁꯥꯟꯅꯔꯣꯏꯁꯤꯡ	-10.0503
ꯕ꯭ꯔꯤ	-10.0507
▁ꯑꯗꯨꯒꯨꯝꯅ	-10.0507
▁ꯈꯟꯖꯩ꯫	-10.0517
▁ꯂꯩꯕꯥꯛꯁꯤꯡꯗ	-10.0517
▁ꯃꯇꯣꯟ	-10.0533
▁ꯒꯥ	-10.0534
ꯗꯣꯛꯄ	-10.0543
▁ꯁ꯭ꯄꯤ	-10.0555
▁ꯆꯠꯇ꯭ꯔꯤꯉꯩ	-10.0558
▁ꯍꯧꯗꯣꯛꯄ	-10.0558
▁ꯍꯥꯔꯠ	-10.0568
▁ꯀꯨꯞꯅ	-10.0571
▁ꯃꯔ	-10.0572
▁ꯑꯇꯤꯌꯥꯗ	-10.0572
ꯅꯨꯄꯤ	-10.0576
▁ꯃꯒꯨꯟ	-10.0578
▁ꯑꯣꯟꯊꯣꯛ	-10.058
▁ꯅꯛꯅꯅ	-10.0586
▁ꯊꯣꯛꯄꯒꯤ	-10.0588
ꯁꯤꯗ	-10.0595
▁ꯄꯨꯂꯤꯁꯇ	-10.0602
▁ꯁ꯭ꯇꯣꯛ	-10.0605
▁ꯕ꯭ꯔꯥꯎꯟ	-10.0612
▁ꯑꯗꯨꯛ	-10.0612
▁ꯀꯂꯥ	-10.0618
▁ꯅꯥꯔꯦ꯫	-10.0619
▁ꯐꯖꯗꯕ	-10.0619
▁ꯄꯨꯜ	-10.0623
▁ꯈꯟꯒꯅꯤ	-10.0628
▁ꯄꯥꯡꯊꯣꯛꯏ꯫	-10.0632
▁ꯕꯦꯔꯤ	-10.0642
▁ꯄꯥꯏ꯫	-10.0647
▁ꯁꯣꯜ	-10.0651
▁ꯂꯥꯟꯕꯟ	-10.0667
▁ꯔꯣꯕꯔꯠ	-10.0669
▁ꯀꯥꯡꯂꯣꯟ	-10.0671
▁ꯅꯨꯡꯁꯤꯠꯀꯤ	-10.0674
ꯀꯅꯨ꯫	-10.0681
▁ꯋꯥꯔꯦ꯫	-10.0682
▁ꯆꯥꯛꯁꯪꯗ	-10.0688
▁ꯊꯥꯖꯈꯤꯗꯦ꯫	-10.0691
꯶꯶	-10.0691
▁ꯅꯤꯡ	-10.0694
ꯔꯣꯜ	-10.0702
▁ꯇꯥꯒꯅꯤ	-10.0706
▁ꯋꯥꯠ	-10.0709
▁ꯇꯦꯕꯜꯗ	-10.071
▁ꯃꯤꯡꯊꯣꯜ	-10.0723
▁ꯃꯄꯥꯕꯨꯡ	-10.0723
▁ꯇꯥꯋꯔ	-10.0733
ꯀꯣꯔ	-10.0738
ꯔꯣꯏꯗ꯭ꯔꯥ	-10.0738
▁ꯇꯥꯛꯅꯕ	-10.0741
▁ꯁꯦꯝꯖꯤꯟꯕ	-10.0747
ꯃꯤꯛ	-10.0748
ꯈꯣꯠꯅꯕ	-10.0758
▁ꯂꯩꯔꯤꯕꯒꯦ	-10.076
ꯤꯔꯒꯅꯤ	-10.076
▁ꯆꯍꯤꯆꯥ	-10.0765
ꯔꯛꯀꯅꯤ	-10.0767
▁ꯈꯟꯕꯒꯦ	-10.0772
ꯀ꯭ꯔꯣ	-10.0775
ꯂꯝꯒꯅꯤ꯫	-10.0777
▁ꯍꯪꯒꯥꯝ	-10.078
▁ꯃꯥꯔꯤꯌꯥ	-10.0781
▁ꯀ꯭ꯔꯥꯏꯝ	-10.0787
▁ꯇꯁꯦꯡꯕꯗꯤ	-10.0788
▁ꯄꯥꯡꯊꯣꯛꯅꯕ	-10.0789
▁ꯂꯥꯟꯃꯤꯁꯤꯡꯅ	-10.0789
▁ꯐꯥꯔꯝ	-10.0794
▁ꯌꯨꯖꯔ	-10.0808
▁ꯊꯧꯔꯤ	-10.0808
▁ꯈ꯭ꯔꯤꯁꯃꯥꯁ	-10.0808
▁ꯅꯣꯠ	-10.0823
▁ꯄꯥꯛꯄ	-10.0824
▁ꯇꯥꯔ	-10.0832
▁ꯁꯦꯝꯕꯗ	-10.0832
▁ꯍꯤꯜ	-10.0835
▁ꯁꯦꯟꯗꯋꯤꯆ	-10.0837
▁ꯄꯥꯔꯂꯤꯌꯥꯃꯦꯟꯠ	-10.0837
▁ꯋꯥꯁꯤꯡꯇꯟ	-10.0837
▁ꯃꯤꯔꯣꯜ	-10.0846
▁ꯃꯍꯩꯁꯤꯡ	-10.0848
▁ꯇꯧꯒꯗ꯭ꯔꯥ	-10.0849
▁ꯆꯥꯛꯂꯦꯟꯗ	-10.0857
▁ꯀꯥꯎꯟꯇꯤꯗ	-10.0858
▁ꯈꯣꯡꯈꯤ꯫	-10.0858
ꯦꯛꯁ	-10.0858
ꯍꯜꯂꯨ꯫	-10.086
ꯐꯨ	-10.0863
ꯇꯣꯟ	-10.0864
▁ꯍꯜꯂꯛꯈꯤ	-10.0867
▁ꯑꯌꯦꯡꯕꯁꯤꯡ	-10.0871
▁ꯂꯨꯍꯣꯡꯕꯒꯤ	-10.0873
▁ꯈꯪꯂꯝꯃꯤ꯫	-10.0873
▁ꯅꯥꯔꯦ	-10.0879
▁꯲꯳	-10.0883
▁ꯄꯥꯔꯛꯇ	-10.0886
▁ꯇꯧꯔꯒ	-10.0886
ꯗ꯭ꯔꯤꯐꯥꯎꯕ	-10.0894
▁ꯖꯨꯅꯤꯌꯔ	-10.0895
▁ꯂꯝꯈꯩ	-10.0895
▁꯱꯹꯷꯰	-10.0896
▁ꯆꯠꯂꯣꯏ꯫	-10.0904
▁ꯄꯥꯡꯒꯗꯕꯅꯤ	-10.0913
▁ꯂꯧꯔꯤꯕ	-10.0925
ꯂꯤꯇꯤ	-10.0933
▁ꯁꯥꯡ	-10.0947
▁ꯇꯥꯏꯕꯪ	-10.0951
▁ꯐꯥꯏꯅꯦꯜ	-10.0953
ꯔꯛꯂꯤꯕ	-10.0953
▁ꯂꯥꯟꯊꯣꯛ	-10.0955
▁ꯂꯦꯇꯤꯟ	-10.0956
▁ꯃꯉꯥꯒꯤ	-10.0956
▁ꯐ꯭ꯔꯣ	-10.0961
▁ꯇꯧꯔꯛꯄ	-10.0962
▁ꯆꯨꯅ	-10.0962
▁ꯁ꯭ꯇꯣ	-10.0971
▁ꯄꯥꯕꯗ	-10.0971
▁ꯄꯤꯗꯦ꯫	-10.099
▁ꯅꯨꯡꯁꯤꯖꯕ	-10.0993
ꯝꯕꯤ	-10.0995
▁ꯍꯥꯏꯕꯅꯤ꯫	-10.1001
▁ꯌꯦꯡꯁꯤꯟꯒꯅꯤ	-10.1001
▁ꯇꯧꯁꯤ	-10.1008
▁ꯃꯦꯝꯕꯔ	-10.1008
ꯕꯒꯨꯝ	-10.1011
▁ꯑꯥꯏꯂꯦꯟ	-10.1012
▁ꯑꯣꯄꯟ	-10.1015
▁ꯐꯒꯅꯤ	-10.1024
ꯍꯥꯏ	-10.103
▁ꯂꯩꯔꯤꯕꯅꯣ	-10.1038
ꯤꯌꯔ	-10.1043
ꯍꯟꯒꯅꯨ꯫	-10.1045
▁ꯊꯣꯟꯈꯤ꯫	-10.1047
▁ꯔꯣꯜ	-10.1049
ꯃꯣꯟ	-10.105
▁ꯃꯣꯔ	-10.1055
ꯃꯥꯏ	-10.1063
▁ꯌꯥꯡ	-10.1066
▁ꯑꯈꯪ	-10.1069
▁ꯇꯥꯏꯇꯜ	-10.1073
ꯊꯩ	-10.1075
▁ꯄꯨꯊꯣꯛꯈꯤꯕ	-10.1079
ꯐꯣ	-10.1084
▁ꯖꯔꯃꯅꯤ	-10.1087
▁ꯌꯥꯎꯗꯕ	-10.1092
▁ꯉꯝꯂꯝꯒꯗꯕꯅꯤ	-10.1095
▁ꯇꯧꯒꯗꯕꯅꯤ	-10.1104
▁ꯂꯧꯈꯠ	-10.1109
▁ꯑꯦꯖ	-10.1112
▁ꯁꯅꯥꯒꯤ	-10.1119
ꯁꯤꯡꯒꯨꯝꯕ	-10.1122
▁ꯀꯦꯜ	-10.1123
▁ꯂꯦꯝꯍꯧꯔꯤꯕ	-10.1126
▁ꯌꯥꯔꯣꯏ	-10.1127
▁ꯏꯟꯇꯔꯅꯦꯠ	-10.1127
▁ꯗꯦꯕꯤꯗ	-10.1128
▁ꯍꯧꯒꯠꯂꯛꯄ	-10.1129
▁ꯕꯤꯆ	-10.113
▁ꯄꯥꯡꯊꯣꯛꯈꯤ	-10.1134
ꯞꯇ	-10.1142
▁ꯂꯩꯅꯨꯡ	-10.1144
ꯂꯛꯈꯤ꯫	-10.1152
▁ꯎꯠꯈꯤ	-10.1153
ꯌꯨꯍꯥꯔ	-10.1155
▁ꯃꯥꯏꯛ	-10.1158
▁ꯈꯔꯥ	-10.117
▁ꯄꯥꯝꯕꯣꯝ	-10.1184
▁ꯐꯝꯅꯕ	-10.1185
▁ꯇꯛꯁꯤꯟꯈꯤ	-10.1185
▁ꯂꯣꯏꯕ	-10.1186
▁ꯍꯩꯅ	-10.1191
▁ꯄꯨꯟꯁꯤꯟ	-10.1193
▁ꯇꯧꯕꯤꯌꯨ	-10.1194
▁ꯖꯔꯃꯅꯤꯗ	-10.1195
▁ꯇꯝꯃꯤ꯫	-10.1204
▁ꯃꯤꯑꯣꯏꯁꯤꯡꯒ	-10.1205
▁ꯁ꯭ꯂꯦ	-10.1206
▁ꯈꯟꯒꯗꯕꯅꯤ꯫	-10.1207
ꯗꯥꯏ	-10.1208
▁ꯂꯥꯛꯈꯤꯕꯅꯣ	-10.1209
▁ꯑꯇꯣꯞꯄꯁꯤꯡꯗ	-10.1217
▁ꯍꯥꯏꯔꯤꯕ꯭ꯔꯥ	-10.122
▁ꯍꯥꯠꯈꯤ	-10.1235
▁ꯃꯤꯑꯣꯏꯅꯤ	-10.1243
▁ꯇ꯭ꯔꯥꯏ	-10.1247
ꯃꯍꯥꯛ	-10.1254
ꯤꯔꯣꯏꯗꯕꯅꯤ꯫	-10.1255
▁ꯁꯨꯔꯕ	-10.1257
▁ꯇꯥꯛꯏ	-10.1265
▁ꯀꯣꯔꯁ	-10.1265
ꯕꯔꯥ	-10.127
ꯤꯅꯕ	-10.1271
ꯆꯣꯠ	-10.1272
▁ꯎꯠꯂꯨ	-10.1284
▁꯵꯰꯰	-10.1289
▁ꯕꯦꯁ	-10.129
▁ꯗꯤꯄ꯭ꯔꯦꯁꯟ	-10.1303
▁ꯕ꯭ꯂꯣꯛ	-10.1303
▁ꯑꯥꯁꯥ	-10.1309
ꯖꯦꯜ	-10.131
▁ꯈꯪꯉꯤ	-10.1314
▁ꯃꯣꯟꯔꯣ	-10.1314
▁ꯆꯪꯅꯕ	-10.1314
▁ꯂꯧꯈ꯭ꯔꯦ꯫	-10.1335
▁ꯚꯥ	-10.1346
▁ꯂꯣꯡ	-10.1358
ꯖꯤꯟꯕ	-10.1362
ꯗꯤꯁ	-10.1363
▁ꯆꯤꯖ	-10.1364
▁ꯐꯪꯈꯤꯕꯅꯣ	-10.1364
▁ꯄꯦꯛ	-10.1369
꯲꯰	-10.1371
ꯕꯥꯏ	-10.1375
▁ꯃꯅꯥꯛ	-10.1376
▁ꯑꯣꯏꯔꯣꯏ꯫	-10.1381
▁ꯔꯤꯕꯔ	-10.1383
▁ꯃꯃꯥꯗ	-10.1389
▁ꯕ꯭ꯔꯨ	-10.1391
▁ꯔꯣꯝ	-10.1394
▁ꯃꯦꯔꯤꯒꯤꯗꯃꯛ	-10.1404
▁꯶꯰	-10.1409
▁ꯇꯣꯔꯕꯥꯟ	-10.1409
ꯃꯤꯡ	-10.1412
ꯌꯔꯁ	-10.1421
▁ꯐꯦꯃꯤꯂꯤ	-10.1423
▁ꯃꯥꯏꯀ꯭ꯔꯣ	-10.1426
▁ꯎꯒꯅꯤ꯫	-10.1427
▁ꯆꯦꯠꯅ	-10.1432
▁ꯃꯅꯥꯁꯤꯡ	-10.1437
▁ꯎꯃꯪꯗ	-10.1438
▁ꯐꯥꯎꯏ	-10.1439
▁ꯍꯩꯕ	-10.144
▁ꯅꯥꯟꯊꯣꯛ	-10.1441
▁ꯅꯝꯕ	-10.1442
▁ꯄ꯭ꯔꯤꯟꯁ	-10.1456
ꯚꯦꯜ	-10.146
▁ꯅꯧꯕ	-10.1474
▁ꯄ꯭ꯔꯣꯖꯦꯛꯠ	-10.1476
▁ꯑꯣꯁꯇ꯭ꯔꯦꯂꯤꯌꯥ	-10.1477
▁꯱꯹꯶꯰	-10.1487
▁ꯊꯣꯏꯗꯣꯛꯄ	-10.1491
▁ꯋꯥꯂꯦꯠ	-10.1493
▁ꯁꯥꯟꯅꯈꯤ	-10.1495
ꯍꯟꯖꯤꯟ	-10.1501
▁ꯊꯧꯅ	-10.1504
▁ꯔꯥꯏꯠ	-10.1506
ꯔꯤꯌꯦꯜ	-10.151
ꯒ꯭ꯔꯤ	-10.1512
▁ꯅꯨꯡꯉꯥꯏꯍꯟꯈꯤ꯫	-10.1515
▁ꯈꯪꯍꯟꯕ	-10.1515
▁ꯐꯥꯏꯜ	-10.1515
▁ꯍꯟꯗꯛ	-10.1517
▁ꯐꯣꯇꯣꯁꯤꯡ	-10.1518
ꯄꯥꯜ	-10.1525
▁ꯄꯤꯗꯨꯅ	-10.1527
꯰	-10.1528
▁ꯊꯦꯡꯊꯈꯤ꯫	-10.1529
▁ꯁꯥꯟꯅꯔꯤꯕ	-10.1533
▁ꯃꯥꯌꯣꯛꯅ	-10.155
ꯗꯤꯌꯥ	-10.1551
▁ꯎꯁꯤꯡ	-10.1555
ꯌꯥꯟ	-10.1564
▁ꯁꯦꯝꯗꯣꯛ	-10.1568
▁ꯂꯧꯃꯤ	-10.1576
▁ꯁ꯭ꯇ꯭ꯔꯤꯠ	-10.1577
▁ꯊꯥꯈꯤ	-10.1582
ꯊꯕ	-10.1592
▁ꯐꯪꯈ꯭ꯔꯦ꯫	-10.1593
▁ꯌꯥꯎꯏ	-10.1594
ꯟꯗꯔ	-10.1595
ꯔꯛꯀꯅꯤ꯫	-10.1599
▁ꯂꯩꯉꯣꯏ	-10.1606
▁ꯄꯨꯊꯣꯛꯈꯤ꯫	-10.1608
▁ꯉꯥꯛꯅ	-10.161
▁ꯕꯥꯏꯛ	-10.1611
▁ꯑꯔꯥꯞꯄ	-10.1613
▁ꯕꯇꯟ	-10.1616
▁ꯌꯥꯅꯩ꯫	-10.1616
▁ꯂꯦꯝ	-10.1617
▁ꯀꯣꯆ	-10.162
▁ꯄꯤꯈ꯭ꯔꯦ꯫	-10.1621
▁ꯂꯥꯟꯃꯤꯒꯤ	-10.1627
ꯥꯏꯌꯔ	-10.1628
ꯀ꯭ꯂꯤ	-10.1628
▁ꯑꯩꯈꯣꯏꯒꯤꯗꯃꯛ	-10.1629
▁ꯅꯤꯡꯊꯝꯊꯥꯗ	-10.1636
ꯀꯣꯛ	-10.1636
▁꯲꯰꯰꯳	-10.1652
▁ꯁꯤꯈꯤ	-10.1655
ꯀꯁ	-10.1656
▁ꯄꯤꯔꯛꯄ	-10.1661
ꯃꯤꯠ	-10.1664
▁ꯌꯥꯅꯈꯤ	-10.1665
▁ꯋꯦꯁꯇꯔꯟ	-10.1668
▁ꯀꯦꯔꯦꯛꯇꯔ	-10.1668
▁ꯗꯤꯖꯅꯤ	-10.1668
▁ꯗ꯭ꯔꯒ	-10.1668
▁ꯑꯦꯠ	-10.1674
▁ꯊꯧꯒꯠ	-10.1679
꯵꯰	-10.1683
▁ꯇꯔ	-10.1683
ꯠꯖ	-10.1685
꯸꯲	-10.1694
▁ꯃꯦꯒ	-10.1695
▁ꯍꯧꯅꯕ	-10.17
▁ꯄꯥꯡꯊꯣꯛ	-10.1702
▁ꯅꯨꯡꯁꯤꯗꯦ	-10.1703
▁ꯑꯟ	-10.1711
▁ꯈꯟꯅꯅꯕ	-10.1717
▁ꯍꯥꯏꯔꯒ	-10.1718
꯶꯵	-10.1719
ꯐꯤꯁ	-10.1721
▁ꯈꯜꯂꯤꯕ	-10.1723
▁ꯃꯣꯟ	-10.1726
▁ꯂꯣꯟꯒꯤ	-10.1728
▁ꯄꯦꯁꯦꯟꯖꯔ	-10.1731
▁ꯌꯨꯝꯁꯤꯡ	-10.1734
▁ꯁ꯭ꯀꯣꯠꯂꯦꯟ	-10.1735
▁ꯃꯤꯗꯜ	-10.1736
▁ꯐꯣꯔꯝ	-10.1742
ꯁꯟꯅ	-10.1746
▁ꯑꯦꯔꯤꯌꯥ	-10.1746
▁ꯐꯤꯕꯝꯁꯤꯡ	-10.1749
ꯑꯍꯩ	-10.1751
▁ꯂꯧꯎ	-10.1751
ꯁꯇꯦ	-10.1768
▁ꯄ꯭ꯔꯦꯁ	-10.1771
▁ꯁꯔꯨꯛꯁꯤꯡ	-10.1772
▁ꯑꯇꯣꯞꯄꯁꯤꯡꯅ	-10.178
▁ꯇꯝꯕꯤꯕ	-10.1782
▁ꯁꯥꯍꯤꯇ꯭ꯌ	-10.1792
▁ꯅꯨꯄꯤꯒꯤ	-10.1798
꯶꯰	-10.1798
ꯔꯦꯛ	-10.1799
▁ꯄꯤꯛꯏ꯫	-10.1801
▁ꯂꯤꯗ	-10.1802
ꯇꯣꯞ	-10.181
▁ꯂꯧꯁꯤꯟ	-10.181
▁ꯂꯩꯕꯒꯨꯝ	-10.1813
▁ꯑꯩꯈꯣꯏꯒꯤꯗꯃꯛꯇ	-10.1817
▁ꯌꯥꯍꯟꯈꯤ	-10.1822
ꯃꯄꯥꯗ	-10.1823
▁ꯇꯣꯀꯤꯌꯣꯗ	-10.1834
▁ꯆꯨꯞꯅ	-10.1836
▁ꯐꯣꯟꯗ	-10.184
▁ꯆꯠꯈꯤꯕꯅꯣ	-10.1845
▁ꯀꯅꯥꯗ	-10.1848
▁ꯂꯩꯅꯩ	-10.1852
▁ꯑꯦꯀꯥꯎꯟꯠ	-10.1855
▁ꯃꯦꯟꯆꯦꯁꯇꯔ	-10.1856
▁ꯃꯀꯨ	-10.1857
▁ꯐꯒꯠꯂꯛꯄ	-10.1859
▁ꯇꯦꯞ	-10.1859
▁ꯐꯃꯨꯡ	-10.1863
▁ꯈꯨꯝꯅ	-10.1867
▁ꯇꯥꯔꯤꯕ	-10.187
▁ꯍꯥꯠꯅꯕ	-10.187
▁ꯁꯥꯎꯅꯤꯡꯉꯤ꯫	-10.1871
ꯍꯟꯗꯅꯕ	-10.1875
ꯄꯤꯡ	-10.1875
▁ꯅꯨꯄꯤꯁꯤꯡꯒꯤ	-10.189
ꯋꯥꯏ	-10.1893
꯶꯳	-10.1894
▁ꯐꯛꯂꯥꯡ	-10.1899
▁ꯂꯩꯏ	-10.19
ꯅꯤꯇꯤ	-10.1904
▁꯸꯰	-10.1905
▁ꯃꯥꯏꯀꯦꯜ	-10.1918
▁ꯍꯥꯏꯖꯔꯛꯄ	-10.1921
▁ꯑꯦꯁꯤꯗ	-10.1934
ꯆꯤꯡ	-10.1941
▁ꯁꯥꯒꯗꯕꯅꯤ꯫	-10.1945
꯸꯸	-10.1965
ꯀꯔꯤ	-10.1966
ꯂꯤꯅ	-10.1968
▁ꯕꯥꯁꯀꯦꯠꯕꯣꯜ	-10.1982
▁ꯐꯦꯗꯔꯦꯜ	-10.1982
▁ꯂꯦꯛꯆꯔ	-10.1984
▁ꯄꯥꯝꯕꯩꯁꯤꯡ	-10.1986
▁ꯋꯥꯇꯔ	-10.1988
▁ꯂꯣꯔꯗ	-10.1989
▁ꯐꯥꯎꯔꯤ	-10.1989
▁ꯃꯤꯗꯤꯌꯥ	-10.1991
ꯦꯁꯟ	-10.1995
▁ꯃꯍꯥꯛꯇꯒꯤ	-10.1997
▁ꯂꯝꯕꯤꯁꯤꯡ	-10.2003
▁꯲꯰꯰	-10.2007
ꯁ꯭ꯇ	-10.201
▁ꯅꯨꯡꯁꯤꯖ	-10.2011
▁ꯒ꯭ꯔꯦꯗ	-10.2012
▁ꯁꯦꯡꯗꯣꯛ	-10.2013
ꯈ꯭ꯔ	-10.2018
ꯁꯦꯠ	-10.2037
▁ꯕꯣꯁꯇꯟꯒꯤ	-10.2043
▁ꯑꯊꯨꯝꯕ	-10.2047
▁ꯈꯨꯅꯨꯡ	-10.2049
▁ꯑꯦꯌꯔ	-10.2051
▁ꯀꯦꯅꯗꯥꯗ	-10.2054
▁ꯇꯧꯈꯤꯗꯦ	-10.2058
▁ꯂꯥꯎꯊꯣꯛꯄ	-10.2059
▁ꯂꯩꯔꯒ	-10.206
▁ꯆꯠꯂꯤꯕꯒꯦ	-10.2064
ꯤꯌꯥ	-10.2074
▁ꯗꯦꯜ	-10.2092
▁ꯃꯥꯁ	-10.2097
ꯂꯤꯉꯩꯗ	-10.2098
▁ꯌꯧꯈꯤ꯫	-10.2102
ꯁꯀꯤꯗꯃꯛ	-10.211
▁ꯁꯥꯏꯟꯇꯤꯐꯤꯛ	-10.2111
▁ꯈꯣꯏꯔꯥꯡ	-10.2111
▁ꯖꯤꯖꯁ	-10.2114
▁ꯊꯣꯛꯍꯟꯈꯤꯕ	-10.2124
▁ꯍꯨꯟ	-10.2124
▁ꯃꯃꯜꯁꯤꯡ	-10.2124
▁ꯁꯥꯃꯨ	-10.2125
▁ꯁꯦꯝꯈꯤꯕꯅꯤ	-10.2128
▁ꯑꯍꯨꯝꯂꯛ	-10.2131
ꯡꯉꯤ	-10.2133
ꯤꯌꯦꯜ	-10.2137
▁ꯃꯦꯁꯤꯟ	-10.2137
▁ꯍꯥꯏꯔꯕꯗꯤ	-10.2139
▁ꯏꯁ	-10.214
▁ꯌꯦꯡꯒꯅꯤ꯫	-10.214
▁ꯆꯨꯝꯕ	-10.2141
▁ꯐꯥꯈꯤ	-10.2144
ꯄ꯭ꯔꯤ	-10.2152
ꯣꯡ	-10.2153
▁ꯑꯗꯨꯒꯨꯝꯕ	-10.2159
▁ꯌꯥꯈꯤ	-10.2173
ꯞꯁ	-10.2174
ꯍꯥꯎꯁ	-10.2175
▁ꯆꯤꯡꯁꯤꯡ	-10.2175
▁ꯊꯧꯋꯣꯡ	-10.2176
▁ꯇꯝꯕꯒꯤ	-10.2178
▁ꯆꯠꯊꯔꯤ꯫	-10.2181
▁ꯄ꯭ꯔꯥꯏꯖ	-10.2186
▁ꯊꯤꯈꯤ꯫	-10.2186
▁ꯑꯣꯏꯔꯝꯕ꯭ꯔꯥ	-10.2187
▁ꯂꯧꯔꯤ꯫	-10.2187
▁ꯅꯨꯡꯁꯤꯖꯩ꯫	-10.2189
▁ꯅꯨꯃꯤꯠꯁꯤꯡ	-10.219
▁ꯄꯔꯁꯤ	-10.2191
ꯅꯦꯁꯟ	-10.2191
▁ꯎꯟꯁꯥ	-10.2193
ꯗꯣꯔ	-10.2198
▁ꯊꯝꯃꯤ	-10.2204
▁ꯃꯄꯨꯕꯣꯛ	-10.2208
ꯜꯐ	-10.2219
▁ꯇꯣꯅꯤ	-10.2233
ꯊꯔꯛꯄ	-10.2237
▁ꯐꯔ	-10.2241
▁ꯃꯇꯩ	-10.2241
▁ꯇꯔꯥꯍꯨꯝꯗꯣꯏ	-10.2241
▁ꯎꯔꯕ꯭ꯔꯥ	-10.2241
▁ꯄꯤꯛꯆꯔ	-10.2244
▁ꯀꯥꯍꯦꯟ	-10.2247
▁ꯌꯥꯝꯂꯕ	-10.225
ꯉꯥ	-10.2253
▁ꯑꯣꯚꯔ	-10.2254
▁ꯅꯧꯅ	-10.2257
▁ꯌꯣꯜꯂꯤ꯫	-10.2258
▁ꯀꯣꯝ	-10.2272
▁ꯊꯦ	-10.2272
▁ꯇꯨꯝꯊ	-10.2275
▁ꯍꯣꯠꯅꯔꯤꯕ	-10.2282
ꯇꯣꯝ	-10.2286
ꯋꯥꯔ	-10.229
▁꯱꯹꯹꯰	-10.2299
▁ꯊꯝꯂꯒ	-10.2299
ꯀꯣꯝ	-10.2304
▁ꯂꯣꯏꯅꯕꯤꯅ	-10.2307
▁ꯌꯦꯡꯂꯤꯕ	-10.2309
▁ꯌꯣ	-10.2309
ꯁꯇꯥ	-10.231
ꯅꯤꯌꯔ	-10.2322
▁ꯆꯥꯈꯤ	-10.2326
▁ꯊꯥꯒꯠꯆꯔꯤ	-10.2328
▁ꯌꯨꯔꯣꯞꯀꯤ	-10.2328
▁ꯀꯥꯔꯁꯤꯡ	-10.233
▁ꯁ꯭ꯄꯥꯏ	-10.2333
▁ꯅꯟ	-10.2334
▁ꯅꯝꯊꯤ	-10.2334
▁ꯄꯦꯁ	-10.2336
▁ꯀꯅꯥꯒꯤ	-10.2337
▁ꯁ꯭ꯄꯦꯟ	-10.2339
▁ꯄꯥꯝꯈꯤꯕ	-10.2348
▁ꯀꯥꯎꯕ	-10.2361
▁ꯁꯥꯒꯠ	-10.2368
▁ꯅꯧ	-10.237
▁ꯉꯛꯄ	-10.237
▁ꯗ꯭ꯌꯨꯛ	-10.2374
▁ꯊꯥꯡꯖꯒꯤ	-10.2374
▁ꯇꯤꯀꯦꯠꯁꯤꯡ	-10.2378
▁ꯁꯥꯖꯦꯜ	-10.2383
ꯑꯞ	-10.2384
▁ꯇꯧꯗ꯭ꯔꯤ꯫	-10.2386
▁ꯆꯤꯐ	-10.2386
▁ꯍꯥꯞꯈꯤ	-10.239
▁ꯋꯥꯈꯜꯅ	-10.2394
▁ꯑꯉꯥꯡꯁꯤꯡꯗ	-10.2397
▁ꯋꯥꯜ	-10.2423
▁ꯐꯥꯅꯕ	-10.2425
ꯇ꯭ꯔꯕꯗꯤ	-10.2426
ꯂꯒꯅꯤ꯫	-10.2427
▁ꯆꯥꯡꯗꯝꯅꯕ	-10.2428
▁ꯄ꯭ꯔꯥꯏ	-10.2429
▁ꯇꯥꯗꯨꯅ	-10.2437
▁ꯈꯣꯝꯖꯤꯟꯕ	-10.2438
ꯈꯨꯝ	-10.2439
▁ꯀꯦꯇꯦꯒꯣꯔꯤ	-10.244
▁ꯇꯝꯄꯥꯛ	-10.244
▁ꯕꯥꯏꯕꯜ	-10.2442
ꯁꯇꯣ	-10.2442
▁ꯂꯥꯛꯄꯅꯤ	-10.2444
▁꯳꯰꯰	-10.2447
▁ꯆꯨꯅꯕ	-10.2449
▁ꯁꯥꯒꯅꯤ꯫	-10.2451
▁ꯂꯥꯛꯄꯅꯤ꯫	-10.2452
▁ꯍꯧꯒꯅꯤ	-10.2469
▁ꯉꯥꯛꯄꯤꯕꯤꯌꯨ	-10.2473
▁ꯄꯨꯝꯅꯃꯛꯀꯤꯗꯃꯛ	-10.248
▁ꯗꯤꯜ	-10.2487
▁ꯀꯥꯞ	-10.2488
▁ꯑꯁꯥꯎꯕ	-10.2507
▁ꯄ꯭ꯂꯦꯠ	-10.2508
▁ꯃꯃꯤꯡꯁꯤꯡ	-10.2513
▁ꯀꯃꯟ	-10.2513
▁ꯉꯝꯗ꯭ꯔꯤ꯫	-10.2516
▁ꯃꯥꯡꯗ	-10.2521
ꯍꯜꯂꯤꯕ	-10.2523
ꯣꯜ	-10.2525
▁ꯉꯥꯛꯄ	-10.2528
ꯇꯩꯅꯕ	-10.2534
▁ꯆꯪꯈꯤꯗꯦ꯫	-10.2543
▁ꯍꯥꯏꯔꯤꯕꯅꯣ	-10.2548
▁ꯑꯐ꯭ꯔꯤꯀꯥꯗ	-10.255
▁ꯏꯇꯂꯤꯗ	-10.2556
▁ꯈꯟꯈꯤꯗꯦ	-10.2558
▁ꯃꯗꯨꯅꯤ	-10.2559
ꯍꯣꯏ	-10.2559
▁ꯄꯤꯔ	-10.2563
꯲꯹	-10.2569
▁ꯑꯁ	-10.2571
ꯅꯔꯤ꯫	-10.2571
▁ꯁ꯭ꯀꯣꯠ	-10.2575
▁ꯃꯦꯁꯦꯖ	-10.2575
▁ꯁꯧꯒꯠꯄ	-10.2577
▁ꯏꯊꯛ	-10.2579
ꯆꯩ	-10.2594
▁ꯅꯔꯁ	-10.2597
ꯁꯤꯇꯤ	-10.2597
▁ꯅꯨꯡꯁꯤꯠꯇ	-10.2604
▁ꯄꯥꯅꯔꯤ	-10.2605
꯱꯵	-10.2606
▁ꯄꯤꯟ	-10.2606
ꯒꯣꯟ	-10.2609
▁ꯈꯪꯗꯅ	-10.261
▁ꯌꯣꯛꯄ	-10.2622
▁ꯄꯥꯟ	-10.2625
▁ꯉꯥꯎ	-10.263
▁ꯎꯅꯈꯤ	-10.2634
▁꯲꯰꯰꯱	-10.2638
▁ꯑꯣꯍ	-10.2638
ꯥꯡ	-10.2641
▁ꯄ꯭ꯔꯣꯕ꯭ꯂꯦꯝ	-10.2643
▁ꯈꯨꯟꯕ	-10.2643
▁ꯁꯦꯝꯕꯅꯤ	-10.2654
ꯕꯔꯤ	-10.2654
▁ꯁꯦꯠꯄ	-10.2657
▁ꯍꯦꯔꯤ	-10.2658
▁꯱꯸꯵	-10.2662
▁ꯄ꯭ꯔꯣꯕꯤꯟꯁꯇ	-10.2667
▁ꯇꯧꯗꯦ	-10.2701
▁ꯂꯩꯔꯝꯕ꯭ꯔꯥ	-10.2704
▁ꯄꯨꯈ꯭ꯔꯤ	-10.2711
▁ꯄ꯭ꯂꯥꯅꯦꯠ	-10.2712
▁ꯀꯅꯥꯒ	-10.2715
▁ꯀꯥꯂꯦꯟꯗ	-10.2726
ꯇ꯭ꯌꯨ	-10.2726
▁ꯇꯥꯟ	-10.2728
▁ꯌꯦꯡꯁꯤꯟꯅꯕ	-10.2729
▁ꯄꯥꯝꯅꯩ꯫	-10.2735
ꯇꯔꯁꯤꯡ	-10.2739
▁ꯃꯅꯥꯎꯅꯨꯄꯥꯅ	-10.2743
▁ꯑꯦꯁꯤꯌꯥ	-10.2747
▁ꯍꯦꯂꯣ	-10.2749
▁ꯂꯣꯏꯁꯤꯟꯒꯅꯤ꯫	-10.2757
▁ꯈꯨꯔꯨꯝ	-10.2765
▁ꯈꯨꯗꯨꯝ	-10.278
▁ꯁ꯭ꯇꯦꯟꯗꯔꯗ	-10.278
▁ꯑꯣꯔꯕꯤꯠ	-10.278
▁ꯑꯣꯐꯤꯁꯤꯌꯦꯜ	-10.2781
▁ꯈꯪꯗ꯭ꯔꯤ꯫	-10.2789
▁ꯗꯦꯟꯒꯤ	-10.2793
▁ꯐꯒꯠꯍꯟꯕ	-10.2798
▁ꯀ꯭ꯂꯥ	-10.2801
▁ꯇꯝꯊꯤꯅ	-10.281
▁ꯄꯣꯜꯂꯤ꯫	-10.2814
▁ꯁꯥꯔꯦ꯫	-10.2816
▁ꯆꯦꯛꯁꯤꯟꯗꯕ	-10.2817
▁ꯅꯥꯠ	-10.282
▁ꯇꯦꯜ	-10.282
▁ꯂꯧꯒꯅꯤ	-10.2823
ꯇꯥꯏꯝ	-10.2823
▁ꯀꯦꯂꯤꯐꯣꯔꯅꯤꯌꯥ	-10.2827
ꯕꯔꯠ	-10.2836
▁ꯑꯣꯏꯍꯟꯈꯤ	-10.2836
▁ꯅꯨ	-10.2837
ꯁꯦꯞ	-10.2838
▁ꯍꯥꯞꯆꯤꯟꯕ	-10.2851
▁ꯖꯦꯀꯦꯠ	-10.2854
▁ꯍꯦꯝ	-10.2856
▁ꯂꯧꯏ	-10.2858
▁ꯑꯣꯏꯅꯗꯤ	-10.2858
▁ꯐꯪꯂꯣꯏ꯫	-10.2861
▁ꯀꯞꯈꯤ꯫	-10.2868
▁ꯆꯠꯂꯕꯗꯤ	-10.287
▁ꯑꯣꯁꯤꯟ	-10.2879
▁ꯃꯤꯑꯣꯏꯁꯤꯡꯅꯤ꯫	-10.2881
▁ꯚꯨꯠ	-10.2881
▁ꯊꯣꯛꯍꯜꯂꯤ꯫	-10.2886
▁ꯌꯦꯡꯕꯤꯌꯨ	-10.2891
▁ꯑꯔꯥꯟꯕꯅꯤ	-10.2891
▁ꯆꯥꯅꯩ꯫	-10.2905
▁ꯃꯈꯨꯠ	-10.2911
ꯖꯥꯏ	-10.2915
▁ꯑꯀꯪꯕ	-10.292
▁ꯗ꯭ꯔꯃꯥ	-10.292
▁ꯄꯤꯛꯅꯤꯛ	-10.2921
ꯣꯂꯣꯖꯤ	-10.2922
▁ꯆꯥꯎꯔꯛꯄ	-10.2923
▁ꯃꯔꯣꯜ	-10.2931
▁ꯂꯣꯟꯗ	-10.2932
▁ꯆꯦꯔꯤ	-10.2934
ꯍꯨ	-10.294
▁ꯍꯣꯡꯗꯣꯛꯅꯕ	-10.2942
▁꯲꯸	-10.2942
▁ꯀꯟꯅꯕ	-10.2947
▁ꯄꯤꯁ	-10.2951
▁ꯇ꯭ꯔꯦꯟꯗ	-10.2955
▁ꯐꯛꯂꯥꯡꯗ	-10.2959
▁ꯍꯥꯏꯅꯩ꯫	-10.296
ꯔꯁꯤ	-10.2961
▁ꯄꯤꯒꯗ꯭ꯔꯥ	-10.2962
▁ꯃꯔꯛ	-10.2968
ꯕꯤꯌꯟ	-10.2968
▁ꯄꯨꯈꯠꯈꯤ꯫	-10.2971
▁ꯀꯣꯁ	-10.2971
ꯀꯣꯅ	-10.2973
▁ꯕꯣꯕ	-10.2973
▁ꯄꯨꯟꯁꯤꯟꯈꯤ	-10.2985
▁ꯈꯪꯒꯅꯤ꯫	-10.299
▁ꯁꯣꯁꯥꯏꯇꯤ	-10.299
▁ꯂꯩꯈꯣꯝ	-10.299
▁ꯃꯩꯉꯥꯜ	-10.299
▁ꯀꯦꯟꯇꯀꯤ	-10.299
▁ꯑꯄꯥꯝꯕꯁꯤꯡ	-10.2995
ꯃꯤꯁ	-10.2999
▁ꯀꯥꯕ	-10.3
ꯀꯤꯟ	-10.3001
▁ꯐꯤꯜꯝ	-10.3003
ꯌꯦꯟ	-10.3025
ꯃꯄꯨ	-10.3028
▁ꯅꯣꯔ	-10.3028
ꯄ꯭ꯔꯣ	-10.3033
▁ꯒꯣꯜ	-10.3051
▁ꯐꯥꯈꯤꯕ	-10.3056
▁ꯖ꯭ꯌꯨ	-10.3063
ꯇꯦꯁ	-10.3064
▁ꯕꯔꯂꯤꯟ	-10.3065
▁ꯂꯩꯃꯤꯟꯅ	-10.3068
▁ꯍꯧꯒꯠꯄ	-10.3068
▁ꯄꯥꯝꯂꯝꯃꯤ꯫	-10.307
▁ꯇꯧꯔꯣꯏ	-10.3073
ꯤꯌꯦ	-10.3075
▁ꯂꯦꯞꯄꯤ	-10.3079
▁ꯇꯥꯛꯀꯅꯤ	-10.308
▁ꯊꯣꯛꯈꯤꯗꯦ꯫	-10.3081
ꯔꯤꯁ	-10.3082
▁ꯍꯪꯕꯤꯌꯨ꯫	-10.3085
ꯃ꯭ꯌꯨ	-10.3088
▁ꯍꯣꯟ	-10.3088
▁ꯂꯦꯞꯈ꯭ꯔꯦ꯫	-10.309
▁ꯀꯦꯁꯜ	-10.3107
▁ꯁꯣꯛꯄ	-10.3111
▁ꯑꯇꯥ	-10.3111
▁ꯂꯩꯔꯒꯅꯤ꯫	-10.312
ꯁꯕꯔꯒ	-10.3123
▁ꯕꯣꯟ	-10.3124
▁ꯀꯨꯞꯄ	-10.3127
▁ꯌꯦꯡꯁꯤꯜꯂꯤ	-10.3129
▁ꯁꯦꯠꯂꯝꯃꯤ	-10.3133
▁ꯗꯤꯁꯇ꯭ꯔꯤꯛ	-10.3133
▁ꯍꯦꯟꯒꯠꯂꯛꯂꯤ꯫	-10.3134
▁ꯆꯠꯂꯤꯉꯩꯗ	-10.3134
▁ꯑꯔꯥ	-10.3137
▁ꯚꯣ	-10.3137
▁ꯊꯛꯏ꯫	-10.3147
ꯀꯥꯡꯂꯣꯟ	-10.3152
▁ꯖꯤꯅꯁ	-10.3153
ꯕꯣꯛꯁ	-10.3156
▁ꯄꯨꯒꯅꯤ꯫	-10.3166
▁꯰	-10.3168
▁ꯕꯦꯁꯠ	-10.3173
▁ꯄꯣꯔ	-10.3177
▁ꯚꯦꯂꯤ	-10.3179
▁ꯅꯤꯡꯊꯧꯒꯤ	-10.3184
ꯔꯤꯑꯣ	-10.3187
▁ꯍꯛꯁꯤꯡ	-10.3188
▁ꯇꯧꯕꯗꯒꯤ	-10.319
▁ꯂꯦꯞꯅꯕ	-10.3191
ꯁꯇꯤꯛ	-10.3197
▁꯲꯰꯰꯳ꯗ	-10.32
▁ꯗ꯭ꯔꯦ	-10.3204
▁ꯃꯅꯤꯡꯇꯝꯕ	-10.3204
▁ꯑꯣꯄꯔꯦꯁꯟ	-10.3204
▁ꯄꯥꯁꯄꯣꯔꯠ	-10.3206
▁ꯆꯨꯅꯩ꯫	-10.3213
ꯔꯨꯝ	-10.3217
ꯒꯗꯧꯔꯤꯕ	-10.322
ꯂꯤꯛ	-10.3225
▁ꯃꯥꯁꯇꯔ	-10.3226
꯭ꯂꯥ	-10.3232
▁ꯁꯤꯈꯤꯕ	-10.3239
ꯕ꯭ꯂꯤ	-10.3262
▁ꯇꯥꯊ	-10.3268
▁ꯆꯨꯁꯤꯟꯅ	-10.3271
▁ꯋꯦꯜ	-10.3274
▁ꯃꯨꯁꯂꯤꯝ	-10.3277
▁ꯁꯦꯟꯗꯣꯟ	-10.328
▁ꯊꯜꯂꯤ꯫	-10.3281
▁ꯐꯣꯡꯗꯣꯛꯈꯤ	-10.3282
▁ꯄꯥꯅꯕ	-10.3284
▁ꯊꯨꯒꯥꯏꯕ	-10.3286
▁ꯁꯣꯂꯔ	-10.33
▁ꯍꯥꯔꯗ	-10.3305
▁ꯀꯣꯂꯣꯅꯤ	-10.3305
ꯄꯥꯏ	-10.3305
▁ꯍꯥꯞ	-10.3315
▁ꯇꯤꯝꯒꯤ	-10.3321
▁ꯑꯍꯨꯝꯗ	-10.3322
▁ꯄꯔꯦꯡꯁꯤꯡ	-10.3323
▁ꯊꯝꯈꯤꯕ	-10.3325
▁ꯄ꯭ꯔꯤꯊꯤꯕꯤꯒꯤ	-10.3326
▁ꯅꯦꯛ	-10.3332
▁ꯍꯣꯠꯅꯕꯗ	-10.334
▁ꯐꯦꯁꯟ	-10.3343
▁ꯔꯤꯆꯥꯔꯗ	-10.335
▁ꯄꯥꯏꯂꯣꯠ	-10.335
▁ꯕꯥꯏꯑꯣꯂꯣꯖꯤ	-10.335
▁ꯀꯟꯈꯠ	-10.335
▁ꯑꯦꯄ꯭ꯂꯤꯀꯦꯁꯟ	-10.3351
▁ꯁ꯭ꯇꯦꯝꯞ	-10.3351
▁꯱꯹꯹꯲	-10.3351
ꯐꯦꯟ	-10.3359
▁ꯇꯣꯀꯤꯌꯣ	-10.3374
ꯕꯣꯜ	-10.3374
▁ꯇꯥꯟꯊꯣꯛꯈꯤ	-10.3375
▁ꯆꯥꯡꯗ	-10.3375
▁ꯅꯦꯁ	-10.3377
▁ꯄꯤꯕꯒꯤ	-10.3379
▁ꯁ꯭ꯄꯦ	-10.3379
▁ꯈꯪꯂꯛꯈꯤ꯫	-10.3385
▁ꯋꯦꯜꯁ	-10.3387
▁ꯉꯥꯡꯗꯦ꯫	-10.3389
ꯄꯣꯔꯠ	-10.3391
▁ꯌꯨꯝꯂꯣꯟꯅꯕ	-10.3399
ꯗ꯭ꯔꯣ	-10.3409
▁ꯈꯪꯍꯟꯕꯤꯌꯨ	-10.3412
▁ꯄꯥꯟꯗꯝꯁꯤꯡ	-10.3413
▁ꯂꯨꯝ	-10.3414
▁ꯀꯩꯊꯦꯜ	-10.3415
꯭ꯋꯥ	-10.342
ꯨꯡ	-10.3421
▁ꯑꯊꯤꯡꯕ	-10.3423
▁ꯐ꯭ꯌꯨ	-10.3425
▁ꯊꯜꯂꯝꯃꯤ꯫	-10.3425
▁ꯅꯥꯇꯣꯟ	-10.3428
▁ꯄꯦꯟꯇꯤꯡ	-10.3432
ꯗ꯭ꯌꯨ	-10.3435
▁ꯈꯪꯗ꯭ꯔꯥ	-10.3436
ꯂꯤꯖꯝ	-10.344
▁ꯇꯥꯟꯅ	-10.3451
▁ꯄꯥꯔꯇꯤꯒꯤ	-10.3457
▁꯲꯰꯰꯵ꯗ	-10.3477
ꯍꯥꯔ	-10.3479
▁ꯁ꯭ꯄꯣꯔꯠꯁ	-10.348
▁ꯇꯧꯔꯤꯕꯔꯥ	-10.3486
▁ꯂꯤꯡꯈꯠꯈꯤ	-10.3487
▁ꯑꯅꯥ	-10.3494
▁ꯁꯦꯀ꯭ꯌꯨꯔꯤꯇꯤ	-10.3497
ꯋꯥꯟ	-10.3497
▁ꯇ꯭ꯔꯤꯄꯜ	-10.3499
▁ꯌꯥꯎꯔꯤꯕ	-10.35
▁ꯃꯥꯔꯇꯤꯟ	-10.3501
▁ꯁ꯭ꯇꯣꯞ	-10.3502
▁ꯂꯦꯕꯦꯜ	-10.3502
▁ꯅꯍꯥꯛꯀꯤꯗꯃꯛꯇ	-10.3502
▁ꯏꯃꯦꯜ	-10.3519
▁ꯄꯤꯒꯗꯒꯦ	-10.3526
▁ꯍꯧꯔꯛꯄꯗ	-10.3534
▁ꯄꯨꯛ	-10.3535
▁ꯍꯣꯡꯕ	-10.3539
▁ꯑꯣꯛꯇꯣꯕꯔꯗ	-10.3541
▁ꯃꯥꯎ	-10.3541
▁ꯁꯟꯗꯣꯛ	-10.3551
▁ꯑꯋꯥꯕꯁꯤꯡ	-10.3561
▁ꯁꯔꯨ	-10.3568
▁ꯀꯁꯇꯃꯔ	-10.3572
▁ꯆꯜꯂꯛꯄꯗ	-10.3572
▁ꯑꯦꯛꯁꯄ꯭ꯔꯦꯁ	-10.3572
▁꯲꯱	-10.3573
ꯂꯝꯇꯥꯛꯄ	-10.3574
▁ꯈꯪꯍꯟꯈꯤ	-10.3577
▁ꯀꯟꯈꯤ꯫	-10.358
ꯈꯥ	-10.3583
▁ꯂꯥꯟꯐꯝ	-10.3589
ꯣꯟ	-10.359
▁ꯍꯣꯕꯤ	-10.3595
▁ꯆꯠꯅꯔꯤꯕ	-10.3595
▁ꯇꯔꯨꯛꯇ	-10.36
ꯁꯨꯔ	-10.36
▁ꯑꯣꯏꯕꯒꯦ	-10.3609
▁ꯑꯆꯨꯝꯕ꯭ꯔꯥ	-10.3612
ꯔꯤꯉꯩ	-10.3624
▁ꯇꯧꯔꯤꯕꯒꯦ	-10.3637
▁ꯂꯧꯁꯤꯟꯕ	-10.3638
▁ꯄꯦꯀꯦꯖ	-10.3647
▁ꯀꯥꯡꯂꯣꯟꯁꯤꯡ	-10.3648
▁ꯐꯥꯏꯌꯔ	-10.3655
▁ꯍꯧꯒꯅꯤ꯫	-10.3656
ꯅ꯭ꯌꯨ	-10.3657
꯹	-10.3658
ꯀꯣꯏ	-10.366
ꯃꯔꯣꯡ	-10.3666
▁ꯁꯤꯝ	-10.3668
ꯇꯥꯟ	-10.3668
▁ꯅꯤꯡꯊꯤꯅ	-10.3673
▁ꯄ꯭ꯂꯥꯟ	-10.3682
▁ꯌꯥꯎꯗꯦ꯫	-10.3687
▁ꯇꯧꯔꯦ꯫	-10.3695
▁ꯎꯔꯝꯃꯤ꯫	-10.3701
▁ꯈꯨꯗꯝꯁꯤꯡ	-10.3701
▁ꯊꯤꯗꯨꯅ	-10.3711
▁ꯂꯥꯏꯕ꯭ꯔꯦꯔꯤ	-10.3723
▁ꯅꯨꯡꯉꯥꯏꯇ꯭ꯔꯥ	-10.3725
▁ꯌꯦꯡꯈꯤ	-10.3726
▁ꯏꯔꯨꯖ	-10.3728
▁ꯃꯤꯊꯨꯡꯂꯣꯏ	-10.373
▁ꯋꯥꯏ꯫	-10.3731
▁ꯈꯪꯈꯤꯕꯅꯣ	-10.3733
▁ꯐꯥꯖꯤꯟ	-10.3733
▁ꯐꯒꯠ	-10.3733
▁ꯕ꯭ꯂꯦ	-10.374
ꯗꯕꯅꯤ꯫	-10.3744
▁ꯄꯨꯈꯤ	-10.3745
▁ꯆꯠꯀꯗꯕ	-10.3749
▁ꯂꯧꯊꯣꯛꯄꯤꯌꯨ꯫	-10.3751
▁ꯏꯁꯩꯁꯤꯡ	-10.3752
▁ꯃꯦꯠ	-10.3752
▁ꯄꯤꯔꯕ	-10.3753
▁ꯐꯝꯖꯤꯟ	-10.3767
▁ꯈꯣꯝꯖꯤꯟ	-10.3767
▁ꯆꯠꯀꯗꯕꯅꯤ	-10.377
▁ꯐꯝꯗꯨ	-10.3774
▁ꯁꯥꯏꯟ	-10.3777
▁ꯗꯦꯁꯛꯇ	-10.3777
▁ꯁꯥꯏꯖ	-10.3778
▁ꯌꯥꯒꯅꯤ꯫	-10.3787
▁ꯑꯗꯨꯃꯛꯇ	-10.3797
▁ꯊꯣꯛꯂꯤꯕ	-10.3798
▁ꯂꯨꯞꯈꯤ꯫	-10.3798
▁ꯀꯟꯁꯇꯤꯇ꯭ꯌꯨꯁꯟ	-10.3799
▁ꯏꯟꯁꯇꯤꯇ꯭ꯌꯨꯠ	-10.3799
▁ꯃꯥꯏꯊꯤꯈꯤ꯫	-10.3799
▁ꯐꯒꯠꯍꯟꯅꯕ	-10.3804
▁ꯊꯝꯐꯝ	-10.3806
▁ꯁꯥꯗꯥꯟꯕ	-10.3807
▁ꯕꯨꯜ	-10.3807
▁ꯍꯥꯏꯗꯅ	-10.3809
▁ꯃꯀꯨꯞ	-10.381
▁ꯈꯟꯅꯈꯤ꯫	-10.3817
▁ꯊꯥꯗꯣꯛꯈꯤꯕ	-10.3821
ꯖꯩ꯫	-10.3823
▁ꯌꯦꯡꯁꯤꯟꯈꯤ꯫	-10.3826
▁ꯌꯥꯗ꯭ꯔꯥ	-10.3826
ꯑꯀꯥꯏ	-10.3827
▁ꯁꯥꯏꯠ	-10.3844
▁꯲꯰꯰꯱ꯗ	-10.3849
▁ꯍꯣꯟꯕ	-10.385
▁ꯑꯐ꯭ꯔꯤꯀꯥꯒꯤ	-10.3852
▁ꯃꯟ	-10.386
ꯍꯦꯟ	-10.3861
▁ꯑꯦꯀꯥꯗꯦꯃꯤ	-10.3864
▁ꯂꯩꯔꯣꯏ	-10.3868
▁ꯅꯥꯏꯕ	-10.387
▁ꯅꯨꯡꯉꯥꯏꯍꯟꯕ	-10.3872
▁ꯏꯃꯔꯖꯦꯟꯁꯤ	-10.3876
▁ꯖꯨꯄꯤꯇꯔ	-10.3876
▁ꯃꯤꯅꯤꯁꯇꯔ	-10.3876
▁ꯂꯥꯏꯁꯣꯟ	-10.3876
▁ꯐꯣꯁꯤꯜ	-10.3877
▁ꯐꯥꯔꯕ	-10.3879
▁ꯈꯟꯅꯔꯤꯕꯒꯦ	-10.388
▁ꯀꯨꯏꯔꯕ	-10.388
▁ꯅꯣꯔꯋꯦ	-10.3881
▁ꯄꯥꯈꯠꯂꯤ꯫	-10.3884
▁ꯄꯥꯡꯒꯗ꯭ꯔꯥ	-10.3887
▁ꯚ	-10.3889
▁ꯂꯣꯏꯁꯤꯟꯈ꯭ꯔꯦ꯫	-10.3889
▁ꯅꯝꯐꯨ	-10.3892
▁ꯅꯨꯡꯁꯤꯕꯒꯤ	-10.3893
▁ꯐꯝꯂꯝꯃꯤ꯫	-10.3893
▁ꯊꯣꯛꯈꯤꯕꯅꯣ	-10.3893
▁ꯃꯍꯤꯡ	-10.3894
▁ꯊꯣꯛꯂꯛꯈꯤ	-10.3896
▁ꯄꯣꯟ	-10.3896
▁ꯐꯔꯝ	-10.3897
▁ꯊꯥꯗꯕ	-10.3903
▁ꯊꯥꯖꯈꯤ	-10.3904
▁ꯇꯞꯊ	-10.3911
▁ꯇꯣꯡꯕ	-10.3913
▁ꯉꯝꯈꯤ	-10.3914
▁ꯈꯜꯂꯤꯗꯦ꯫	-10.3917
▁ꯄꯥꯝꯈꯤꯗꯦ	-10.3918
▁ꯈ	-10.392
▁ꯇꯥꯈꯤꯕ	-10.3924
▁ꯍꯨꯔꯥꯟꯈꯤꯕ	-10.3928
ꯖꯧ	-10.3931
▁ꯌꯣꯟꯈꯤ꯫	-10.3931
▁ꯃꯔꯨꯞꯁꯤꯡꯅ	-10.3937
▁ꯄꯨꯝꯕꯒꯤ	-10.3938
▁ꯁꯦꯛ	-10.3939
▁ꯅꯨꯄꯤꯃꯆꯥꯁꯤꯡ	-10.3943
ꯒꯦꯟ	-10.3948
▁ꯍꯣꯡꯂꯛ	-10.3951
▁ꯎꯟꯅ	-10.3953
▁ꯆꯤꯀꯥꯒꯣ	-10.3954
▁ꯀꯟꯇ꯭ꯔꯣꯜ	-10.3954
▁ꯑꯦꯖꯦꯟꯁꯤ	-10.3954
▁ꯍꯟꯊꯍꯟꯅꯕ	-10.3963
▁ꯀꯥꯟꯅꯗꯦ꯫	-10.3965
▁ꯉꯝꯗ꯭ꯔꯥ	-10.3968
▁ꯑꯦꯃꯤꯂꯤ	-10.3969
ꯔꯦꯟꯁ	-10.397
▁ꯍꯥꯏꯕꯅꯤ	-10.398
▁ꯃꯆꯦ	-10.3992
▁꯲꯰꯰꯲	-10.3994
▁ꯁꯥꯏꯟꯇꯤꯁꯠ	-10.4
▁ꯇꯣꯛꯉꯥ	-10.4005
▁ꯁꯦꯝꯒꯠꯈꯤ	-10.401
▁ꯆꯤꯡꯁꯤꯟꯈꯤ	-10.4014
▁ꯐꯪꯈꯤꯕ꯭ꯔꯥ	-10.4021
▁ꯃꯤꯅꯨꯡꯁꯤ	-10.4021
ꯒ꯭ꯔꯥꯝ	-10.4025
▁ꯂꯨꯞꯄ	-10.4025
▁ꯎꯏ	-10.4029
▁ꯇꯦꯂꯤ	-10.4029
▁ꯁꯨꯄꯔꯃꯥꯔꯀꯦꯠ	-10.4032
▁ꯍꯤꯊꯥꯡꯐꯝ	-10.4032
▁ꯇꯨꯡꯏꯟꯈꯤ	-10.4033
▁ꯀ꯭ꯂꯥꯁꯔꯨꯝ	-10.4034
ꯔꯃ	-10.4034
▁ꯆꯠꯇꯦ꯫	-10.4037
▁ꯃꯥꯏꯗ	-10.4037
▁ꯊꯣꯛꯂꯕꯗꯤ	-10.4037
▁ꯁꯥꯒꯠꯄ	-10.4039
▁ꯊꯣꯛꯈ꯭ꯔꯦ꯫	-10.4042
▁ꯁ꯭ꯇꯣꯔ	-10.4046
▁ꯕ꯭ꯔꯦꯛ	-10.4049
▁ꯐꯪꯂꯕ꯭ꯔꯥ	-10.4052
▁ꯀꯠꯊꯣꯛ	-10.4054
▁ꯍꯣꯠꯅꯈꯤꯕ	-10.4055
▁ꯀꯥꯟꯅꯩ	-10.4056
ꯁꯥꯏꯗ	-10.4057
▁ꯆꯔꯆꯇ	-10.4066
▁ꯃꯇꯣꯟꯗ	-10.4067
▁ꯍꯥꯏꯒꯅꯨ꯫	-10.4068
ꯍꯜꯂꯕ	-10.4069
▁ꯍꯟꯖꯤꯟꯕ	-10.4072
▁ꯇꯧꯔꯤꯉꯩꯗ	-10.4074
▁ꯊꯥꯅꯕ	-10.4076
▁ꯄꯣꯀꯦꯠꯇ	-10.408
ꯥꯛ	-10.4082
▁ꯀꯦꯟꯅ	-10.4086
▁ꯅꯝꯐꯨꯗ	-10.4095
▁ꯊꯝꯒꯅꯤ	-10.4096
▁ꯌꯥꯍꯜꯂꯤ꯫	-10.4096
ꯕꯤꯟ	-10.4097
▁ꯐ꯭ꯂꯣ	-10.4104
▁ꯐꯣꯡꯕ	-10.4105
▁ꯀꯥꯏꯕ	-10.4106
▁ꯇꯥꯛꯄꯗꯤ	-10.4109
▁ꯑꯣꯔꯒꯅꯥꯏꯖꯦꯁꯟ	-10.4111
▁ꯃꯁꯥꯗ	-10.412
▁ꯄꯨꯟꯁꯤꯟꯗꯨꯅ	-10.4126
ꯁꯤꯌꯦꯜ	-10.413
ꯄ꯭ꯔꯦ	-10.413
ꯃꯤꯌꯥ	-10.4133
▁ꯉꯝꯂꯔꯣꯏ꯫	-10.4137
▁ꯎꯔꯦ꯫	-10.4147
▁ꯑꯦꯛꯠ	-10.4153
▁ꯈꯪꯒꯅꯤ	-10.4155
▁ꯆꯨꯞꯈꯤ꯫	-10.4161
▁ꯕꯦꯡ	-10.417
▁ꯑꯇꯣꯞꯄꯁꯤꯡꯒꯤ	-10.417
꯱꯳	-10.4177
▁ꯁꯤꯅꯥ	-10.4182
ꯜꯚꯥꯗꯣꯁ	-10.4183
▁ꯈꯜ	-10.419
▁ꯇꯦꯒ	-10.4195
▁ꯎꯔꯤꯕ	-10.4196
▁ꯄꯥꯝꯗ꯭ꯔꯕꯗꯤ	-10.4198
▁ꯖꯣꯟꯕꯨ	-10.42
▁ꯍꯧꯗ꯭ꯔꯤꯉꯩ	-10.4201
▁꯲꯰꯰꯷ꯇ	-10.4202
▁ꯂꯣꯏꯈ꯭ꯔꯦ꯫	-10.4203
▁ꯆꯥꯎꯊꯣꯛꯆ	-10.4209
▁ꯄꯨꯔꯛꯄꯤꯌꯨ꯫	-10.4209
ꯅꯦꯟ	-10.421
▁ꯊꯝꯂꯝꯕ	-10.4213
▁ꯆꯣꯛꯊꯔꯦ꯫	-10.4214
▁ꯂꯥꯛꯎ꯫	-10.422
꯷꯰	-10.4231
▁ꯆꯠꯂꯕ	-10.4231
▁ꯇ꯭ꯔꯦꯗ	-10.425
▁ꯅꯤꯡꯊꯝꯊꯥꯒꯤ	-10.4252
▁ꯂꯦꯕꯔ	-10.4256
ꯔꯛꯀꯗ꯭ꯔꯥ	-10.4258
ꯤꯒꯅꯨ꯫	-10.4262
▁ꯐ꯭ꯔꯦꯗꯔꯤꯛ	-10.427
▁ꯑꯦꯁꯦꯝꯕ꯭ꯂꯤ	-10.427
▁ꯁꯦꯟꯌꯦꯛ	-10.427
▁ꯀꯪꯒ꯭ꯔꯦꯁ	-10.427
ꯒꯥꯏ	-10.4271
▁ꯍꯨꯏꯁꯤꯡ	-10.4274
▁ꯇꯔꯀꯤ	-10.4283
▁꯲꯰꯰꯶ꯇ	-10.43
▁ꯑꯞ	-10.4304
▁ꯇꯥꯈꯤꯕ꯭ꯔꯥ	-10.4311
▁ꯅꯤꯡꯁꯤꯡꯍꯜꯂꯤ	-10.4312
▁ꯇꯦꯟꯅ	-10.4312
▁ꯑꯣꯏꯍꯟꯕ	-10.4314
▁ꯑꯂꯨ	-10.4323
▁ꯈꯜꯂꯨꯕ	-10.4323
▁ꯒ꯭ꯔꯤ	-10.4325
▁ꯀꯌꯥꯅꯣ	-10.4328
▁ꯃꯦꯛꯁꯤꯀꯣ	-10.4332
▁ꯑꯦꯁꯦ	-10.4334
▁ꯆꯥꯔ	-10.4338
▁ꯐꯨꯠ	-10.4343
ꯄꯥꯔ	-10.4347
▁ꯑꯦꯁꯣꯁꯤꯑꯦꯁꯟ	-10.4351
▁ꯂꯧꯕꯨꯛ	-10.4354
▁ꯅꯤꯅꯤ	-10.4354
▁ꯇ꯭ꯔꯦꯅꯤꯡ	-10.4355
▁ꯆꯥꯃ	-10.4357
▁ꯁꯣꯏ	-10.4357
▁꯲꯰꯰꯸ꯗ	-10.437
ꯂꯣꯏꯗ꯭ꯔꯥ	-10.4371
▁ꯇꯣꯡꯈꯤ	-10.4374
▁ꯄꯥꯡꯊꯣꯛꯀꯅꯤ꯫	-10.4387
▁ꯁ꯭ꯇ꯭ꯔꯤꯠꯇ	-10.4389
ꯝꯇ	-10.4392
▁ꯑꯔꯥꯟꯕꯅꯤ꯫	-10.44
▁ꯂꯦꯞꯄꯨ	-10.4412
▁ꯍꯟꯖꯤꯟꯅ	-10.4415
▁ꯂꯥꯛꯏ	-10.4415
▁ꯁꯦꯜꯐ	-10.4423
▁ꯈꯨꯗꯣꯞ	-10.4432
▁ꯕ꯭ꯔꯥꯟꯗ	-10.4437
▁ꯂꯥꯏꯍꯧ	-10.4443
▁ꯃꯥꯟꯅꯗꯦ꯫	-10.4443
▁ꯁꯦꯕ	-10.4445
▁ꯄꯥꯎꯟ	-10.4445
▁ꯑꯍꯣꯡꯕꯁꯤꯡ	-10.4453
▁ꯍꯥꯏꯔꯣꯏ꯫	-10.4455
꯳꯷	-10.4457
▁ꯇꯥꯛꯂꯤ	-10.446
▁ꯁ꯭ꯀꯨꯜꯗꯒꯤ	-10.447
▁ꯁꯟꯗꯣꯛꯈꯤ꯫	-10.4472
▁ꯆꯠꯈꯤꯕꯒꯦ	-10.4472
▁ꯅꯨꯡꯉꯥꯏꯒꯅꯤ	-10.4474
▁ꯑꯣꯜꯗ	-10.4494
▁ꯋꯥꯏꯟ	-10.45
▁ꯃꯃꯤꯠꯇ	-10.45
▁ꯇꯧꯃꯤꯟꯅꯕ	-10.4502
▁ꯂꯪꯈꯤ	-10.4508
▁ꯀ꯭ꯔꯤꯃꯤꯅꯦꯜ	-10.4514
▁ꯑꯦꯟꯖꯦꯂꯤꯁ	-10.4514
▁ꯑꯣꯞꯁꯟ	-10.4514
ꯟꯗꯥ	-10.4516
▁ꯆꯠꯀꯗꯒꯦ	-10.4517
ꯦꯟꯕꯔꯒ	-10.4517
▁ꯃꯍꯥꯛꯀꯨꯝꯅ	-10.4523
▁ꯄꯥꯡꯏ꯫	-10.4532
▁ꯌꯥꯔꯝꯃꯤ꯫	-10.4538
▁ꯇꯔꯝ	-10.4539
▁ꯃꯥꯡꯍꯟꯈꯤ꯫	-10.4541
▁ꯊꯝꯂꯝꯃꯤ꯫	-10.4541
▁ꯆꯣꯡꯈꯤ꯫	-10.455
▁ꯗ꯭ꯔꯥꯐꯠ	-10.4551
▁ꯌꯥꯍꯟꯕ	-10.4554
▁ꯊꯥꯗꯣꯛꯄꯤꯌꯨ꯫	-10.4559
꯸꯰	-10.4561
▁ꯗꯤꯁꯛ	-10.4564
ꯅꯤꯅꯣ	-10.4567
▁ꯍꯥꯞꯄꯤ	-10.4569
▁ꯁꯤꯖꯟꯒꯤ	-10.4582
▁ꯇꯥꯛꯈꯤ	-10.4582
▁ꯄꯤꯔꯛ	-10.4587
▁ꯃꯦꯇ꯭ꯔꯣꯄꯣꯂꯤꯇꯥꯟ	-10.4596
ꯀ꯭ꯔ	-10.4598
▁ꯂꯥꯡꯕ	-10.4598
▁ꯇꯦꯛꯅꯤꯛ	-10.4599
▁ꯊꯋꯥꯟꯃꯤꯆꯥꯛꯁꯤꯡ	-10.46
▁ꯄꯤꯕꯤꯔꯛꯀꯗ꯭ꯔꯥ	-10.46
▁ꯑꯣꯂꯤꯝꯄꯤꯛ	-10.4604
▁ꯆꯪꯐꯝ	-10.4609
▁ꯊꯥꯖꯕ꯭ꯔꯥ	-10.4612
▁ꯇꯥꯛꯄꯤꯕ	-10.4619
▁ꯆꯥꯎꯈꯠꯂꯛꯈꯤ	-10.4623
▁ꯃꯤꯅꯥꯏ	-10.4624
▁ꯏꯪꯂꯦꯟꯗꯒꯤ	-10.4638
▁ꯂꯦꯁ	-10.4644
▁ꯑꯣꯏꯔꯛꯀꯅꯤ꯫	-10.4645
ꯀꯥꯟ	-10.4659
▁ꯃꯗꯨꯒꯤꯗꯃꯛ	-10.4662
▁ꯈꯪꯗꯣꯛ	-10.4668
▁ꯑꯔꯥꯞꯄꯗ	-10.4672
▁ꯀꯝꯃ꯭ꯌꯨꯅꯤꯇꯤ	-10.468
▁ꯁ꯭ꯄ꯭ꯔꯤꯡ	-10.468
▁ꯅꯤꯟꯇꯦꯟꯗꯣ	-10.468
▁ꯑꯦꯁꯇꯦꯔꯣꯏꯗ	-10.468
▁ꯂꯥꯏꯌꯦꯡ	-10.468
▁ꯄ꯭ꯂꯦꯠꯐꯣꯔꯝ	-10.468
ꯀꯣꯠ	-10.4681
▁ꯚꯥꯏꯔꯁ	-10.4681
▁ꯁꯥꯈꯤꯕꯅꯤ꯫	-10.4682
ꯖꯦꯛ	-10.4684
ꯀꯝ	-10.4689
ꯃꯣꯟꯠ	-10.4694
▁ꯀꯣꯔꯤꯌꯥ	-10.4695
▁ꯄ꯭ꯔꯥꯏꯝ	-10.4697
▁ꯂꯩꯈ꯭ꯔꯦ꯫	-10.4697
▁ꯃꯈꯜꯁꯤꯡ	-10.47
▁ꯂꯥꯛꯈ꯭ꯔꯦ꯫	-10.4702
▁ꯂꯣꯠꯅꯕ	-10.4708
ꯔꯛꯏ꯫	-10.4714
ꯇꯝꯕꯤꯕ	-10.4715
ꯁꯤꯑꯣ	-10.472
▁ꯁ꯭ꯇꯤꯜ	-10.4721
꯭ꯠ	-10.4722
▁ꯊꯥꯔꯛꯄ	-10.4723
▁ꯑꯣꯏꯍꯟꯅꯕ	-10.4728
▁ꯂꯧꯁꯤꯟꯈꯤ꯫	-10.4737
꯱꯴	-10.4739
▁ꯃꯔꯨꯞꯁꯤꯡꯒ	-10.4744
▁ꯃꯃꯤꯁꯤꯡ	-10.4746
▁ꯊꯜ	-10.4752
▁ꯀꯃꯟꯋꯦꯜꯊ	-10.4764
▁ꯑꯣꯏꯊꯪꯕ	-10.4764
▁ꯁꯦꯝꯖꯤꯟ	-10.4765
▁ꯕꯤꯂꯤꯌꯟ	-10.477
▁ꯂꯦꯞꯀꯅꯤ	-10.4772
▁ꯁꯤꯔꯕ	-10.4774
▁ꯄꯥꯡꯈꯤ	-10.4774
▁ꯍꯣꯡꯂꯦ꯫	-10.478
▁ꯂꯨꯍꯣꯡꯂꯕ	-10.4782
▁ꯍꯩꯅꯕ	-10.479
▁ꯈꯪꯂꯕꯗꯤ	-10.4794
▁ꯅꯪꯕ	-10.48
ꯗꯤꯌꯟ	-10.4803
꯷꯶	-10.4804
▁ꯅꯨꯡꯗꯥꯡ	-10.4804
▁ꯊꯜꯂꯕ	-10.4805
▁ꯐꯣꯛꯁ	-10.4808
▁ꯆꯨꯞ	-10.4809
▁ꯁ꯭ꯋꯥ	-10.481
▁ꯍꯧꯔꯛꯈꯤ	-10.4813
▁ꯎꯈ꯭ꯔꯦ꯫	-10.4814
ꯍꯟꯂꯣꯏ꯫	-10.4814
▁ꯐꯪꯂꯦ	-10.483
ꯥꯏꯟ	-10.4835
▁ꯃꯔꯣꯜꯁꯤꯡ	-10.4838
▁ꯊꯧꯔꯤꯕ	-10.4839
▁ꯕꯠꯇꯔ	-10.4849
ꯔꯦꯖ	-10.4849
▁ꯒꯜꯐ	-10.485
▁꯱꯹꯸꯹	-10.485
▁ꯇꯧꯔꯝ	-10.4853
▁ꯐꯒꯠꯂꯛ	-10.4856
▁ꯌꯨꯅꯤꯚꯔꯁꯤꯇꯤꯒꯤ	-10.4857
▁ꯀꯩꯊꯦꯜꯗ	-10.4858
▁ꯍꯟꯊꯍꯟꯕ	-10.4859
▁ꯃꯉꯥꯁꯨꯕ	-10.4865
▁ꯄꯤꯈꯤꯕꯅꯣ	-10.4866
▁ꯂꯧꯔꯒ	-10.4866
▁ꯊꯨꯒꯥꯏꯈꯤ꯫	-10.4876
▁ꯍꯥꯏꯋꯦ	-10.4878
ꯝꯁ	-10.488
ꯤꯌꯣ	-10.488
▁ꯄꯨꯟꯁꯤꯟꯅ	-10.4881
▁ꯑꯣꯏꯔꯛꯏ꯫	-10.4882
ꯄꯤꯛ	-10.4883
▁ꯂꯧꯒꯗꯕꯅꯤ꯫	-10.4884
ꯇ꯭	-10.4893
ꯑꯣꯏ	-10.4895
▁ꯋꯤꯀꯤ	-10.49
▁ꯄ꯭ꯔꯣꯁꯦꯁ	-10.49
▁ꯃꯍꯥꯛꯀꯤꯗꯃꯛꯇ	-10.4908
▁ꯂꯂꯣꯟꯕ	-10.491
ꯤꯕꯒꯤꯗꯃꯛ	-10.4925
▁꯲ꯗ	-10.4933
▁ꯀ꯭ꯔꯦꯗꯤꯠ	-10.4934
▁ꯐꯤꯖꯤꯛꯁ	-10.4934
▁ꯔꯨꯝ	-10.4937
▁ꯈꯣꯡꯕꯥꯜꯗ	-10.4942
▁ꯍꯤꯡꯅꯕ	-10.4946
▁ꯑꯣꯏꯔꯛꯂꯤ	-10.4948
▁ꯁꯥꯎꯈꯤ	-10.4948
▁ꯂꯩꯒꯗꯕꯅꯤ	-10.4957
ꯇꯤꯌꯥ	-10.496
▁ꯂꯩꯅꯗꯦ꯫	-10.4964
▁ꯂꯝꯀꯣꯏꯕ	-10.4965
ꯔꯛꯂꯤ	-10.4977
▁ꯅꯨꯄꯥꯁꯤꯡꯅ	-10.4977
ꯊꯣꯛꯀꯅꯤ	-10.498
▁ꯈꯦꯠꯅ	-10.4981
▁ꯂꯩꯈꯤꯗ꯭ꯔꯦ꯫	-10.4983
▁ꯀꯣꯂꯦꯖꯗ	-10.4991
▁ꯗ꯭ꯔꯣ	-10.4992
▁ꯀꯥꯂꯦꯟꯊꯥꯒꯤ	-10.4996
ꯇꯦꯟꯁ	-10.4998
▁ꯋꯨ	-10.4998
▁ꯍꯪꯅꯕ	-10.5001
▁ꯆꯠꯅꯕꯤꯁꯤꯡ	-10.5002
▁ꯄꯨꯗꯨꯅ	-10.502
▁ꯇꯔꯥꯃꯉꯥ	-10.502
▁ꯃꯆꯟꯅꯨꯄꯤ	-10.502
▁ꯅꯥꯒꯔꯤꯛ	-10.502
▁ꯏꯟꯁꯨꯔꯦꯟꯁ	-10.502
▁ꯎꯐꯨꯜ	-10.502
▁ꯋꯥꯌꯦꯜꯁꯪ	-10.5021
▁ꯌꯥꯅꯤꯡꯗꯕ	-10.5022
▁ꯁꯧꯒꯠ	-10.5025
▁ꯃꯨꯔꯇꯤ	-10.5025
▁ꯎꯔꯝꯕ꯭ꯔꯥ	-10.5027
▁ꯒꯨꯂꯥꯕ	-10.5028
▁ꯇꯧꯋꯤ	-10.5028
▁ꯚꯥꯔꯠ	-10.5029
▁ꯍꯪꯂꯤꯕ	-10.503
▁ꯃꯣꯕꯥꯏꯜ	-10.5032
▁ꯃꯄꯨꯡꯐꯥ	-10.5034
▁ꯄꯥꯝꯗ꯭ꯔꯥ	-10.5035
▁ꯍꯤꯞ	-10.5036
▁ꯂꯤꯟꯗꯥꯒꯤ	-10.5042
ꯐ꯭ꯂꯦ	-10.5042
▁ꯅꯥꯟꯊꯣꯛꯈꯤ꯫	-10.5043
▁ꯑꯣꯟꯊꯣꯛꯄ	-10.5044
▁ꯍꯦꯟꯕ	-10.5046
▁ꯀꯜ	-10.5052
▁ꯇꯧꯍꯟꯕ	-10.5054
▁ꯐꯠꯇꯦ	-10.5055
ꯋꯣ	-10.5064
▁ꯆꯪꯁꯤꯟꯕ	-10.5069
▁ꯀꯦꯟꯗꯤ	-10.5069
▁ꯌꯨꯅꯤꯚꯔꯁ	-10.5076
꯭ꯌ	-10.5083
ꯣꯛ	-10.5084
▁ꯇꯩ	-10.509
▁ꯑꯦꯂꯤꯁ	-10.5092
▁ꯌꯩ	-10.5093
ꯁꯀꯣ	-10.5101
▁ꯇꯨꯀꯠꯆ	-10.5105
▁ꯀꯦꯔꯣꯂꯤꯅꯥ	-10.5107
▁ꯀꯦꯕꯤꯅꯦꯠ	-10.5107
▁ꯇꯔꯥꯃꯥꯊꯣꯏ	-10.5107
▁ꯔꯣꯃꯥꯅꯤꯌꯥ	-10.5107
▁ꯃꯈꯣꯛ	-10.5107
▁ꯂꯥꯌꯦꯡ	-10.5107
▁ꯆꯣꯛꯊꯔꯕ	-10.5107
▁ꯆꯦꯌꯔꯃꯦꯟ	-10.5113
▁ꯈꯪꯗꯣꯛꯅꯕ	-10.5118
▁ꯊꯥꯈꯤꯕ	-10.5121
▁ꯐꯨꯖꯤ	-10.5123
▁ꯑꯃꯍꯦꯛꯇꯗꯒꯤ	-10.5126
▁꯲꯰꯰꯰ꯗ	-10.5126
▁ꯁꯣꯛꯍꯟꯕ	-10.5131
▁ꯏꯅꯕ	-10.5137
▁ꯁꯥꯏꯟꯇꯤꯁꯠꯁꯤꯡ	-10.5143
ꯇ꯭ꯔꯣꯄꯤꯀꯦꯜ	-10.5145
▁ꯄꯣꯈꯥꯏꯕ	-10.5146
▁ꯃꯥꯏꯄꯥꯛꯂꯕ	-10.5148
▁ꯗꯣꯔ	-10.5152
▁ꯃꯦꯊꯃꯦꯇꯤꯛꯁ	-10.5155
▁ꯍꯟꯊꯩ	-10.5155
ꯇꯦꯝ	-10.5156
▁ꯔꯦꯁꯤꯡ	-10.5162
▁ꯑꯣꯐꯔ	-10.5164
ꯌꯦꯠ	-10.5168
▁ꯈꯟꯕꯤꯌꯨ꯫	-10.5169
▁ꯂꯥꯏꯟꯗ	-10.517
꯱꯲	-10.5175
▁ꯌꯔ	-10.5175
ꯈ꯭ꯔꯕꯔꯥ	-10.5179
▁ꯁ꯭ꯋꯤ	-10.5179
ꯋꯥꯜ	-10.5179
▁ꯌꯧꯒꯅꯤ	-10.5183
▁ꯄꯥꯎꯃꯤ	-10.5193
▁ꯄꯕ꯭ꯂꯤꯛ	-10.5195
▁ꯔꯦꯖꯤꯁꯇꯔ	-10.5195
▁ꯈꯣꯡꯉꯤ꯫	-10.5195
▁ꯃꯃꯤꯠꯁꯤꯡ	-10.5196
▁ꯀꯟꯗꯛꯇꯔ	-10.5198
▁ꯉꯝꯗꯅ	-10.5198
▁ꯃꯥꯔꯀꯦꯠ	-10.5198
▁ꯀꯣꯡ	-10.5199
▁ꯁꯥꯏꯀ꯭ꯂꯣꯟ	-10.5199
▁ꯕꯨꯗ	-10.5199
▁꯱꯹꯵꯰	-10.5199
▁ꯃꯤꯡꯊꯣꯟꯈꯤ	-10.5199
▁ꯕꯦꯜꯠ	-10.5202
ꯂꯛꯏ꯫	-10.5205
▁ꯏꯊꯠꯁꯤꯡ	-10.5207
▁ꯇꯧꯔꯕꯁꯨ	-10.5209
▁ꯑꯦꯛꯇꯤꯕ	-10.5217
▁ꯌꯥꯝ	-10.5222
▁ꯄ꯭ꯂꯦꯌꯔ	-10.5223
▁ꯍꯨꯔꯥꯟ	-10.5226
▁ꯈꯥꯏꯗꯣꯛꯏ꯫	-10.5233
▁ꯇꯧꯔꯛꯂꯤ꯫	-10.5236
▁ꯖꯤꯕꯁꯤꯡ	-10.5247
▁ꯁꯥꯟꯅꯅꯕ	-10.5251
ꯀꯣꯗ	-10.5255
▁ꯃꯥꯔꯁ	-10.5255
▁ꯂꯩꯇꯦꯝ	-10.5264
▁ꯈꯪꯅꯔꯝꯃꯤ	-10.5269
▁ꯒꯦꯝꯁ	-10.5273
▁ꯐꯖꯈꯤ	-10.5276
▁ꯀꯣꯁꯠ	-10.528
▁ꯊꯣꯝꯈꯤ	-10.5281
▁ꯀꯟꯖꯔꯕꯦꯇꯤꯕ	-10.5283
▁ꯅꯥꯀꯦꯟꯊꯥ	-10.5283
▁ꯐꯤꯂꯣꯁꯣꯐꯤ	-10.5283
▁ꯐꯦꯁꯇꯤꯕꯦꯜ	-10.5283
▁ꯑꯣꯁꯇ꯭ꯔꯤꯌꯥ	-10.5283
▁ꯑꯣꯄꯔꯦꯇ	-10.5285
▁ꯀ꯭ꯔꯤꯇꯤꯛ	-10.5286
▁ꯆꯥꯒꯅꯤ	-10.5286
▁ꯃꯥꯔꯤꯑꯣ	-10.5288
▁ꯄꯣꯔꯠ	-10.5293
▁ꯐꯤꯜ	-10.5295
▁ꯍꯦꯜꯂꯤ꯫	-10.5296
▁ꯍꯩꯅꯕꯤ	-10.5299
▁ꯈꯟꯗ꯭ꯔꯥ	-10.53
▁ꯇꯉꯥꯏꯐꯗꯦ꯫	-10.5305
꯲꯱	-10.5311
▁ꯂꯤꯕ	-10.5319
ꯆꯥꯎ	-10.532
ꯁꯥꯌꯔ	-10.5321
ꯕꯣꯔꯗ	-10.5321
▁ꯅꯤꯡꯁꯤꯡꯕꯤꯌꯨ꯫	-10.5322
ꯥꯜ	-10.5326
▁ꯆꯥꯒꯅꯤ꯫	-10.5328
▁꯷꯰	-10.5328
▁ꯇꯥꯍꯟꯈꯤ꯫	-10.5331
▁ꯎꯠꯈꯤꯕ	-10.5338
▁ꯖꯦꯟꯅ	-10.5344
▁ꯇꯧꯕ꯭ꯔꯥ	-10.5353
▁ꯆꯥꯈꯤꯗꯦ꯫	-10.5354
▁ꯇꯨꯡꯁꯤꯟ	-10.5355
▁ꯇꯁꯦꯡꯕ	-10.5359
ꯍꯟꯗꯦ꯫	-10.5361
▁ꯄꯥꯡꯕꯤꯌꯨ꯫	-10.5363
▁ꯅꯤꯌꯝꯁꯤꯡ	-10.5366
▁ꯆꯤꯡꯁꯤꯟꯕ	-10.5366
ꯣꯁ	-10.5368
▁ꯁꯤꯡꯒꯥꯄꯨꯔ	-10.5373
▁ꯑꯦꯛꯖꯤꯀ꯭ꯌꯨꯇꯤꯕ	-10.5373
▁ꯑꯦꯄꯣꯏꯟꯠꯃꯦꯟꯠ	-10.5373
ꯔꯦꯁꯟ	-10.5374
▁ꯔꯤꯚ꯭ꯌꯨ	-10.5374
ꯅꯍꯥꯛ	-10.5375
▁ꯐꯦꯝ	-10.5375
▁ꯀꯥꯎꯔꯣꯏꯗꯕꯅꯤ꯫	-10.5376
▁ꯁꯟꯗꯣꯛꯄ	-10.5378
▁꯲꯰꯰꯴ꯗ	-10.5381
▁ꯈꯠꯅꯕ	-10.5385
▁ꯆꯪꯏ	-10.5385
▁ꯂꯩꯕ꯭ꯔ	-10.5392
▁ꯇꯝꯒꯗꯕꯅꯤ꯫	-10.54
ꯂꯔꯤ	-10.5401
▁ꯊꯤꯟ	-10.5403
▁ꯕꯤꯒ	-10.5405
▁ꯖꯤꯕ	-10.5412
▁ꯀ꯭ꯔꯤꯝ	-10.5413
▁ꯒꯦꯠ	-10.5424
ꯀ꯭ꯋꯦ	-10.5427
▁ꯁ꯭ꯀꯦ	-10.5431
▁ꯆꯪꯁꯤꯟꯈꯤ	-10.5435
▁ꯂꯦꯡꯕ	-10.5438
▁ꯂꯥꯛꯁꯤ	-10.5447
▁ꯄꯥꯏꯅꯕ	-10.545
꯰꯰ꯗ	-10.5451
▁ꯏꯔꯤ꯫	-10.5451
▁ꯆꯛ	-10.5452
▁ꯂꯩꯇ꯭ꯔꯦ	-10.5456
▁ꯀꯔꯤꯒꯤꯗꯃꯛꯇ	-10.546
▁ꯁ꯭ꯀꯤꯏꯪ	-10.5463
▁ꯄ꯭ꯔꯤꯟꯁꯤꯄꯜ	-10.5463
▁ꯑꯦꯁꯤꯁꯇꯦꯟꯠ	-10.5463
▁ꯑꯦꯗꯚꯦꯟꯆꯔ	-10.5463
▁ꯀꯦꯄꯤꯇꯦꯜ	-10.5463
▁ꯒꯦꯂꯦꯛꯁꯤ	-10.5463
▁ꯏꯖꯔꯦꯜ	-10.5463
▁ꯁ꯭ꯋꯤꯗꯦꯟ	-10.5464
▁ꯅꯨꯡꯉꯥꯏꯇꯅ	-10.5464
▁ꯑꯥꯏꯔꯤꯁ	-10.5471
▁ꯁꯥꯟꯅꯔꯤ꯫	-10.5472
▁ꯇꯧꯕꯒꯨꯝꯅ	-10.5472
▁ꯃꯈꯨꯝ	-10.5474
▁ꯐꯪꯂꯛꯄ	-10.5476
▁ꯆꯪꯅ	-10.5478
▁ꯀꯨꯀꯤ	-10.548
▁ꯁꯔꯕꯤꯁꯁꯤꯡ	-10.5481
▁ꯑꯦꯇꯦꯛ	-10.5484
▁ꯈꯪꯂꯕ꯭ꯔꯥ	-10.5485
▁ꯚꯥꯏ	-10.5486
▁ꯃꯔꯥꯡ	-10.5488
▁ꯌꯨꯝꯂꯣꯟꯅꯕꯁꯤꯡ	-10.5492
▁ꯇꯣꯀꯤꯑꯣꯗ	-10.5494
▁ꯍꯪꯈꯤ	-10.5499
ꯇꯥꯔ	-10.5501
▁ꯈꯪꯒꯗꯕ	-10.5507
ꯆꯦꯟ	-10.5507
▁ꯂꯧꯅꯩ	-10.5514
ꯊꯣꯛꯄꯤꯌꯨ꯫	-10.5515
▁ꯍꯣꯡꯈꯤ꯫	-10.552
▁ꯐꯥꯏꯟ	-10.5522
ꯁꯔꯠ	-10.5527
▁ꯉꯥꯏꯅꯕ	-10.5529
▁ꯇꯨꯡꯁꯤꯟꯕ	-10.5529
▁ꯍꯦꯟꯒꯠꯍꯟꯕ	-10.5532
▁ꯄꯨꯊꯣꯛꯈꯤ	-10.5536
ꯇꯧ	-10.5539
▁ꯆꯠꯂ	-10.5545
▁ꯐꯦꯔꯤ	-10.5546
꯱꯱	-10.5549
▁ꯂꯩꯒꯗꯒꯦ	-10.5552
ꯣꯠꯄ	-10.5553
▁ꯄ꯭ꯔꯦꯛꯇꯤꯁ	-10.5554
▁ꯌꯦꯠꯂꯣꯝꯗ	-10.5554
▁ꯁ꯭ꯋꯦꯇꯔ	-10.5554
▁ꯗ꯭ꯔꯝ	-10.5554
▁꯱꯹꯶꯹	-10.5556
▁ꯊꯣꯡꯐꯝ	-10.5562
▁ꯍꯣꯠꯅꯔꯝꯃꯤ꯫	-10.5563
▁ꯗꯥꯏꯔꯤ	-10.5563
▁ꯃꯍꯩꯔꯣꯏꯁꯤꯡꯒꯤ	-10.5565
▁ꯀ꯭ꯌꯣꯇꯣꯗ	-10.5565
ꯔꯝꯕ꯭ꯔꯥ	-10.5566
▁ꯆꯥꯎꯔꯛꯈꯤ꯫	-10.5584
▁ꯇꯥꯔꯛꯈꯤ꯫	-10.5587
ꯈꯣꯡ	-10.5598
▁ꯅꯝꯈꯤ꯫	-10.5598
▁꯱꯰ꯗ	-10.56
▁ꯋꯥꯀꯠꯄ	-10.56
▁ꯉꯛꯍꯟꯈꯤ	-10.5611
▁ꯇꯥꯔꯛꯄꯗ	-10.5615
▁ꯊꯪꯅ	-10.5617
▁ꯁꯤꯖꯤꯟꯅꯈꯤꯕ	-10.5617
ꯇꯣꯔ	-10.562
ꯂ꯭ꯌꯨ	-10.562
▁ꯃꯣꯜ	-10.5621
▁ꯂꯥꯛꯂꯤꯕ	-10.5631
▁ꯉꯥꯏꯔꯤꯕ	-10.5632
▁ꯐꯪꯒꯗꯕ	-10.5633
▁ꯔꯤꯐ	-10.5633
▁ꯊꯤꯖꯤꯟꯕꯒꯤ	-10.5635
▁ꯏꯟꯖꯤꯅꯤꯌꯔ	-10.5642
▁ꯍ꯭ꯌꯨ	-10.5642
꯭ꯌꯣ	-10.5644
▁ꯀ꯭ꯂꯥꯁꯤꯀꯦꯜ	-10.5645
▁꯱꯹꯷꯵	-10.5648
▁ꯇꯥꯔꯕ꯭ꯔꯥ	-10.5656
▁ꯁꯤꯈ꯭ꯔꯦ	-10.566
▁ꯕꯣꯔ	-10.5673
▁ꯊꯥꯗꯣꯛꯂꯕ	-10.5674
▁ꯗꯕꯜ	-10.5675
▁ꯕꯨꯁ	-10.5684
▁ꯏꯁ꯭ꯋꯔꯅ	-10.5685
▁ꯌꯨꯅꯤꯠꯁꯤꯡ	-10.5689
ꯔꯃꯒꯤ	-10.5706
▁ꯇꯥꯟꯅꯕ	-10.5707
▁ꯁꯣꯁ	-10.5707
▁ꯒ꯭ꯂꯦ	-10.5716
▁ꯊꯤꯒꯅꯤ꯫	-10.5718
▁ꯆꯟ	-10.5731
▁ꯔꯤꯖꯔꯕ	-10.5738
▁ꯐꯤꯛꯁꯟ	-10.5738
▁ꯇꯥꯡꯕ	-10.574
▁ꯂꯩꯄꯥꯛ	-10.5741
▁ꯄꯤꯒꯗꯕ	-10.5744
ꯑꯥ	-10.5745
▁ꯈꯨꯎ	-10.5747
▁ꯍꯥꯠꯀꯅꯤ	-10.5753
▁ꯐ꯭ꯂꯦꯠ	-10.5761
ꯄꯣꯂꯤ	-10.5764
▁ꯌꯦꯡꯁꯤꯟꯕꯤꯌꯨ꯫	-10.5765
ꯑꯣꯟ	-10.5768
▁ꯀꯦꯂꯤꯐꯣꯔꯅꯤꯌꯥꯗ	-10.5768
▁ꯈꯟꯈꯤꯕꯗꯒꯤ	-10.577
▁꯳ꯗ	-10.5771
▁ꯈꯟꯅꯩ	-10.5772
▁ꯃꯥꯡꯈ꯭ꯔꯦ	-10.5784
▁ꯄꯜꯂꯤ	-10.5789
▁꯲꯰ꯗ	-10.5793
ꯑꯣꯔ	-10.5798
▁ꯀꯣꯏꯁꯤꯟꯕ	-10.5812
▁ꯁꯛꯈꯤ	-10.5815
▁ꯒ꯭ꯔꯣ	-10.5816
▁꯱꯸꯰	-10.5826
▁ꯌꯦꯡꯗꯨꯅ	-10.5829
▁ꯁꯣꯕꯤꯌꯦꯠ	-10.5831
▁ꯁꯤꯝꯐꯣꯅꯤ	-10.5831
▁ꯑꯦꯅꯔꯖꯤ	-10.5831
▁ꯄ꯭ꯔꯃꯣ	-10.5833
▁ꯂꯤꯟꯗꯥꯅ	-10.5835
▁ꯇꯅꯦꯜ	-10.5835
▁ꯃꯜꯇꯤ	-10.5836
▁ꯀꯣꯃꯤꯛ	-10.5837
ꯃꯄꯥꯕꯨ	-10.5837
▁ꯀꯤꯖꯩ꯫	-10.5838
▁ꯔꯣꯃꯟ	-10.584
▁ꯄꯦꯔꯤ	-10.584
▁ꯂꯩꯔꯔꯣꯏ	-10.5847
ꯃꯈꯩ	-10.5854
▁ꯍꯥꯞꯆꯤꯟꯕꯤꯌꯨ	-10.5856
▁ꯔꯦꯀꯣꯔꯗꯤꯡ	-10.5857
▁꯳꯰ꯗ	-10.586
▁ꯇꯥꯛꯂꯤꯕ	-10.5865
▁ꯄꯣꯠꯊꯣꯛꯁꯤꯡ	-10.5868
▁ꯄꯣꯂꯦꯟ	-10.5868
ꯆꯥꯎꯕ	-10.5871
▁ꯒꯤꯜ	-10.5874
▁ꯄꯥꯎꯗꯝꯈꯤ	-10.5875
▁ꯊꯥꯕꯤꯌꯨ꯫	-10.5876
▁ꯌꯦꯡꯂꯒ	-10.5879
ꯀꯥꯏ	-10.5881
▁ꯄꯔꯁ	-10.5885
ꯐ꯭ꯔꯦ	-10.5891
▁ꯃꯨꯊꯠ	-10.5892
ꯌꯣꯟ	-10.5911
▁ꯀꯛꯈꯤ	-10.5915
▁ꯕꯥꯜ	-10.5916
ꯕꯤꯜ	-10.5917
▁ꯍꯨꯔꯥꯟꯈꯤ	-10.5926
▁ꯄꯔꯐꯣꯔꯃꯦꯟꯁ	-10.5926
▁ꯀꯦꯇꯒꯣꯔꯤ	-10.5926
▁ꯀꯦꯊꯤꯗ꯭ꯔꯦꯜ	-10.5926
▁ꯃꯈꯣꯜ	-10.5926
▁ꯚꯤꯛꯇꯣꯔꯤꯌꯥ	-10.5926
▁ꯇꯥꯏꯐꯨꯟ	-10.5926
▁ꯂꯥꯛꯂꯤ	-10.5929
▁ꯐꯔꯁꯠ	-10.5929
▁ꯇꯨꯝꯂꯤꯕ	-10.593
▁ꯍꯣꯁꯠ	-10.5937
꯳꯵	-10.5943
ꯚꯥꯏ	-10.5946
▁ꯅꯥꯏꯇꯣꯝꯅ	-10.5948
▁ꯏꯪꯈꯣꯜ	-10.5952
▁ꯄꯨꯔꯛꯅꯕ	-10.5952
▁ꯅꯤꯀꯣ	-10.5953
▁ꯌꯥꯖ	-10.5958
▁ꯖꯨꯟꯗ	-10.597
▁ꯆꯥꯡꯗꯝꯅ	-10.5976
▁ꯅꯣꯡꯆꯨꯞꯇ	-10.5981
▁ꯆꯥꯎꯏ	-10.5988
▁ꯂꯤꯂꯥ	-10.5992
ꯂꯥꯎ	-10.6007
▁ꯂꯦꯗꯤ	-10.6011
▁ꯃꯤꯍꯥꯠꯄ	-10.6011
▁ꯅꯦꯁꯟꯁ	-10.6013
▁ꯂꯩꯕꯔꯥ	-10.6013
▁ꯑꯥꯔꯒꯥꯎ	-10.6021
▁ꯅꯦꯟꯁꯤ	-10.6021
▁ꯂꯤꯁꯠꯇ	-10.6021
▁ꯅꯣꯠꯕꯨꯛ	-10.6021
▁ꯄꯣꯛꯄꯒꯤ	-10.6022
▁ꯂꯥꯛꯄꯤꯌꯨ꯫	-10.6024
▁ꯃꯤꯡꯁꯦꯜ	-10.6026
▁ꯀꯛꯊꯠꯄ	-10.6027
▁ꯑꯥꯏꯔꯟ	-10.6027
▁ꯀ꯭ꯔꯦꯁ	-10.6029
▁ꯍꯥꯏꯕꯤꯌꯨ	-10.6031
▁ꯑꯣꯏꯔꯛꯂꯦ꯫	-10.6032
▁ꯌꯨꯔꯣ	-10.6035
▁ꯆꯨꯁꯤꯟꯅꯕ	-10.6038
ꯋꯔꯊ	-10.6046
▁ꯑꯃꯈꯛꯇꯗ	-10.6047
▁ꯊꯤꯗꯅ	-10.6052
▁ꯌꯨꯔꯣꯞ	-10.6054
ꯦꯇꯤꯛ	-10.6054
▁ꯈꯟꯂꯤ	-10.6057
▁ꯄꯤꯠ	-10.606
▁ꯂꯥꯎꯈꯤ꯫	-10.6063
▁ꯂꯩꯇ꯭ꯔꯥ	-10.6065
▁ꯂꯥꯟꯗꯥꯈꯤ꯫	-10.6078
▁꯲꯰꯰꯲ꯗ	-10.608
▁ꯚꯣꯜ	-10.6081
ꯐꯣꯜ	-10.6086
▁ꯆꯥꯏꯅꯥꯗ	-10.6088
▁꯱꯵ꯗ	-10.609
▁ꯈꯥꯏꯗꯣꯛ	-10.6097
▁ꯁ꯭ꯅꯣ	-10.6101
▁ꯃꯥꯏꯊꯣꯡ	-10.6117
▁ꯑꯊꯦꯡꯕ	-10.6117
▁ꯀꯨꯞꯁꯤꯟꯈꯤ꯫	-10.6117
▁ꯅꯣꯔꯗꯔꯟ	-10.6117
▁ꯌꯥꯟꯁꯤꯟꯅꯕ	-10.6117
ꯂꯥꯡꯊꯛꯀꯤ	-10.6117
▁ꯇꯤꯁꯤꯅꯣ	-10.6117
▁ꯑꯦꯗꯤꯁꯟ	-10.6118
▁ꯃꯥꯟꯅꯗꯅ	-10.612
▁ꯑꯣꯏꯔꯝ	-10.6121
▁ꯊꯝꯂꯝꯈꯤ꯫	-10.6126
▁ꯆꯔꯥꯡꯅꯕ	-10.6127
▁ꯂꯩꯇꯥ	-10.613
▁ꯍꯣꯔ	-10.6134
▁ꯃꯦꯛꯁꯤꯀꯣꯗ	-10.614
▁ꯀ꯭ꯂꯥꯁꯀꯤ	-10.6142
▁ꯑꯦꯄꯜ	-10.6144
▁ꯄꯥꯜ	-10.6148
ꯁꯇꯟ	-10.6149
▁ꯊꯨꯡꯕ	-10.615
▁ꯑꯩꯍꯥꯛꯄꯨ	-10.615
▁ꯏꯃꯦꯖ	-10.6153
▁ꯑꯣꯕꯔ	-10.6156
ꯖꯜ	-10.6163
ꯆꯤꯟ	-10.6168
ꯃꯅꯨꯡ	-10.6169
▁ꯇꯨꯝꯗꯅ	-10.6188
ꯊꯣꯛꯏ꯫	-10.619
▁ꯀꯟꯁ	-10.619
▁ꯀꯦꯅꯗꯥ	-10.6195
▁ꯑꯦꯁꯤꯌꯥꯒꯤ	-10.6205
▁꯱꯹꯹꯸ꯗ	-10.6207
▁ꯄ꯭ꯂꯥꯟꯠ	-10.6209
▁ꯊꯋꯥꯟꯃꯤꯆꯥꯛ	-10.621
▁ꯀꯛꯊꯠꯈꯤ	-10.6211
▁ꯂꯩꯈꯤꯕꯒꯦ	-10.6211
▁ꯁ꯭ꯀ꯭ꯔꯤꯟ	-10.6214
ꯐꯥꯎ	-10.6214
▁ꯆꯐꯨ	-10.6215
▁ꯊꯣꯛꯍꯟꯗꯅꯕ	-10.6217
▁ꯍꯦꯟꯒꯠꯍꯟꯅꯕ	-10.6224
▁ꯄ꯭ꯔꯤꯊꯤꯕꯤꯗ	-10.6225
ꯁꯤꯜꯂꯤ꯫	-10.6226
▁ꯃꯁꯥꯟꯅꯁꯤꯡ	-10.6233
▁ꯌꯣꯟꯅꯕ	-10.6234
ꯁꯤꯟꯅꯕ	-10.6236
▁ꯉꯥꯏꯕꯤꯌꯨ꯫	-10.6238
▁ꯉꯛꯏ꯫	-10.6239
ꯔꯛꯈꯤ	-10.6239
▁ꯍꯟꯊꯔꯛꯈꯤ	-10.6241
▁ꯇꯥꯟꯕ	-10.6254
▁ꯀ꯭ꯋꯤ	-10.626
ꯦꯕꯜ	-10.6264
▁ꯅꯝꯊꯈꯤ꯫	-10.6268
▁ꯍꯤꯡꯂꯤ꯫	-10.6268
▁ꯉꯥꯡꯂꯤꯕ	-10.627
▁ꯖꯨꯗ	-10.6284
▁ꯗꯥꯏꯠ	-10.6285
▁ꯄꯨꯔꯛꯈꯤ	-10.6285
▁ꯊꯣꯛꯍꯟꯈꯤ	-10.6291
▁ꯇꯧꯕꯤꯕ	-10.6293
▁ꯖꯅꯨꯋꯥꯔꯤꯗ	-10.6307
ꯅꯤꯡꯉꯤ꯫	-10.631
꯱ꯗ	-10.6311
▁ꯀꯣꯔꯄꯣꯔꯦꯁꯟ	-10.6312
▁ꯈꯟꯒꯠꯂꯕ	-10.6312
▁ꯏꯃ꯭ꯌꯨꯅꯤꯇꯤ	-10.6312
▁ꯀꯟꯁꯔꯠ	-10.6314
▁ꯏꯟꯖꯤꯅꯤꯌꯔꯤꯡ	-10.6316
▁ꯁꯕꯋꯦ	-10.6318
▁ꯒꯥꯔꯗ	-10.6318
꯹꯰	-10.6319
▁ꯊꯦꯡꯅꯔꯛꯄ	-10.6325
▁꯲꯷	-10.6325
▁ꯊꯝꯒꯗꯕꯅꯤ꯫	-10.6333
▁ꯃꯥꯡꯖꯤꯜ	-10.6335
▁ꯊꯨꯡ	-10.6342
ꯁꯤꯡꯊꯣꯏ	-10.6344
▁ꯂꯩꯍꯧ	-10.6347
ꯒ꯭ꯂꯤ	-10.6353
▁ꯄꯦꯟꯠ	-10.6354
ꯕ꯭ꯌꯨ	-10.6356
ꯋꯨꯗ	-10.6362
▁ꯕ꯭ꯌꯨ	-10.6362
▁ꯄꯥꯏꯞ	-10.6368
▁ꯂꯣꯏꯁꯤꯟꯈꯤꯕ	-10.637
▁ꯉꯝꯈꯤꯕ	-10.638
▁ꯇꯥꯇꯣꯏꯕꯥ	-10.6383
ꯁꯣꯔꯁ	-10.6384
▁ꯏꯁꯥ	-10.6386
▁ꯃꯤꯡꯊꯣꯟꯈꯤ꯫	-10.6387
▁ꯌꯣꯛꯈꯤ	-10.639
▁ꯅꯨꯡꯁꯤꯈꯤ	-10.64
▁ꯁꯦꯂꯦ	-10.6402
▁ꯃꯤꯇ꯭ꯔꯪ	-10.6411
▁ꯑꯂꯥꯁꯀꯥ	-10.6411
▁ꯑꯦꯠꯃꯣꯁꯐꯤꯌꯔ	-10.6411
▁ꯀꯦꯂꯦꯟꯗꯔ	-10.6411
▁ꯏꯪꯉꯤ꯫	-10.6412
▁ꯃꯦꯗꯜ	-10.6415
▁ꯂꯥꯛꯇ꯭ꯔꯤ꯫	-10.6415
▁ꯕ꯭ꯔꯥꯖꯤꯜꯒꯤ	-10.6416
▁ꯇꯣꯔ	-10.6417
▁ꯍꯥꯏꯔꯕꯁꯨ	-10.6423
▁꯹꯰	-10.6426
▁꯵ꯗ	-10.6426
▁ꯇꯨꯃꯤꯟꯅꯕ	-10.6429
▁ꯆꯤꯛ	-10.6433
▁ꯁꯦꯃꯤ	-10.6436
ꯁꯪ	-10.6438
▁ꯊꯤꯒꯗꯕꯅꯤ꯫	-10.6443
▁ꯕꯤꯂꯤ	-10.6459
꯹꯹	-10.6473
▁ꯑꯥꯏꯔꯂꯦꯟ	-10.6474
▁ꯗꯥꯔ	-10.6476
▁ꯇꯣꯈꯥꯏ	-10.6477
ꯤꯇꯤ	-10.6477
ꯀ꯭ꯂ	-10.6481
ꯆꯥꯎꯊꯣꯛꯍꯟꯕ	-10.6499
▁ꯂꯧꯈꯤꯗꯦ꯫	-10.6504
▁ꯊꯣꯟꯈꯤ	-10.651
▁ꯇꯣꯔꯅꯥꯃꯦꯟꯠ	-10.6511
▁ꯇꯨꯡꯏꯟꯕ	-10.6511
▁ꯏꯂꯦꯛꯇ꯭ꯔꯣꯅꯤꯛ	-10.6512
▁ꯇ꯭ꯔ	-10.6514
▁ꯅꯁꯥꯃꯛ	-10.6514
▁ꯂꯨꯆꯤꯡ	-10.6516
▁ꯀꯣꯛꯍꯟꯕ	-10.6523
▁꯱꯹꯹꯹	-10.6525
▁ꯈꯟꯂꯝꯃꯤ꯫	-10.6526
ꯅꯤꯗ꯭ꯔꯥ	-10.6526
꯰꯵	-10.6529
▁ꯂꯩꯒꯅꯨ꯫	-10.653
▁ꯇꯧꯗ꯭ꯔꯤꯉꯩ	-10.6531
▁꯱꯰꯰꯰	-10.6534
▁ꯀ꯭ꯋꯦ	-10.6535
▁ꯊꯧꯒꯠꯈꯤ꯫	-10.6537
▁ꯍꯧꯒꯠꯂꯛꯈꯤ	-10.6541
▁ꯈꯨꯗꯣꯡꯆꯥꯕꯁꯤꯡ	-10.6542
▁ꯏꯁ꯭ꯋꯔꯒꯤ	-10.655
▁ꯕꯥꯏꯑꯣ	-10.6551
▁ꯁꯦꯛꯁꯟ	-10.6551
▁ꯁꯨꯔꯦ꯫	-10.6551
▁ꯏꯟꯗꯁꯇ꯭ꯔꯤꯒꯤ	-10.6553
▁ꯂꯣꯏꯔ	-10.6554
▁꯶ꯇ	-10.6559
▁ꯗ꯭ꯔꯥꯏꯕ	-10.6561
▁ꯂꯧꯊꯣꯛꯈꯤꯕ	-10.6562
▁ꯊꯤꯜ	-10.6574
▁ꯁꯤꯟꯗꯣꯛ	-10.6584
▁ꯔꯣꯁ	-10.6585
▁ꯄꯥꯟꯕ	-10.6585
ꯈꯠꯄ	-10.6588
ꯇꯦꯠ	-10.6594
▁ꯊꯦꯡꯅꯈꯤ	-10.6596
▁ꯐꯤꯁ	-10.6597
▁ꯃꯤꯈꯜꯗ	-10.6604
▁ꯏꯔꯨꯖꯕ	-10.661
▁ꯀꯝꯄꯥꯎꯟꯗ	-10.6612
▁ꯁ꯭ꯇ꯭ꯔꯛꯆꯔ	-10.6612
▁ꯑꯦꯗꯤꯇꯔ	-10.6613
▁ꯌꯥꯅꯗꯕ	-10.6613
▁ꯀꯝꯄꯣꯖꯤꯁꯟ	-10.6613
꯹꯵	-10.6614
▁ꯑꯊꯥꯕ	-10.6614
꯹꯸	-10.6622
▁ꯁꯤꯗꯅꯤ	-10.6622
ꯆꯥꯡꯁꯤꯡ	-10.6625
▁ꯃꯦꯇꯥ	-10.6629
▁ꯔꯤꯖꯟ	-10.663
▁ꯃꯤꯔꯣꯟ	-10.6631
▁ꯔꯨꯝꯗ	-10.6633
▁ꯐꯪꯒꯗ꯭ꯔꯥ	-10.6634
▁ꯂꯣꯏꯔꯛꯄ	-10.6635
▁ꯄꯨꯊꯣꯛꯅꯕ	-10.6639
▁ꯇꯥꯔꯦ꯫	-10.6639
▁ꯆꯥꯔꯤ꯫	-10.6641
▁ꯌꯨꯝꯊꯛ	-10.6647
▁ꯇꯨꯝꯂꯤ꯫	-10.6648
▁ꯅꯨꯡꯉꯥꯏꯍꯟꯅꯕ	-10.6648
▁ꯂꯩꯈꯤꯕꯅꯣ	-10.6649
▁ꯂꯤꯇꯔ	-10.6652
▁꯴ꯗ	-10.6652
▁ꯏꯔꯥꯛ	-10.6657
▁ꯃꯥꯡꯈ꯭ꯔꯕ	-10.6658
▁ꯄꯣꯈꯥꯏ	-10.6658
▁ꯂꯩꯀꯣꯜꯗ	-10.6659
▁ꯀꯤꯡꯗꯝꯗ	-10.6661
▁ꯖꯄꯥꯟꯅ	-10.6661
ꯔꯛꯂꯦ	-10.6662
▁ꯊꯣꯛꯍꯜꯂꯤ	-10.6663
▁ꯐꯨꯜ	-10.6664
▁ꯄꯤꯌꯔ	-10.6672
▁ꯕ꯭ꯔꯤꯖ	-10.6673
▁ꯑꯦꯗꯝ	-10.6676
▁ꯎꯔꯛꯄ	-10.6677
ꯕꯣꯟ	-10.6678
ꯈꯛꯇꯅꯤ	-10.6679
▁ꯗꯣꯟ	-10.668
ꯐꯤꯟ	-10.6681
▁ꯁꯦꯡꯂꯕ	-10.6681
▁ꯂꯩꯃ	-10.6684
▁ꯃꯤꯁꯟ	-10.6685
▁ꯂꯧꯗꯦ꯫	-10.6685
▁ꯐꯥꯎꯔꯤꯕ	-10.6686
▁ꯄꯣꯝ	-10.6692
▁ꯄꯨꯏ꯫	-10.6693
ꯃꯨꯛ	-10.6696
▁ꯀꯣꯏꯂꯥ	-10.6703
▁ꯑꯣꯂꯤꯝꯄꯤꯛꯁ	-10.6704
▁ꯂꯧꯅꯝ	-10.6708
▁ꯁꯣꯐꯠꯋꯦꯔ	-10.6714
▁ꯑꯍꯣꯕ	-10.6714
▁ꯐꯤꯂꯤꯞ	-10.6715
▁ꯖꯦꯖ	-10.6715
ꯋꯦꯠ	-10.6716
▁ꯑꯣꯟꯂꯥꯏꯟ	-10.6716
▁ꯁꯦꯂꯤ	-10.6718
▁ꯂꯥꯛꯇ꯭ꯔꯤꯕ	-10.6718
▁ꯍꯥꯞꯆꯤꯜꯂꯤ	-10.6719
▁ꯂꯧꯕꯤꯌꯨ	-10.672
▁ꯑꯦꯟꯖꯦꯜ	-10.6723
▁ꯋꯥꯠꯄ	-10.6724
▁ꯊꯝꯒꯅꯨ꯫	-10.6724
▁ꯆꯥꯔꯖ	-10.6727
▁ꯐꯤꯆꯔ	-10.6728
▁ꯃꯤꯡꯊꯣꯟ	-10.6734
▁ꯑꯗꯨꯈꯛꯇꯃꯛ	-10.6735
▁ꯇꯧꯔꯝꯒꯅꯤ	-10.6737
ꯂꯥꯏꯠ	-10.6737
▁ꯃꯦꯇꯦꯜ	-10.6738
▁ꯖꯦꯠ	-10.6745
▁ꯇꯨꯝꯃꯤ	-10.6746
ꯒꯣꯜ	-10.6755
▁ꯂꯨꯆꯤꯡꯈꯤ	-10.6765
▁ꯑꯣꯏꯔꯝꯒꯅꯤ	-10.6768
▁ꯂꯩꯒꯗ꯭ꯔꯥ	-10.6771
▁ꯒꯣꯜꯗ	-10.6773
▁ꯀ꯭	-10.6774
ꯋꯤꯟ	-10.6776
▁ꯀꯤꯍꯟꯈꯤ	-10.6777
▁꯳꯲	-10.6777
▁ꯂꯤꯛ	-10.6778
▁ꯂꯨꯁꯤ	-10.6779
▁ꯔꯟ	-10.678
▁ꯌꯥꯈꯤꯗꯦ	-10.6783
▁ꯆꯪꯈꯤꯕ	-10.6787
▁꯱꯵꯰	-10.6793
▁ꯄꯨꯂꯤꯁꯀꯤ	-10.6793
▁ꯀꯥꯔꯗꯁꯤꯡ	-10.6796
▁ꯁꯦꯞꯇꯦꯝꯕꯔꯗ	-10.6808
ꯕ꯭ꯔꯣ	-10.6816
▁ꯂꯣꯀꯣꯃꯣꯇꯤꯕ	-10.6817
▁ꯐꯔꯅꯤꯆꯔ	-10.6817
▁ꯑꯦꯔꯄ꯭ꯂꯦꯟ	-10.6817
▁ꯊꯣꯛꯀꯗꯒꯦ	-10.6817
▁ꯌꯦꯡꯉꯤ꯫	-10.6818
▁ꯐꯥꯏꯕꯣꯛ	-10.6818
▁ꯄ꯭ꯂꯥꯁꯇꯤꯛ	-10.6818
ꯐꯤꯖꯤꯀꯦꯜ	-10.6819
▁꯱꯹꯸꯷	-10.682
▁ꯄꯥꯀꯤꯁꯇꯥꯟ	-10.6822
ꯒꯤꯗꯃꯛꯇꯁꯨ	-10.6822
▁ꯀ꯭ꯂꯥꯁꯤꯛ	-10.6822
▁ꯊꯣꯛꯂꯕꯁꯨ	-10.6824
▁ꯁꯥꯡꯂꯕ	-10.6824
▁ꯄꯣꯂꯤꯁ	-10.6827
▁ꯊꯥꯗꯣꯛꯂꯣꯏ꯫	-10.6827
▁ꯌꯥꯍꯜꯂꯤ	-10.6831
▁ꯂꯝꯂꯛ	-10.6833
ꯗꯣꯟ	-10.6843
▁ꯕꯦꯟꯆ	-10.6845
▁ꯃꯃꯥꯒ	-10.6845
▁ꯍꯞꯇ	-10.6856
ꯂꯦꯟꯁ	-10.6862
▁ꯉꯥꯡꯂꯤ	-10.6866
ꯃꯇꯥ	-10.6871
▁ꯁ꯭ꯇ꯭ꯔꯦꯠ	-10.6872
ꯊꯧꯔꯥꯡ	-10.6872
▁ꯌꯧꯔꯛꯀꯅꯤ	-10.6874
▁ꯐꯪꯈꯤꯕꯒꯦ	-10.688
▁ꯉꯥꯡꯉꯤ	-10.6881
▁ꯆꯪꯗꯕ	-10.6896
▁ꯋꯨꯗ	-10.6896
▁ꯌ	-10.6898
▁ꯂꯧꯔꯕ	-10.69
▁ꯂꯩꯔꯝꯒꯅꯤ꯫	-10.6909
ꯄ꯭ꯂꯣ	-10.6912
▁ꯁꯥꯔꯕ	-10.6913
▁ꯁ꯭ꯀꯣꯠꯂꯦꯟꯗ	-10.6916
▁ꯑꯦꯅꯥ	-10.6917
▁ꯕꯥꯊꯔꯨꯝ	-10.6922
▁ꯑꯦꯡꯒꯜ	-10.6922
▁ꯐꯝꯕꯥꯜ	-10.6922
▁ꯋꯥꯏꯜꯗ	-10.6926
▁ꯑꯦꯔꯀ꯭ꯔꯥꯐꯠ	-10.6929
ꯀꯥꯡꯁꯤꯡ	-10.6931
▁ꯊꯤꯌꯦꯇꯔꯗ	-10.6932
ꯗꯣꯝ	-10.6936
ꯕꯦꯔꯤ	-10.6939
▁ꯆꯠꯂꯒꯅꯤ꯫	-10.694
▁ꯁꯥꯅꯔꯤ꯫	-10.6941
ꯂꯛꯀꯅꯤ	-10.6946
▁ꯀꯨꯞꯁꯤꯟꯕ	-10.6955
▁ꯌꯥꯅꯗꯦ	-10.6964
ꯦꯔꯤꯌꯥ	-10.698
▁ꯖꯤꯝꯅ	-10.6983
꯴꯰	-10.6993
▁ꯋꯥꯡꯏ	-10.7002
▁ꯂꯧꯁꯤꯟꯈꯤꯕ	-10.7009
ꯈꯩ	-10.7016
▁ꯕꯣꯔꯣ	-10.7022
▁꯲꯵ꯗ	-10.7024
▁ꯏꯖꯤꯞꯠ	-10.7027
▁ꯑꯂꯥꯕꯥꯃꯥ	-10.7027
▁ꯁꯤꯒꯅꯦꯜ	-10.7027
▁ꯂꯩꯆꯤꯜ	-10.7028
▁ꯅꯤꯡꯊꯧꯃꯆꯥ	-10.7028
▁ꯇꯧꯃꯤꯟꯅꯔꯤꯕ	-10.7028
▁ꯇꯨꯡꯏꯟꯅ	-10.703
▁ꯍꯦꯟꯗꯣꯛꯄ	-10.703
▁ꯅꯦꯝꯃꯤ꯫	-10.703
▁ꯄꯨꯔꯛꯈꯤꯕ	-10.7043
ꯀ꯭ꯂꯦ	-10.7047
▁ꯒ꯭ꯋꯥ	-10.7048
▁ꯇꯧꯕꯒꯨꯝ	-10.705
▁ꯇꯧꯈꯤꯕꯅꯤ	-10.705
▁ꯂꯣꯏꯁꯤꯜꯂꯤ꯫	-10.7051
▁ꯅꯥꯔꯛꯄ	-10.7057
▁ꯆꯔꯆꯀꯤ	-10.706
▁ꯊꯃꯣꯏꯗ	-10.7068
▁ꯂꯣꯏꯁꯤꯟꯕꯗ	-10.7068
▁ꯆꯪꯍꯟ	-10.7071
▁ꯈꯪꯂ	-10.7076
ꯗꯤꯟ	-10.7089
▁ꯂꯣꯏꯁꯤꯟꯒꯅꯤ	-10.7093
▁ꯌꯦꯡꯁꯤ	-10.7097
▁ꯄꯥꯝꯂꯤꯕꯒꯦ	-10.7099
▁ꯃ꯭ꯌꯨ	-10.7105
ꯁꯣꯔ	-10.7107
▁ꯂꯥꯟꯊꯦꯡꯅꯈꯤ꯫	-10.7109
ꯆꯥꯛ	-10.7116
▁ꯕꯣꯗꯤ	-10.7119
▁ꯇꯧꯔꯦ	-10.7126
▁ꯀ꯭ꯔꯥꯏ	-10.713
ꯥꯍ	-10.7131
▁ꯀꯝꯄ꯭ꯂꯦꯛꯁ	-10.7133
▁ꯄꯔꯐꯣꯃꯦꯟꯁ	-10.7133
▁ꯀꯦꯃꯤꯁꯇ꯭ꯔꯤ	-10.7133
▁ꯕꯔꯖꯤꯅꯤꯌꯥ	-10.7133
▁ꯍꯨꯃꯥꯡ	-10.7133
▁ꯑꯣꯕꯖꯦꯛ	-10.7133
▁ꯄꯥꯟꯖꯜ	-10.7134
▁ꯀ꯭ꯂꯥꯎꯗ	-10.7134
▁ꯃꯇꯨ	-10.7136
▁ꯒꯨꯗ	-10.7136
▁ꯊꯥꯡꯒꯠꯈꯤ	-10.7136
▁ꯃꯣꯁꯀꯣ	-10.7137
▁ꯂꯤꯑꯣ	-10.7137
ꯀꯣꯜ	-10.7137
▁ꯚꯥꯏꯁ	-10.7139
ꯥꯇꯨ	-10.7139
ꯨꯝ	-10.7141
▁ꯀꯥꯡꯂꯨꯞꯀꯤ	-10.7143
▁ꯆꯨꯅꯗꯦ꯫	-10.7147
▁ꯁꯤꯟꯅꯕ	-10.7151
▁ꯇꯨꯝꯐꯝ	-10.7152
▁ꯂꯥꯛꯇꯨꯅ	-10.7154
ꯊꯧ	-10.7155
ꯏꯇꯤꯛꯇ	-10.7156
▁ꯁꯦꯝꯒꯠꯅꯕ	-10.7158
ꯃꯗꯨ	-10.7158
▁ꯊꯦꯠ	-10.7164
▁ꯏꯍꯧ	-10.7165
▁ꯐꯪꯉꯤ꯫	-10.7166
▁ꯀꯩꯁꯨꯝꯁꯪ	-10.7167
▁ꯍꯨꯝ	-10.7174
ꯈꯠꯂꯛꯂꯤꯕ	-10.7175
▁ꯐꯪꯂꯕꯗꯤ	-10.7182
▁ꯆꯠꯊꯅꯕ	-10.7183
▁ꯁꯦꯟꯁꯁ	-10.7183
▁ꯅꯤꯡꯁꯤꯡꯗꯦ꯫	-10.7186
▁ꯇ꯭ꯋꯤ	-10.719
▁ꯈꯪꯂꯝꯃꯤ	-10.7194
▁ꯇꯧꯍꯟ	-10.7194
▁ꯑꯈꯟꯅ	-10.7196
▁ꯈꯪꯂꯝꯕ	-10.7197
▁ꯑꯣꯏꯔꯛꯀꯅꯤ	-10.7198
▁ꯔꯦꯠ	-10.7199
▁ꯀꯦꯝꯄ	-10.7203
▁ꯆꯌꯦꯠꯅꯕ	-10.7204
▁ꯆꯥꯛꯁꯪ	-10.7206
▁ꯏꯂꯦꯛꯇ꯭ꯔꯤ	-10.7208
▁ꯏꯪꯈꯣꯜꯗ	-10.7211
▁꯳꯵	-10.7215
▁ꯆꯤꯡꯅꯩ	-10.7234
▁ꯏꯂꯤꯅꯣꯏꯒꯤ	-10.7237
▁ꯄꯥꯁꯗꯦꯀꯦꯂ	-10.7239
ꯥꯎꯠ	-10.724
▁ꯑꯃꯦꯔꯤꯀꯟ	-10.7241
▁ꯗꯤꯇꯦꯛꯇꯤꯕ	-10.7241
▁ꯃꯦꯅꯦꯖꯃꯦꯟꯠ	-10.7241
▁ꯏꯚꯣꯂꯨꯁꯟ	-10.7241
▁ꯁꯤꯀꯥꯒꯣ	-10.7241
▁ꯁꯨꯔꯨꯡ	-10.7241
▁ꯑꯔꯦꯝꯕ	-10.7241
▁ꯅꯣꯡꯆꯨꯞꯂꯣꯝ	-10.7241
▁ꯄꯥꯔꯠꯅꯔ	-10.7242
▁ꯄꯥꯔꯀꯤꯡ	-10.7243
ꯂꯛꯈꯤ	-10.7244
ꯂꯝꯒꯗꯕꯅꯤ	-10.7244
▁ꯃꯤꯆꯪ	-10.7246
▁ꯈꯨꯅꯤꯡ	-10.725
▁ꯉꯥꯛꯄꯤꯌꯨ꯫	-10.725
▁ꯇ꯭ꯔꯦꯟꯁꯤꯡ	-10.7254
ꯕꯦꯠ	-10.7255
ꯔꯦꯟꯠ	-10.7262
▁ꯐꯥꯎꯅꯅꯕ	-10.7264
▁ꯈꯪꯍꯟ	-10.7264
▁ꯅꯥꯏꯗꯕ	-10.7274
▁ꯈꯪꯅꯤꯡ	-10.7283
▁ꯆꯠꯂꯤꯕ꯭ꯔꯥ	-10.7284
▁ꯁꯦꯐ	-10.729
▁꯸ꯗ	-10.7298
ꯃꯌꯥꯏ	-10.73
ꯋꯥꯔꯗ	-10.73
▁ꯃꯤꯠꯇ	-10.7301
▁ꯐꯨꯅꯕ	-10.7302
▁ꯄꯥꯡꯈꯤꯕ	-10.7305
ꯍꯦꯗ	-10.7305
▁ꯆꯃꯝꯅꯕ	-10.7307
▁ꯎꯈꯤꯗ꯭ꯔꯦ	-10.7308
▁ꯍꯪꯒꯅꯤ	-10.7308
ꯇꯥꯛꯍꯟꯈꯤ	-10.7309
▁꯱꯹꯹꯷	-10.7316
▁ꯊꯥꯖꯍꯟꯕ	-10.7322
▁ꯀꯥꯎꯊꯣꯛꯄ	-10.7323
▁ꯄꯤꯖ	-10.7327
▁ꯑꯁꯦꯡꯕꯗꯤ	-10.7328
▁ꯇꯧꯅꯕꯒꯤꯗꯃꯛ	-10.7335
▁ꯆꯜꯂꯤ	-10.7337
▁ꯂꯥꯏꯐꯝ	-10.7337
꯴꯴	-10.7339
▁ꯂꯟꯆ	-10.734
▁ꯄꯥꯏꯈꯤ	-10.7341
ꯀꯨꯞ	-10.7341
▁ꯖꯤꯔꯣ	-10.7345
▁ꯀꯂꯝ	-10.7347
▁ꯑꯦꯁꯇ꯭ꯔꯣꯅꯣꯃꯤ	-10.7349
▁ꯑꯦꯇꯣꯃꯤꯛ	-10.735
▁ꯂꯣꯏꯁꯤꯜꯂꯛꯄ	-10.735
꯷꯵	-10.7351
▁ꯁꯔꯀꯤꯠ	-10.7352
▁ꯈꯜꯂꯝꯃꯤ꯫	-10.7353
▁ꯆꯤꯡꯃꯥꯏ	-10.7354
▁ꯀꯦꯕꯤꯟ	-10.7356
ꯊꯪ	-10.736
ꯍꯔ	-10.7362
▁ꯂꯤꯒꯀꯤ	-10.7362
▁ꯌꯧꯔꯛ	-10.7366
▁ꯂꯤꯕꯔ	-10.7368
▁ꯄꯥꯝꯂꯤ꯫	-10.7373
▁ꯍꯦꯟꯒꯠꯍꯟꯈꯤ	-10.7374
▁ꯍꯩꯒꯅꯤ꯫	-10.7379
▁ꯕꯦꯡꯛꯇ	-10.7379
꯱꯶	-10.7381
▁ꯄꯤꯔꯣꯏ꯫	-10.7384
▁ꯍꯟ	-10.7391
ꯀꯥꯡ	-10.7395
▁ꯍꯣꯞ	-10.7403
▁ꯑꯦꯄ꯭ꯔꯤꯜꯗ	-10.7403
▁ꯕꯦꯂꯦ	-10.7403
▁ꯚꯥꯔꯠꯇ	-10.7409
▁ꯁꯤꯔꯤꯖꯀꯤ	-10.7409
▁ꯒ꯭ꯂꯥꯁꯁꯤꯡ	-10.7414
▁ꯆꯠꯈ꯭ꯔꯕ	-10.7416
▁ꯌꯣꯛ	-10.743
ꯊꯣꯛꯇ꯭ꯔꯤꯉꯩ	-10.7433
▁ꯀꯦꯕ	-10.7434
▁ꯇ꯭ꯔꯨ	-10.7439
▁꯱꯹꯹꯵ꯗ	-10.7441
▁ꯁꯣꯂꯣ	-10.7443
▁ꯐꯥꯎꯗꯦ꯫	-10.745
▁ꯊꯤꯡꯖꯤꯟꯕ	-10.7456
▁ꯁꯦꯛꯁꯄꯤꯌꯔ	-10.7459
▁ꯂꯦꯕꯣꯔꯦꯇꯔꯤ	-10.7459
▁ꯑꯁꯇ꯭ꯔꯦꯂꯤꯌꯥ	-10.7459
▁ꯄ꯭ꯔꯤꯃꯤꯌꯔ	-10.7459
▁ꯇꯣꯏꯂꯦꯠ	-10.7459
▁ꯑꯞꯗꯦꯠ	-10.7459
▁ꯂꯩꯇ꯭ꯔꯤꯕꯅꯣ	-10.7459
▁ꯃꯥꯔꯤ	-10.746
ꯖꯨꯝ	-10.7463
▁ꯂꯩꯔꯤꯉꯩ	-10.7466
▁ꯂꯣꯏꯁꯤꯟꯒꯗꯕꯅꯤ꯫	-10.7474
▁ꯄꯣꯊꯥꯔꯕ	-10.7475
▁ꯐꯣꯔꯦꯟ	-10.7478
▁ꯔꯤꯑꯦꯛꯁꯟ	-10.7478
▁ꯈꯨꯗꯤꯡ	-10.748
▁ꯆꯠꯈ꯭ꯔꯕ꯭ꯔꯥ	-10.748
▁ꯉꯥꯡꯂꯤꯕꯅꯣ	-10.7482
▁ꯒꯥꯔꯗꯦꯟ	-10.7483
▁ꯃꯦꯇ꯭ꯔꯣ	-10.7483
▁ꯆꯪꯖ	-10.7485
▁ꯑꯥꯔꯊꯔ	-10.7486
▁ꯅꯣꯡꯄꯣꯛꯇ	-10.7496
ꯋꯤꯛ	-10.7498
▁ꯄꯤꯔꯦ꯫	-10.75
▁ꯍꯪꯈꯤꯕ	-10.7504
▁ꯐ꯭ꯔꯦꯟ	-10.7506
꯲꯸	-10.7507
▁ꯁꯥꯡꯏ꯫	-10.751
▁ꯍꯧꯗꯣꯛꯈꯤ꯫	-10.7513
▁ꯑꯦꯛꯁꯟ	-10.7519
▁ꯈꯥꯏꯗꯣꯛꯈꯤ꯫	-10.752
▁ꯁꯣꯠ	-10.7524
ꯃꯇꯧ	-10.7524
▁ꯂꯩꯔꯝꯒꯅꯤ	-10.7525
▁ꯂꯤꯒꯇ	-10.7526
▁ꯁꯣꯡ	-10.7535
ꯂꯛꯏ	-10.7538
ꯁꯀꯥ	-10.754
▁ꯐꯛꯂꯥꯡꯁꯤꯡ	-10.7543
▁ꯂꯤꯟꯗꯥꯗ	-10.7551
▁ꯇꯟ	-10.7558
▁ꯍꯣꯜꯗ	-10.7561
▁ꯎꯈꯤꯗꯦ	-10.7562
▁ꯃꯤꯍꯥꯠ	-10.7568
▁ꯁ꯭ꯀ꯭ꯔꯨ	-10.7571
▁ꯗꯦꯃꯣꯀ꯭ꯔꯦꯇꯤꯛ	-10.7571
▁ꯀꯥꯎꯟꯇꯔ	-10.7571
▁ꯑꯍꯜꯂꯤ꯫	-10.7571
▁ꯃꯦꯗꯤꯀꯦꯜ	-10.7571
▁꯱꯹꯷꯱	-10.7572
▁ꯍꯦꯟꯒꯠꯂꯛꯈꯤ	-10.7574
▁ꯍꯥꯏꯖꯔꯤ꯫	-10.7574
▁ꯈꯣꯡꯈꯤ	-10.7575
ꯁꯤꯡꯎꯒꯤ	-10.7579
▁ꯃꯤꯍꯥꯠꯄꯒꯤ	-10.7585
▁ꯁꯦꯝꯖꯤꯟꯈꯤ꯫	-10.7591
▁ꯊꯦꯡꯅꯈꯤꯕ	-10.7593
▁ꯇ꯭ꯌꯨ	-10.7593
▁ꯖꯨꯂꯥꯏꯗ	-10.7598
ꯤꯔꯛꯄ	-10.7598
▁꯶꯵	-10.76
ꯒ꯭ꯔꯥꯐꯤ	-10.7604
▁ꯎꯠꯂꯒꯅꯤ	-10.7604
▁ꯂꯥꯏꯟꯁꯤꯡ	-10.7604
▁ꯀꯣꯔꯤ	-10.761
▁ꯄꯨꯟꯁꯤꯜꯂꯤ꯫	-10.7622
ꯄꯤꯌꯥ	-10.7622
▁ꯆꯤꯡꯁꯤꯜꯂꯤ	-10.7625
ꯒꯨꯝꯕꯅꯤ꯫	-10.7625
▁ꯃꯈꯣꯏꯒꯤꯗꯃꯛꯇ	-10.7629
▁ꯊꯣꯟꯈꯤꯕꯅꯤ꯫	-10.7632
▁ꯁꯥꯅꯔꯤꯕ	-10.7633
ꯑꯥꯎꯠ	-10.7635
▁ꯆꯥꯈꯤꯕ	-10.7638
▁ꯂꯝꯀꯣꯏꯕꯁꯤꯡ	-10.7643
▁ꯅꯤꯌꯣꯝꯁꯤꯡ	-10.7648
▁ꯑꯔꯨꯝ	-10.765
ꯨꯞ	-10.7652
ꯍꯣꯜ	-10.7667
ꯅꯍꯥꯛꯀꯤ	-10.7672
ꯁ꯭ꯇ꯭	-10.7673
ꯁ꯭ꯇꯣꯟ	-10.7673
▁ꯃꯤꯊꯨꯡꯂꯣꯏꯁꯤꯡ	-10.7673
▁ꯍꯣꯡꯈꯤ	-10.7676
▁ꯉꯝꯂꯦ	-10.7677
▁ꯅꯤꯜ	-10.7681
▁ꯄꯦꯅꯤꯟꯁꯨꯂꯥ	-10.7683
▁ꯑꯣꯛꯁꯐꯣꯔꯗ	-10.7683
▁ꯃꯤꯅꯔꯦꯜ	-10.7683
▁ꯃꯁꯜ	-10.7683
▁ꯑꯦꯗꯤꯠ	-10.7685
▁꯱꯹꯸꯱	-10.7685
▁ꯍꯛꯁꯦꯜꯒꯤꯗꯃꯛ	-10.7685
▁ꯂꯤꯇꯜ	-10.7692
▁ꯍꯦꯟꯒꯠꯂꯦ꯫	-10.7695
▁ꯁꯦꯝꯗꯣꯛꯄ	-10.7699
ꯄꯨꯔ	-10.77
▁ꯂꯩꯕꯥꯛꯁꯤꯡꯒꯤ	-10.7704
ꯁꯤꯟꯕꯤꯌꯨ꯫	-10.7704
ꯔꯛꯇ꯭ꯔꯤꯕ	-10.7708
▁ꯐꯨꯝ	-10.7708
▁꯲꯱ꯗ	-10.7708
▁ꯃꯈꯨꯔꯥꯅ	-10.771
▁ꯊꯝꯂꯤ	-10.7712
▁ꯆꯤꯟꯕ	-10.7718
▁꯱꯹꯹꯷ꯇ	-10.7719
▁ꯀꯣꯀꯣ	-10.772
▁꯲꯶	-10.7721
▁ꯐꯦꯕ꯭ꯔꯨꯋꯥꯔꯤꯗ	-10.7722
▁ꯔꯥꯎꯟꯗ	-10.7725
▁ꯀꯣꯂꯦꯖꯇ	-10.7727
▁ꯀꯥꯏꯊ	-10.773
▁ꯁꯥꯔꯤ꯫	-10.7749
▁ꯐ꯭ꯂꯥꯏ	-10.7753
꯱꯹	-10.7755
▁ꯏꯃꯥ	-10.7763
▁ꯇꯧꯈ꯭ꯔꯦ	-10.7766
▁ꯄꯤꯈꯤꯕꯒꯦ	-10.7768
▁ꯅꯣꯠꯁꯤꯡ	-10.7769
▁ꯂꯥꯟꯊꯦꯡꯅꯈꯤ	-10.7772
▁ꯑꯗꯨꯃꯛꯅꯤ꯫	-10.7776
▁ꯂꯦꯞꯂꯤꯕ	-10.7789
▁ꯐꯥꯎꯟꯗꯦꯁꯟ	-10.7796
▁ꯑꯋꯥꯠꯄ	-10.7796
▁ꯕꯤꯖꯤꯅꯦꯁ	-10.7796
▁ꯇ꯭ꯔꯣꯐꯤ	-10.7797
▁ꯇꯥꯡꯉꯤ꯫	-10.7797
▁ꯃꯇꯨꯡꯏꯟꯅ	-10.7797
▁ꯄꯟꯖꯥꯕ	-10.7798
ꯁꯦꯟꯠ	-10.7798
▁ꯖꯔꯁꯤ	-10.7799
▁ꯂꯤꯡꯈꯠꯄ	-10.7799
▁꯷꯵	-10.78
▁ꯚꯔꯖꯟ	-10.78
▁ꯑꯣꯏꯔꯝꯕꯒꯨꯝ	-10.7801
▁ꯀ꯭ꯋꯥꯔꯇꯔ	-10.7805
▁ꯊꯦꯡꯅꯩ꯫	-10.7806
▁ꯗꯣꯜ	-10.781
▁ꯌꯥꯔꯔꯣꯏ	-10.781
▁ꯇꯧꯗ꯭ꯔꯕꯗꯤ	-10.7813
▁ꯄꯤꯊꯣꯛ	-10.7815
▁ꯉꯝꯈꯩꯁꯤꯡ	-10.7816
▁ꯆꯪꯍꯟꯕ	-10.7818
▁꯷ꯇ	-10.7823
▁ꯋꯤꯠ	-10.7828
▁ꯂꯩꯔꯛꯂꯤ	-10.7828
▁ꯗꯦꯅꯤꯁ	-10.783
▁ꯊꯧꯔꯝꯁꯤꯡꯗ	-10.7833
▁ꯃꯔꯨꯝ	-10.7841
▁ꯀꯝꯄ꯭ꯌꯨꯇꯔꯁꯤꯡ	-10.7847
▁ꯊꯥꯗꯣꯛꯏ꯫	-10.7855
▁ꯆꯤꯡꯁꯤꯟꯅꯕ	-10.7869
▁ꯅꯦꯠ	-10.787
▁ꯑꯣꯏꯜ	-10.7875
ꯆꯥꯡ	-10.7876
▁ꯈꯨꯝꯖꯤꯟ	-10.7878
▁ꯆꯦꯟꯈꯤ	-10.788
▁ꯍꯥꯟ	-10.7883
▁ꯄꯦꯖꯁꯤꯡ	-10.7893
▁ꯄꯥꯔꯠ	-10.7899
▁꯱꯹꯹꯹ꯗ	-10.7899
ꯕꯥꯔ	-10.79
ꯐ꯭ꯔꯤ	-10.7901
ꯋꯦꯟ	-10.7902
ꯒꯤꯗꯃꯛꯇꯗꯤ	-10.7904
▁ꯃꯌꯥꯝꯕ	-10.7911
▁ꯃꯣꯇꯣꯔꯁꯥꯏꯀꯜ	-10.7911
▁ꯇꯣꯔꯣꯟꯇꯣ	-10.7911
▁ꯊ꯭ꯔꯤ	-10.7911
▁ꯊꯕꯥꯛ	-10.7912
▁ꯄ꯭ꯔꯄꯣꯖꯦꯜ	-10.7912
▁ꯑꯦꯂꯤꯃꯦꯟꯠ	-10.7914
▁ꯈꯪꯖꯤꯟꯕ	-10.7915
▁ꯁ꯭ꯀꯥꯏ	-10.7916
꯰꯶	-10.7919
▁ꯇꯨꯝꯈꯤ	-10.7919
▁ꯏꯐꯦꯛ	-10.7919
▁ꯊꯣꯟ	-10.7922
▁ꯅꯨꯃꯤꯠꯀꯤꯗꯃꯛ	-10.7923
▁ꯇꯞꯄ	-10.7923
▁ꯑꯆꯝꯕ	-10.7924
▁ꯀꯤꯡꯗꯝꯒꯤ	-10.7926
▁ꯄ꯭ꯔꯤꯛꯁ	-10.7928
▁ꯑꯦꯇꯣꯝ	-10.7928
▁ꯃꯥꯔꯆꯇ	-10.7934
▁ꯍꯥꯏꯔꯣꯏꯗꯕꯅꯤ꯫	-10.7936
▁ꯇꯧꯃꯤꯟꯅ	-10.7942
▁ꯇꯧꯍꯟꯈꯤ꯫	-10.796
▁ꯌꯧꯈꯤ	-10.797
▁ꯈꯪꯂꯛꯈꯤ	-10.7978
▁ꯄꯥꯕꯤꯌꯨ꯫	-10.798
▁ꯂꯩꯈꯤꯗ꯭ꯔꯦ	-10.7984
▁ꯑꯃꯈꯛꯇꯅ	-10.7985
▁ꯀꯦꯅꯗꯤꯌꯟ	-10.7988
▁ꯂꯧꯗꯅ	-10.7989
▁ꯅꯤꯡꯇꯝ	-10.799
꯭ꯋ	-10.7993
▁ꯁꯥꯗ꯭ꯔꯤ꯫	-10.7998
▁ꯈꯨꯗꯣꯜꯁꯤꯡ	-10.8005
▁ꯂꯥꯏꯅꯤꯡꯕ	-10.8006
ꯗ꯭ꯔꯕ꯭ꯔꯥ	-10.801
▁ꯒ꯭ꯂꯣ	-10.8016
▁ꯑꯣꯐꯤꯁꯀꯤ	-10.8018
▁ꯋꯤꯟꯗ	-10.8028
▁ꯏꯟꯁꯇꯤꯇ꯭ꯌꯨꯁꯟ	-10.8028
▁ꯚꯣꯂꯨꯟꯇꯤꯌꯔ	-10.8028
▁ꯁꯣꯐꯠꯋꯦꯌꯔ	-10.8028
▁ꯌꯨꯝꯂꯣꯟꯅꯔꯤꯕ	-10.8028
▁ꯑꯂꯦꯛꯖꯦꯟꯗꯔ	-10.8028
▁ꯗꯤꯛꯁꯅꯔꯤ	-10.8028
▁ꯑꯦꯂꯔꯖꯤ	-10.8028
▁ꯔꯤꯁꯔꯆ	-10.8028
▁ꯑꯦꯖꯦꯟꯠ	-10.8029
▁ꯍꯟꯊꯔꯛꯂꯤ꯫	-10.8034
▁ꯀ꯭ꯂꯥꯔꯛ	-10.8034
▁ꯏꯟꯗꯤꯌꯟ	-10.8035
▁ꯑꯦꯗ꯭ꯔꯦꯁ	-10.8036
▁ꯏꯁꯇꯔꯟ	-10.8037
▁ꯉꯝꯈꯤꯗꯕ	-10.804
▁ꯅꯣꯕꯦꯜꯁꯤꯡ	-10.8043
▁ꯌꯥꯔꯕꯗꯤ	-10.8044
▁ꯇꯧꯐꯝ	-10.8046
▁ꯃꯔꯨꯑꯣꯏꯗꯦ꯫	-10.8049
▁ꯁꯤꯈ꯭ꯔꯕ	-10.8049
▁ꯌꯥꯕ꯭ꯔꯥ	-10.8056
▁ꯋꯤꯟꯗꯣꯁ	-10.8059
▁ꯄꯣꯊꯥꯅꯕ	-10.8064
ꯐꯣꯔꯃꯦꯜ	-10.8068
▁꯲꯴ꯗ	-10.8068
▁ꯀ꯭ꯂꯥꯁꯁꯤꯡ	-10.807
▁꯱꯳ꯗ	-10.8079
▁ꯃꯔꯥ	-10.8082
▁ꯊꯣꯛꯂꯛꯏ	-10.8082
ꯂꯛꯀꯅꯤ꯫	-10.8091
▁ꯅꯣꯡꯃ	-10.8093
▁ꯐꯠꯇ	-10.8098
▁ꯅꯣꯡꯃꯗ	-10.8098
▁꯱꯹꯹꯶	-10.8105
▁ꯆꯠꯂꯒꯅꯤ	-10.8107
▁ꯐꯥꯎꯈꯤꯗꯦ꯫	-10.8109
▁ꯂꯣꯏꯔꯦ	-10.8113
▁ꯈꯟꯗꯨꯅ	-10.8113
▁ꯐꯣꯔꯗ	-10.8128
▁ꯆꯥꯛꯂꯦꯟꯒꯤꯗꯃꯛ	-10.8133
▁ꯑꯣꯏꯈꯤꯗꯦ	-10.8136
▁ꯌꯦꯡꯒꯗꯕꯅꯤ	-10.8136
▁ꯖꯣꯁ	-10.8138
ꯋꯦꯔ	-10.8141
▁ꯉꯝꯒꯗ꯭ꯔ	-10.8143
▁ꯁ꯭ꯀꯣꯇꯤꯁ	-10.8145
▁ꯂꯩꯀꯪꯂꯥ	-10.8145
▁ꯑꯥꯏꯁꯀ꯭ꯔꯤꯝ	-10.8145
▁ꯇꯦꯛꯅꯤꯀꯦꯜ	-10.8145
▁ꯖꯥꯏꯟꯠ	-10.8145
▁ꯐꯦꯟꯇꯁꯤ	-10.8145
▁ꯖꯣꯁꯦꯐ	-10.8145
▁ꯚꯥꯏꯂꯤꯟ	-10.8147
▁ꯌꯪ	-10.8147
▁ꯒꯦꯍꯨ	-10.8148
▁꯱꯹꯷꯷	-10.8148
▁ꯅꯝꯃꯤ꯫	-10.8149
▁ꯇ꯭ꯔꯥꯏꯕꯦꯜ	-10.8149
▁ꯃꯥꯔꯁꯦꯜ	-10.8156
▁ꯒ꯭ꯔꯤꯁ	-10.8158
▁ꯈꯔꯈꯛꯇꯅ	-10.8162
▁ꯄꯨꯏ	-10.8168
▁ꯐ꯭ꯔꯤꯖ	-10.8173
▁ꯁꯥꯏꯗ	-10.8176
▁ꯌꯦꯠꯅꯕ	-10.8179
▁ꯑꯃꯣꯠ	-10.8182
▁ꯁꯦꯝꯒꯅꯤ	-10.8183
꯭ꯋꯦ	-10.8193
▁ꯃꯨꯔ	-10.8194
▁ꯄ꯭ꯔꯣꯕ	-10.8196
▁ꯊꯥꯡꯒꯠ	-10.8201
▁ꯐꯪꯍꯟꯕ	-10.8204
▁ꯈꯨꯔꯨꯝꯕ	-10.8207
▁ꯇꯔꯨꯛꯀꯤ	-10.8209
ꯖꯨꯒꯥꯏ	-10.821
▁ꯋꯣ	-10.8213
▁ꯊꯧꯗꯥꯡꯁꯤꯡ	-10.8217
ꯃꯦꯇꯤꯛ	-10.8218
▁ꯂꯤꯡꯈꯠ	-10.8221
▁ꯁ꯭ꯄꯤꯗ	-10.8221
ꯒꯤꯗꯃꯛꯇꯅꯤ꯫	-10.8224
▁ꯆꯝꯅ	-10.8224
▁ꯊꯧꯑꯣꯡꯁꯤꯡ	-10.8224
▁ꯕꯣꯁꯅ	-10.8232
ꯔꯝꯗꯦ꯫	-10.8233
▁꯳꯱	-10.8243
▁ꯆꯤꯟꯖꯥꯛꯀꯤ	-10.8245
ꯐꯣꯔꯝ	-10.8256
▁ꯏꯐꯦꯛꯠ	-10.8257
ꯂꯥꯏꯖ	-10.8259
▁ꯂꯪꯊꯣꯛ	-10.8259
▁ꯍꯪꯒꯗꯕꯅꯤ	-10.8262
ꯇꯔꯟ	-10.8265
▁ꯑꯄꯟꯕ	-10.8265
▁꯱꯹꯴꯵	-10.8267
▁ꯃꯥꯏꯈꯨꯝ	-10.8269
▁ꯐ꯭ꯔꯥꯟꯁꯤꯁꯀꯣ	-10.8271
▁ꯊꯧꯑꯣꯏꯗꯕ	-10.8273
▁ꯆꯤꯛꯄ	-10.8274
▁ꯁꯤꯖꯤꯟꯅꯔꯕ	-10.8274
▁ꯃꯣꯔꯦꯜ	-10.8277
▁ꯕꯔꯟ	-10.8282
▁ꯍꯥꯏꯒꯗꯕ	-10.8286
▁ꯐꯪꯗ꯭ꯔꯤ꯫	-10.8287
▁ꯌꯣꯔꯛꯀꯤ	-10.8291
▁ꯐꯣꯡꯗꯣꯛꯅꯕ	-10.8294
▁꯴꯵	-10.8297
▁ꯑꯃꯨꯛꯈꯛꯇꯃꯛ	-10.8297
▁ꯊꯣꯡꯐꯝꯗ	-10.8298
▁ꯇꯥꯔꯤ꯫	-10.83
▁ꯑꯦꯔꯣ	-10.8303
▁ꯈꯣꯠ	-10.8307
▁ꯌꯦꯡꯂꯨ	-10.8314
▁ꯊꯣꯡꯅꯥꯎꯁꯤꯡ	-10.8319
▁ꯅꯨꯡꯁꯤꯅꯈꯤ꯫	-10.8321
▁ꯗꯥꯝ	-10.8323
▁ꯆꯣꯛꯈꯤ꯫	-10.8323
▁ꯃꯤꯇꯤꯡ	-10.8323
▁ꯀꯦꯝꯞꯇ	-10.8324
ꯁ꯭ꯛ	-10.8325
▁ꯂꯥꯛꯂꯣꯏ꯫	-10.8326
▁ꯉꯥꯛꯄꯤꯒꯗꯕꯅꯤ	-10.8329
▁ꯈꯦꯠꯅꯩ	-10.8334
▁ꯑꯐ꯭ꯔꯤꯀꯥ	-10.8335
▁ꯐꯤꯠ	-10.8338
▁ꯎꯒꯅꯤ	-10.8347
▁ꯁꯤꯒꯅꯤ꯫	-10.8353
▁ꯃꯥꯜꯂꯤ	-10.8354
▁ꯐꯣꯛ	-10.8356
꯹꯱	-10.8364
▁ꯂꯧꯁꯤꯟꯈꯤ	-10.8381
▁ꯁ꯭ꯇ꯭ꯔꯤꯡ	-10.8385
▁ꯀꯝꯃꯤꯁꯟ	-10.8385
▁ꯁꯣꯁꯤꯑꯦꯜ	-10.8385
▁ꯀ꯭ꯂꯥꯁꯃꯦꯠꯁꯤꯡ	-10.8385
▁꯱꯹꯷꯴	-10.8387
▁ꯖꯤꯂꯦꯟꯗ	-10.8393
▁ꯂꯧꯊꯣꯛꯀꯗꯕꯅꯤ	-10.8393
▁꯱꯹꯹꯸	-10.8398
▁ꯁꯥꯟꯅꯔꯝꯃꯤ꯫	-10.8402
▁ꯂꯩꯀꯥꯏ	-10.8404
ꯣꯏꯁ	-10.8407
▁ꯁꯥꯏꯟꯁꯀꯤ	-10.8415
▁ꯇꯨꯀꯠꯆꯩ꯫	-10.8417
▁ꯐꯨꯝꯈꯤ	-10.8417
ꯦꯇꯤꯕ	-10.842
▁ꯇꯦꯟꯕ	-10.843
▁ꯕꯨꯠ	-10.8433
꯰꯸	-10.8434
▁ꯁꯦꯌꯔ	-10.8435
▁ꯑꯥꯡ	-10.8435
▁ꯆꯥꯕꯤꯌꯨ꯫	-10.8439
▁ꯀꯦꯂꯤ	-10.8447
▁ꯂꯨꯍꯣꯡꯂꯦ	-10.8451
▁ꯄꯥꯡꯊꯣꯛꯀꯅꯤ	-10.8455
▁ꯑꯥꯏꯟꯁꯤꯡ	-10.8462
▁ꯇꯧꯔꯕ꯭ꯔꯥ	-10.8468
▁ꯊꯤꯡꯒꯅꯤ	-10.8473
▁ꯁꯥꯎꯕ	-10.8493
▁ꯑꯆꯨꯝꯕꯗꯤ	-10.8494
꯱꯸	-10.8498
▁ꯂꯦꯞꯈꯤꯕ	-10.8498
▁꯱꯹꯹꯴ꯗ	-10.8501
▁ꯋꯦꯟ	-10.8502
▁ꯇ꯭ꯔꯥ	-10.8503
▁ꯏꯟꯗꯤꯌꯥ	-10.8507
▁ꯀꯣꯂꯝꯕꯤꯌꯥ	-10.8507
▁ꯄꯣꯔꯇꯨꯒꯤꯖ	-10.8507
▁ꯏꯂꯤꯚꯦꯇꯔ	-10.8507
▁꯱꯹꯷꯹	-10.8507
▁ꯐ꯭ꯔꯥꯏ	-10.8507
▁ꯔꯒꯕꯤ	-10.8507
▁ꯗꯥꯔꯋꯤꯟ	-10.8507
▁ꯊꯧꯖꯥꯜ	-10.8507
▁ꯗꯦꯟꯇꯤꯁꯠ	-10.8508
▁ꯑꯞꯄꯔ	-10.8509
▁ꯊꯥꯗꯣꯛꯀꯅꯨ꯫	-10.8509
▁꯱꯹꯷꯲	-10.851
▁ꯀꯥꯎꯊꯣꯛꯂꯣꯏ꯫	-10.8512
▁ꯁꯣꯐꯥ	-10.8517
▁ꯂꯣꯋꯔ	-10.852
▁ꯃꯦꯇꯜ	-10.852
▁ꯊꯣꯛꯂꯛꯀꯅꯤ	-10.8521
▁ꯄꯨꯔꯛꯏ꯫	-10.8522
▁ꯍꯤꯡꯁꯥ	-10.8527
▁ꯁꯤꯖꯔ	-10.8529
▁ꯉꯝꯗ꯭ꯔꯕꯗꯤ	-10.8529
▁ꯑꯟꯗꯔ	-10.8534
▁ꯚꯣꯟ	-10.8536
▁ꯏꯟꯗꯤ	-10.8537
▁ꯆꯣꯛꯊꯔꯛ	-10.8538
▁ꯍꯧꯒꯗꯕꯅꯤ꯫	-10.8538
▁ꯁꯔꯐ	-10.8539
▁ꯔꯥꯖ꯭ꯌꯁꯤꯡ	-10.8541
▁ꯗꯖꯟ	-10.8552
▁ꯄꯨꯔꯛꯀꯅꯤ꯫	-10.8557
▁ꯗꯥꯔꯛ	-10.856
▁ꯉꯥꯏꯒꯅꯤ	-10.856
▁ꯆꯨꯞꯈꯤ	-10.856
▁ꯕ꯭ꯂꯥ	-10.8561
▁ꯀꯨꯀꯤꯁꯤꯡ	-10.8586
▁ꯐ꯭ꯂꯣꯔꯤꯗꯥꯗ	-10.8586
ꯃꯤꯈꯥꯏ	-10.8593
꯹꯲	-10.8602
▁ꯆꯪꯂꯛꯈꯤ	-10.8604
▁ꯃꯄꯥꯒ	-10.862
꯸꯶	-10.8622
▁ꯁꯖꯤ	-10.8627
▁ꯄꯩꯁꯥ	-10.863
▁ꯅꯦꯄꯣꯂꯤꯌꯟ	-10.863
▁ꯏꯗꯥꯍꯣ	-10.863
▁ꯕꯣꯏꯐ꯭ꯔꯦꯟꯗ	-10.863
▁ꯄꯪꯛ	-10.863
ꯒꯗꯧꯔꯤ	-10.8631
▁ꯗꯠꯆ	-10.8631
▁ꯆꯥꯎꯈꯠꯂꯛꯂꯤꯕ	-10.8631
ꯂꯤꯉꯩ	-10.8632
▁ꯁꯣꯟꯕ	-10.8632
▁ꯊꯤꯝ	-10.8635
▁ꯂꯣꯏꯁꯪꯗ	-10.8637
▁ꯀꯟꯇꯦꯛ	-10.8637
▁ꯁꯥꯈꯤꯕꯅꯤ	-10.8639
▁ꯃꯔꯨꯞꯁꯤꯡꯅꯤ꯫	-10.8639
▁ꯐ꯭ꯂꯣꯔ	-10.8642
▁ꯋꯤꯟ	-10.8648
꯳꯸	-10.8651
▁ꯂꯥꯞꯊꯣꯛ	-10.8653
▁ꯁꯤꯟꯈꯤ	-10.8655
▁ꯐꯪꯈꯤꯗꯦ	-10.8655
▁ꯗꯦꯁ	-10.8662
▁꯱꯹꯹꯳ꯗ	-10.8662
▁ꯖꯦꯅꯤ	-10.8665
ꯖꯤꯌꯥ	-10.8665
▁ꯊꯥꯒꯅꯤ꯫	-10.8669
▁ꯀꯥꯏꯈ꯭ꯔꯦ꯫	-10.8671
▁ꯆꯥꯟꯕꯤ	-10.8673
▁ꯊꯣꯛꯂꯣꯏ꯫	-10.8674
▁꯱꯹꯹꯶ꯇ	-10.8676
▁꯱꯶ꯇ	-10.8677
▁꯲꯰꯰꯹ꯗ	-10.8679
▁ꯐꯦꯜ	-10.8683
▁ꯍꯥꯏꯐꯝ	-10.8684
▁ꯄꯨꯔꯤꯕ	-10.8684
▁ꯍꯣꯂꯤ	-10.8687
▁ꯁ꯭ꯀꯦꯠ	-10.8687
▁ꯅꯪꯈꯤ	-10.8688
▁ꯁꯣꯞ	-10.8689
ꯤꯕ꯭ꯔꯥ	-10.869
▁ꯋꯥꯀꯠꯈꯤ꯫	-10.8691
▁ꯊꯥꯗꯣꯛꯈ꯭ꯔꯦ꯫	-10.8692
▁ꯅꯦꯚꯤ	-10.8694
▁ꯅꯠ	-10.8695
▁ꯁꯦꯝꯒꯅꯤ꯫	-10.87
꯹ꯗ	-10.87
▁ꯇꯝꯈꯤꯕ	-10.8701
▁ꯇꯣꯀꯤꯑꯣ	-10.8712
▁ꯅꯝꯕꯔꯁꯤꯡ	-10.8715
▁ꯆꯣ	-10.8719
▁ꯇꯤꯜ	-10.872
▁ꯔꯦꯟꯖ	-10.874
ꯂꯒꯅꯤ	-10.8743
▁ꯖꯣꯟꯁꯟ	-10.8754
▁ꯐ꯭ꯔꯦꯡꯛ	-10.8754
▁ꯒꯟ	-10.8755
▁ꯀꯟꯇꯤꯅꯦꯟꯠ	-10.8755
▁ꯅꯦꯗꯔꯂꯦꯟꯁ	-10.8755
▁ꯑꯦꯁꯇ꯭ꯔꯣꯅꯣꯃꯔ	-10.8755
▁ꯗꯤꯖꯤꯇꯦꯜ	-10.8755
▁ꯈꯟꯒꯠꯂꯤ	-10.8755
▁ꯁꯦꯅꯦꯇꯔ	-10.8755
▁ꯈꯨꯟꯗꯥ	-10.8755
▁ꯑꯧꯕ	-10.8755
▁ꯂꯨꯏꯁ	-10.8756
▁ꯔꯤꯖꯔꯕꯦꯁꯟ	-10.8756
▁ꯀ꯭ꯋꯣ	-10.8756
▁ꯈꯟꯂꯤꯕꯒꯦ	-10.8757
ꯄꯨꯟ	-10.8759
▁ꯑꯣꯔꯇꯟ	-10.8764
▁ꯆꯔꯥꯡ	-10.8765
▁ꯑꯦꯃꯤ	-10.8766
▁ꯇꯣꯉꯥꯜꯂꯤ꯫	-10.8768
ꯛꯇ꯭ꯔꯤꯉꯩ	-10.8769
꯹꯶	-10.877
▁ꯁꯦꯝꯄꯜ	-10.8774
▁ꯊꯨꯒꯥꯏꯈꯤꯕ	-10.8777
▁ꯍꯥꯏꯗ꯭ꯔꯤꯕ	-10.8779
▁ꯁ꯭ꯇꯦꯟꯂꯤ	-10.8785
▁ꯅꯥꯔꯤ꯫	-10.8785
ꯃꯄꯥꯡ	-10.8787
▁ꯇ꯭ꯔꯤꯇꯤ	-10.8792
▁ꯀꯔꯦꯝꯅꯕ	-10.8793
ꯅꯨꯡꯁꯤꯠꯀꯤ	-10.8795
▁ꯄꯨꯕꯤꯌꯨ꯫	-10.8796
▁ꯃꯣꯟꯇꯦ	-10.88
ꯅꯤꯁꯠ	-10.8802
▁ꯄꯣꯀꯦꯠ	-10.881
▁ꯁꯥꯅꯩ꯫	-10.8816
▁ꯊꯤꯖꯤꯟꯕꯗ	-10.8817
▁ꯆꯥꯔꯠ	-10.8819
▁ꯈꯥꯃꯦꯟ	-10.8828
▁ꯀ꯭ꯔꯥ	-10.883
꯴꯷	-10.8832
▁ꯊꯦꯡꯅꯅꯕ	-10.8837
▁ꯊꯤꯗꯣꯛꯄ	-10.885
ꯔꯛꯈꯤꯕ꯭ꯔꯥ	-10.8851
▁ꯆꯠꯈꯤꯕ꯭ꯔꯥ	-10.8851
▁ꯆꯥꯅꯗꯕ	-10.8858
ꯍꯜꯂꯤꯕꯅꯣ	-10.886
▁ꯖꯣꯟꯁ	-10.8863
ꯨꯑꯦꯜ	-10.8863
▁ꯅꯥꯎ	-10.8879
▁ꯁ꯭ꯄꯣꯟꯁꯔ	-10.8882
▁ꯒꯨꯟꯗꯝ	-10.8882
▁ꯃꯥꯎꯟꯇꯦꯟ	-10.8882
▁꯱꯹꯷꯸	-10.8885
ꯌꯠ	-10.8885
▁ꯁꯣꯏꯗ꯭ꯔꯥ	-10.8886
▁ꯀꯦꯅꯦꯗꯤ	-10.8888
▁ꯁꯥꯟꯅꯄꯣꯠ	-10.889
ꯈꯣꯏ	-10.889
▁ꯀꯧꯔꯛꯄ	-10.8898
▁ꯁꯦꯟꯇꯥ	-10.8899
▁ꯅꯨꯡꯉꯥꯏꯍꯟꯗꯦ꯫	-10.8905
▁ꯀꯥꯎꯈꯤ	-10.8906
▁ꯂꯥꯛꯂꯤꯕꯅꯣ	-10.8907
▁ꯆꯠꯂꯕꯁꯨ	-10.8907
ꯆꯨꯝ	-10.8908
▁ꯑꯦꯂꯤꯌꯟ	-10.8912
▁ꯍꯦꯂꯦꯟ	-10.8912
▁ꯀꯦꯔꯤ	-10.8913
▁ꯄꯥꯈꯤꯕ	-10.8921
▁ꯍꯟꯗꯣꯛꯈꯤ꯫	-10.8921
▁ꯀꯛꯅꯕ	-10.8932
▁ꯆꯟꯈꯤ	-10.8933
ꯅꯤꯖꯝ	-10.8937
ꯍꯟꯗꯅ	-10.8942
ꯋꯔꯛ	-10.8945
▁ꯁꯤꯔꯤ	-10.896
▁ꯖꯤꯂꯥꯗ	-10.8961
▁ꯑꯣꯏꯔꯤꯕꯅꯣ	-10.8961
▁ꯅꯥꯀꯣꯡꯗ	-10.8972
ꯄ꯭ꯔ	-10.8973
ꯁꯥꯏꯠ	-10.898
▁ꯌꯦꯛꯈꯤ	-10.8981
꯵꯴	-10.8985
▁ꯀꯣꯏꯁꯤꯜꯂꯤ	-10.8992
▁ꯉꯥꯅꯨ	-10.8993
▁ꯄꯥꯏꯗꯨꯅ	-10.8998
▁ꯕꯤꯠ	-10.8999
▁ꯁ꯭ꯇꯥꯐ	-10.9001
▁ꯀ꯭ꯔꯤꯛ	-10.9002
▁ꯍꯔꯀꯨꯂꯤꯁ	-10.901
▁ꯗꯦꯃꯣꯀ꯭ꯔꯦꯁꯤ	-10.901
▁꯱꯹꯵꯵	-10.901
▁ꯀꯟꯚꯦꯟꯁꯟ	-10.901
▁ꯀꯦꯝꯄꯦꯟ	-10.901
▁ꯀꯁꯃꯤꯔ	-10.901
▁ꯗꯥꯏꯅꯣꯁꯣꯔ	-10.901
▁ꯑꯔꯕꯤꯛ	-10.901
▁ꯐ꯭ꯂꯨ	-10.9011
▁ꯄꯥꯟꯖꯟ	-10.9012
▁꯱꯹꯸꯳	-10.9013
▁꯱꯹꯴꯷	-10.9013
ꯇꯨꯝ	-10.9014
▁ꯇꯣꯋꯦꯜ	-10.9015
ꯐꯤꯛꯁ	-10.9015
▁ꯗ꯭ꯔꯣꯌꯔ	-10.9015
▁ꯑꯣꯏꯔꯝꯗꯕ	-10.9017
▁ꯄ꯭ꯔꯃꯣꯁꯟ	-10.9019
▁ꯁ꯭ꯄꯦꯁꯇ	-10.9019
▁ꯋꯥꯜꯇꯔ	-10.902
▁ꯑꯣꯟꯊꯣꯛꯈꯤ	-10.902
▁ꯐꯥꯎꯔꯤꯕꯒꯦ	-10.9021
꯹꯳	-10.9023
ꯔꯛꯇꯦ꯫	-10.9024
ꯂꯁꯤ꯫	-10.9025
▁꯲꯰ꯁꯨꯕ	-10.9028
ꯖꯣꯟ	-10.903
ꯍꯥꯎ	-10.9031
ꯊꯣꯛꯈꯤ	-10.9035
▁ꯅ꯭ꯌꯨꯖ	-10.9035
ꯁꯥꯏꯔ	-10.904
▁ꯇꯦꯛꯁꯠ	-10.9051
ꯀꯩꯁꯥ	-10.9052
▁ꯈꯜꯂꯤꯕꯅꯣ	-10.9054
▁ꯑꯉꯥꯡꯁꯤꯡꯒ	-10.9055
▁ꯖꯤꯑꯣ	-10.9056
▁ꯆꯠꯂꯁꯤ	-10.9057
▁ꯑꯥꯏꯔꯂꯦꯟꯗ	-10.9059
▁ꯖꯖ	-10.9063
꯶꯱	-10.9077
▁ꯅꯣꯡꯁꯥ	-10.9078
▁ꯁꯣꯔꯠ	-10.9082
▁ꯁꯣꯛꯍꯟꯈꯤ꯫	-10.9085
▁ꯍꯥꯞꯆꯤꯟꯈꯤ꯫	-10.9093
ꯀꯥꯡꯂꯣꯟꯁꯤꯡ	-10.9095
▁ꯆꯠꯂꯝꯃꯤ	-10.91
▁ꯄꯥꯔꯤꯕ	-10.9105
▁ꯍꯟꯊꯍꯟꯈꯤ	-10.9109
▁ꯂꯩꯍꯟꯕ	-10.9113
▁ꯆꯥꯗꯦ	-10.9122
▁ꯊꯣꯛꯅ	-10.9123
▁ꯂꯣꯠꯇꯨ	-10.9125
▁ꯑꯏꯕꯁꯤꯡ	-10.9129
꯹꯴	-10.9129
▁ꯂꯩꯔꯝꯒꯗꯕꯅꯤ	-10.9131
▁ꯆꯤꯂꯤ	-10.9131
▁ꯂꯥꯟꯊꯣꯛꯈꯤ	-10.9131
ꯁ꯭ꯀ꯭ꯋꯥ	-10.9137
▁ꯃꯃꯩ	-10.914
▁ꯃꯣꯂꯤꯀ꯭ꯌꯨ	-10.914
▁ꯃꯥꯡꯂꯣꯝꯗ	-10.914
▁ꯑꯜꯕꯥꯅꯤ	-10.914
▁ꯅꯤꯡꯁꯤꯡꯉꯤ꯫	-10.914
▁ꯇꯦꯔꯤꯇꯣꯔꯤ	-10.914
▁ꯑꯇꯩ	-10.914
▁ꯕꯖꯦꯠ	-10.914
▁ꯃꯦꯜꯕꯣꯔꯟ	-10.914
▁ꯀꯥꯔꯄꯦꯠ	-10.9141
▁ꯊꯣꯝꯖꯤꯟꯈꯤ	-10.9141
▁ꯈꯧ	-10.9142
▁ꯔꯣꯕꯤꯟ	-10.9144
▁ꯄ꯭ꯔꯣꯇꯤꯟ	-10.9146
▁ꯀꯥꯔꯕꯣꯟ	-10.9151
▁ꯈꯟꯅꯔꯤꯕꯅꯣ	-10.9158
ꯂꯩ	-10.9167
▁ꯇꯧꯗ꯭ꯔꯥ	-10.9173
▁ꯈꯟꯈꯤꯕꯒꯦ	-10.9181
▁ꯒꯦꯜ	-10.9184
▁ꯅꯪꯂꯕ	-10.9186
▁ꯑꯥꯔꯠꯁ	-10.9187
▁ꯈꯪꯅꯅꯕ	-10.9194
▁ꯊꯣꯛꯂꯝ	-10.9197
꯷꯸	-10.9199
▁ꯍꯦꯠ	-10.92
▁ꯀꯌꯥꯗꯒꯦ	-10.9201
▁ꯈꯜꯂꯨ	-10.9204
▁ꯋꯦꯜꯁꯀꯤ	-10.9206
▁ꯊꯥꯡꯒꯠꯄ	-10.9208
▁ꯇꯦꯔꯤ	-10.9214
▁ꯊꯤꯡꯖꯤꯟꯈꯤ	-10.9219
꯶꯲	-10.9229
▁ꯇꯥꯏꯞ	-10.925
▁ꯉꯝꯗ꯭ꯔꯤꯕ	-10.9251
▁ꯍꯣꯠꯅꯁꯤ	-10.9255
▁ꯇꯧꯔꯛꯈꯤ	-10.9257
▁ꯕꯨꯔ	-10.926
▁ꯏꯟꯐꯣꯔꯃꯦꯁꯟ	-10.9272
▁ꯕ꯭ꯔꯥꯏꯌꯟ	-10.9272
▁ꯃꯌꯨꯝ	-10.9272
▁ꯕꯤꯁꯞ	-10.9272
▁ꯈꯥꯏꯅꯕ	-10.9272
▁ꯀꯨꯔꯥꯛ	-10.9273
▁ꯒꯔꯦꯖ	-10.9273
▁ꯍꯔꯥꯎ	-10.9274
▁ꯒꯨꯒꯜ	-10.9274
▁꯱꯹꯷꯳	-10.9274
▁ꯏꯔꯥꯟ	-10.9275
▁ꯁꯄꯣꯔꯠ	-10.9275
▁ꯄꯥꯛꯆꯥꯎꯕ	-10.9275
▁ꯂꯥꯛꯂꯣꯏ	-10.9276
▁ꯂꯦꯚꯦꯜ	-10.9277
▁ꯆꯪꯁꯤꯜꯂ	-10.9278
▁ꯕꯤꯟ	-10.9281
▁ꯃꯥꯡꯍꯜꯂꯤ꯫	-10.9281
▁ꯃꯝ	-10.9281
▁ꯂꯣꯇꯁ	-10.9282
ꯀ꯭ꯋꯥ	-10.9282
▁ꯏꯟꯗꯤꯌꯥꯅꯥ	-10.9283
▁ꯁꯦꯅꯦꯠ	-10.9286
▁ꯋꯥꯀꯠꯂꯤ꯫	-10.9286
▁ꯒꯣꯜꯗꯟ	-10.9289
▁ꯁꯧꯒꯠꯂꯤ	-10.9291
▁ꯁ꯭ꯇ꯭ꯔꯦ	-10.9292
▁ꯅꯥꯟ	-10.9299
▁ꯊꯣꯛꯅꯕ	-10.93
▁ꯍꯥꯡꯗꯣꯛꯅꯕ	-10.9305
▁ꯍꯣꯠꯅꯔꯤ	-10.9306
▁ꯌꯧꯅꯕ	-10.9306
ꯀꯣꯔꯠ	-10.9307
▁ꯐ꯭ꯔꯦꯝ	-10.9308
▁ꯇꯥꯇꯣꯏꯕꯥꯗ	-10.931
▁ꯀꯥꯆꯤꯟꯗ	-10.931
▁ꯌꯣꯟꯈꯤ	-10.9311
▁ꯇꯧꯍꯟꯅꯕ	-10.9313
ꯂꯥꯡ	-10.9315
▁ꯉꯥꯡꯈꯤ	-10.9318
▁ꯊꯣꯛꯂꯛꯅꯕ	-10.9319
▁ꯂꯥꯡꯈꯤ꯫	-10.9323
▁ꯑꯣꯏꯈꯤꯕꯒꯦ	-10.9338
▁ꯍꯛꯁꯦꯜꯗ	-10.9338
▁ꯊꯣꯟꯈꯤꯕ	-10.9338
▁ꯄꯥꯞ	-10.9355
ꯉꯥꯏ	-10.9376
▁ꯊꯥꯒꯠꯀꯅꯤ	-10.9378
▁ꯁ꯭ꯇꯤꯛ	-10.9379
▁ꯐꯪꯒꯗꯕꯅꯤ	-10.9379
▁ꯇꯨꯜ	-10.939
ꯍꯩ	-10.939
▁ꯇꯥꯈ꯭ꯔꯦ꯫	-10.9391
ꯇꯥꯎꯟ	-10.9393
▁ꯁꯣꯔꯤ	-10.9395
▁ꯂꯥꯏꯔꯤꯛꯁꯪ	-10.9403
ꯁꯠꯁꯤꯡꯅ	-10.9404
꯷꯲	-10.9405
▁ꯒꯕꯔꯟꯃꯦꯟꯠ	-10.9405
▁ꯁꯩꯔꯥꯡꯕ	-10.9405
▁ꯇꯔꯥꯇꯔꯨꯛ	-10.9405
▁ꯏꯇꯂꯤꯒꯤ	-10.9405
▁ꯃꯦꯖꯤꯛ	-10.9406
▁ꯄꯤꯖꯖꯥ	-10.9408
▁ꯑꯜꯕꯔꯠ	-10.9408
▁ꯐꯣꯔꯃꯦꯠ	-10.9408
▁꯱꯹꯶꯱	-10.9408
▁꯱꯹꯴꯰	-10.9409
▁ꯅꯨꯡꯁꯤꯖꯔꯕ	-10.9409
▁ꯂꯧꯈꯤꯕꯅꯣ	-10.941
▁ꯂꯣꯠꯂꯤ	-10.9414
▁ꯎꯠꯀꯅꯤ	-10.9417
▁ꯇꯔꯦꯠꯁꯨꯕ	-10.9417
▁ꯍꯦꯟꯖꯤꯟ	-10.9417
▁ꯁꯣꯛꯈꯤ	-10.942
▁ꯏꯟꯆꯤ	-10.9433
ꯨꯂꯦꯁꯟ	-10.9435
▁ꯃꯅꯨꯡꯒ	-10.9436
▁꯲꯶ꯇ	-10.9438
▁ꯁꯤꯈ꯭ꯔꯦ꯫	-10.9442
▁ꯆꯪꯁꯤꯜꯂꯤ	-10.9443
▁ꯕꯣꯕꯅ	-10.9446
▁꯲꯷ꯇ	-10.9453
▁ꯕꯥꯎ	-10.9454
▁ꯐꯥꯎꯍꯟꯈꯤ꯫	-10.9459
▁ꯁꯥꯟꯅꯈꯤꯕ	-10.9468
▁ꯀꯨꯝꯊꯔꯛ	-10.9468
▁ꯃꯥꯡꯍꯟꯈꯤ	-10.9474
▁ꯑꯣꯏꯔꯒꯅꯤ꯫	-10.9479
▁ꯊꯥꯗꯣꯛꯀꯅꯤ	-10.9487
▁ꯗꯥꯏꯃꯟꯗ	-10.9487
▁ꯊꯨꯝꯖꯤꯟ	-10.9489
▁ꯁꯤꯖꯤꯟꯅꯔꯝꯃꯤ	-10.9494
▁ꯈꯥꯏꯗꯣꯛꯏ	-10.9499
▁ꯒꯥꯔ	-10.9499
▁ꯁꯣꯔꯁ	-10.9499
▁ꯐꯥꯎꯒꯅꯤ꯫	-10.9499
ꯇ꯭ꯔꯦꯛ	-10.95
▁ꯀꯠꯊꯣꯛꯈꯤ	-10.9501
▁ꯁꯥꯡꯏ	-10.9507
▁ꯐ꯭ꯔꯥꯟ	-10.9511
▁꯱꯷ꯇ	-10.9517
▁ꯏꯟꯁꯇ꯭ꯔꯛꯁꯟꯁꯤꯡ	-10.9528
▁ꯃꯜꯇꯤꯄ	-10.9534
▁ꯑꯣꯏꯔꯝꯗꯦ	-10.9535
▁ꯊꯝꯖꯤꯟ	-10.9539
▁ꯂꯝꯍꯥꯡ	-10.954
▁ꯄ꯭ꯔꯤꯟꯁꯤꯄꯥꯜ	-10.954
▁ꯆꯦꯝꯕꯔ	-10.954
▁ꯏꯗꯤꯁꯟ	-10.9541
▁ꯑꯣꯒꯁꯠꯇ	-10.9542
ꯛꯇꯅꯕ	-10.9545
▁ꯄ꯭ꯔꯗꯛꯁꯟ	-10.9548
▁ꯄꯤꯈꯤꯕ꯭ꯔꯥ	-10.9549
▁ꯃꯥꯟ	-10.9558
▁ꯑꯣꯏꯔꯣꯏꯗꯕꯅꯤ꯫	-10.9567
▁ꯈꯪꯍꯟꯅꯕ	-10.9573
▁ꯆꯠꯈꯤꯗꯦ	-10.9573
▁ꯗꯥꯎꯟ	-10.9578
▁ꯄꯨꯈꯠꯈꯤ	-10.9583
ꯝꯃꯨ꯫	-10.9583
▁ꯆꯪꯒꯗꯕꯅꯤ꯫	-10.9588
▁ꯆꯥꯎꯈꯠꯂꯕ	-10.9588
▁ꯆꯣꯡꯕ	-10.9593
▁ꯀꯅꯥꯕꯨ	-10.9594
▁ꯊꯥꯗꯣꯛꯀꯅꯤ꯫	-10.96
▁ꯍꯥꯏꯅꯤꯡꯕ	-10.9602
▁ꯄꯥꯝꯂꯣꯏ꯫	-10.9606
▁ꯀꯤꯗꯦ꯫	-10.9608
▁ꯇ꯭ꯌꯨꯕ	-10.9612
ꯁꯇ꯭ꯔꯣ	-10.9613
▁ꯀꯤꯍꯟꯕ	-10.9614
▁ꯍꯧꯗꯣꯛ	-10.9614
▁ꯑꯦꯟꯇ꯭ꯔꯤ	-10.9616
ꯀꯦꯁꯟ	-10.9624
▁ꯐ꯭ꯂꯣꯔꯗ	-10.9626
ꯑꯩꯈꯣꯏ	-10.9629
▁ꯕꯦꯀꯔ	-10.9637
ꯡꯒꯨ	-10.9648
ꯇꯥꯏꯜ	-10.965
▁ꯁ꯭ꯋꯤꯁ	-10.9653
▁ꯊꯤꯒꯅꯤ	-10.9662
▁ꯂꯩꯍꯟꯈꯤ꯫	-10.9663
ꯊꯣꯛꯇꯨꯅ	-10.9664
▁ꯈꯣꯡꯕꯥꯜ	-10.9667
ꯂꯝꯇꯥꯛ	-10.9674
▁ꯀꯝꯄꯤꯇꯤꯁꯟ	-10.9677
▁ꯃꯨꯠꯊꯠ	-10.9677
▁ꯇꯔꯕꯥꯏꯟ	-10.9677
▁ꯑꯦꯖꯨꯀꯦꯁꯟ	-10.9677
▁꯱꯹꯶꯷	-10.9677
▁ꯐꯦꯁꯕꯨꯛ	-10.9677
▁ꯗꯤꯐꯣꯜꯠ	-10.9677
▁ꯀꯣꯏꯆꯠ	-10.9677
▁ꯃꯤꯂꯤꯇꯔꯤ	-10.9677
▁ꯁꯤꯅꯦꯃꯥ	-10.9677
ꯦꯁꯅꯦꯜ	-10.9677
▁ꯏꯚꯦꯟꯠ	-10.9677
▁ꯍꯥꯏꯗ꯭ꯔꯣꯖꯦꯟ	-10.9678
▁ꯅꯛꯁꯤꯟ	-10.9678
▁꯱꯹꯶꯲	-10.968
ꯁꯤꯡꯊꯣꯏꯔꯕ	-10.968
▁ꯀꯠꯊꯣꯛꯄ	-10.9682
▁꯱꯹꯹꯱ꯗ	-10.9683
▁꯲꯹ꯗ	-10.9683
▁ꯃꯇꯥꯏ	-10.9684
▁ꯀ꯭ꯂꯕꯀꯤ	-10.9685
▁ꯄꯦꯂꯦꯁ	-10.9687
ꯖꯤꯜꯂꯤ꯫	-10.9687
▁ꯂꯣꯏꯅꯕꯤꯕꯨ	-10.9694
▁ꯑꯃꯒꯨꯝꯕꯅꯤ꯫	-10.9694
▁ꯁ꯭ꯇ꯭ꯔꯣ	-10.9698
▁ꯂꯩꯆꯤꯟ	-10.9699
▁ꯁ꯭ꯇ꯭ꯔꯦꯁ	-10.97
▁ꯄꯥꯔꯤ꯫	-10.9701
▁ꯐꯪꯗꯦ	-10.9706
▁ꯂꯧꯊꯣꯛꯈ꯭ꯔꯦ꯫	-10.9707
▁ꯐꯒꯠꯂꯛꯂꯤ	-10.9715
ꯗꯣꯔꯐ	-10.9719
▁ꯂꯝꯕꯤꯁꯤꯡꯗ	-10.9719
▁ꯐꯝꯂꯤ꯫	-10.9725
▁ꯈꯥꯏꯗꯣꯛꯈꯤ	-10.9747
▁ꯈꯪꯂꯕꯒꯨꯝ	-10.975
▁ꯁꯥꯏꯀꯣꯂꯣꯖꯤ	-10.9761
▁ꯃꯥꯡꯍꯟꯅꯕ	-10.9764
ꯁ꯭ꯇꯥꯔ	-10.977
ꯥꯔꯗ	-10.9771
▁ꯄꯥꯝꯖꯕꯒꯦ	-10.9778
▁ꯐꯪꯁꯟ	-10.9781
꯸꯷	-10.9782
▁ꯑꯣꯛꯈꯤ꯫	-10.9782
ꯂꯛꯂꯦ꯫	-10.9785
▁ꯆꯠꯈꯤꯅꯕ	-10.9799
▁ꯊꯥꯖꯍꯟꯈꯤ	-10.9801
▁ꯐꯥꯔ	-10.9808
▁ꯈꯣꯝ	-10.9811
▁ꯇꯦꯝꯄꯔꯦꯆꯔ	-10.9816
▁ꯁꯦꯇꯂꯥꯏꯠ	-10.9816
▁ꯍꯤꯟꯗꯨ	-10.9816
▁ꯄꯣꯂꯨꯁꯟ	-10.9816
▁ꯊꯣꯛꯇꯦ꯫	-10.9816
▁ꯍꯩꯁꯤꯡꯂꯕ	-10.9816
▁ꯏꯆꯦꯜ	-10.9816
▁꯳꯱ꯗ	-10.9816
▁ꯂꯤꯅꯛꯁ	-10.9816
ꯀꯥꯎ	-10.9817
▁ꯂꯤꯟꯀꯟ	-10.982
▁ꯌꯥꯎꯅꯕ	-10.9821
▁ꯑꯦꯛꯁꯇ꯭ꯔꯥ	-10.9821
▁ꯗꯤꯐꯦꯟꯁ	-10.9822
▁ꯅꯨꯡꯉꯥꯏꯍꯟꯗꯅꯕ	-10.9822
▁ꯃꯨꯊꯠꯄ	-10.9823
▁ꯑꯦꯂꯦꯟ	-10.9823
ꯔꯛꯇ꯭ꯔꯤꯉꯩ	-10.9831
▁ꯕ꯭ꯔꯥꯟꯆ	-10.9831
▁ꯃꯥꯟꯅꯗꯕ	-10.9831
▁ꯍꯥꯏꯗꯣꯛꯄ	-10.9834
▁ꯍꯧꯏ	-10.9839
▁ꯃꯝꯊ	-10.984
▁ꯊꯤꯔꯝꯃꯤ꯫	-10.984
▁ꯑꯣꯏꯍꯜꯂꯤ	-10.984
▁ꯊꯥꯖꯔꯝꯃꯤ꯫	-10.9843
▁ꯃꯥꯏꯅꯔ	-10.9843
ꯈꯣ	-10.9846
꯷꯳	-10.9847
▁ꯍꯣꯠꯅꯔꯤꯕꯅꯣ	-10.9848
▁ꯈꯨꯝꯖꯤꯟꯈꯤ	-10.9858
▁ꯈꯟꯅꯔꯤ	-10.9859
▁ꯒꯝ	-10.9861
▁ꯍꯧꯈ꯭ꯔꯦ꯫	-10.9861
▁ꯊꯤꯗꯣꯛ	-10.9862
▁ꯃꯅꯤ	-10.9864
ꯇ꯭ꯔꯤꯛ	-10.9874
▁ꯈꯪꯍꯜꯂ	-10.9875
▁ꯃꯩꯈꯨ	-10.9876
▁ꯂꯨꯍꯣꯡꯒꯅꯤ꯫	-10.9883
▁ꯈ꯭ꯔꯤꯁꯃꯥꯁꯀꯤ	-10.9886
▁ꯀꯣꯛꯅꯕ	-10.9887
▁ꯃꯄꯨꯕꯣꯛꯅ	-10.9887
▁ꯐꯣꯔꯠ	-10.991
▁ꯔꯤꯑꯦꯛ	-10.9925
▁ꯀꯧꯅꯩ	-10.994
▁ꯕꯦꯕꯤ	-10.9944
ꯂꯣꯏꯗꯕꯅꯤ	-10.995
▁ꯃꯄꯩ	-10.9957
▁ꯚꯤꯌꯦꯅꯥ	-10.9957
▁ꯁꯔꯖꯔꯤ	-10.9957
▁ꯗꯦꯅꯤꯌꯦꯜ	-10.9957
▁ꯀꯥꯀꯥꯗꯨ	-10.9957
▁ꯃꯦꯗꯤꯁꯟ	-10.9958
▁꯱꯹꯶꯸	-10.9959
▁ꯍꯝ	-10.9966
▁ꯄꯥꯈꯠꯂꯝꯃꯤ꯫	-10.9966
▁ꯁꯤꯖꯤꯟꯅꯔꯝꯕ	-10.9967
▁ꯁꯤꯖꯤꯟꯅꯒꯗꯒꯦ	-10.9967
▁ꯁꯣꯟꯊ	-10.9969
▁ꯂꯤꯁꯥ	-10.997
▁ꯍꯥꯏꯔꯁꯤ	-10.997
▁ꯊꯥꯖꯔꯣꯏ꯫	-10.9972
▁ꯄꯥꯏꯔꯤ꯫	-10.9976
ꯃꯄꯥꯒ	-10.9977
▁ꯐꯠꯇꯅ	-10.9977
▁ꯀꯥꯏꯈꯤ	-10.9981
▁ꯅꯥꯟꯊꯣꯛꯅꯕ	-10.9981
▁ꯇꯔꯦꯠꯀꯤ	-10.9998
▁꯳꯳	-11.0002
▁ꯆꯨꯝꯗꯕ	-11.0003
▁ꯇꯧꯔꯛꯂꯤ	-11.0006
ꯤꯔꯛꯀꯗ꯭ꯔꯥ	-11.001
▁꯱꯹꯳꯰	-11.0016
▁ꯍꯣꯠꯅꯕꯤꯌꯨ꯫	-11.0017
꯶꯹	-11.0026
▁ꯀꯨꯔ	-11.0028
▁ꯌꯥꯈꯤꯕ	-11.0039
꯸꯱	-11.0041
▁ꯖꯨꯔꯤ	-11.0046
▁ꯆꯪꯁꯤꯟ	-11.0046
▁ꯂꯣꯠꯂꯤꯕ	-11.0054
▁ꯁꯦꯠꯂꯤꯕ	-11.0055
▁ꯁ꯭ꯂꯤ	-11.0065
▁ꯀꯥꯈꯠꯈꯤ	-11.0067
▁ꯆꯠꯈ꯭ꯔꯦ	-11.0072
▁ꯀꯤꯟ	-11.0072
ꯣꯂꯣꯖꯤꯁꯠ	-11.0076
ꯅꯦꯖ	-11.0083
▁ꯐꯝꯂꯤꯕ	-11.0083
▁ꯁꯛꯇꯝꯁꯤꯡ	-11.0087
▁ꯉ	-11.0088
▁ꯆꯩꯊꯦꯡ	-11.01
▁ꯑꯣꯛꯁꯤꯖꯦꯟ	-11.01
▁꯱꯹꯵꯲	-11.01
▁ꯑꯣꯇꯣꯃꯣꯕꯥꯏꯜ	-11.01
▁ꯃꯤꯆꯝ	-11.01
▁ꯁꯂꯥꯗ	-11.01
▁ꯂꯣꯒ	-11.0101
▁ꯈ꯭ꯔꯤꯁ	-11.0102
▁ꯂꯩꯔꯝꯂꯕꯗꯤ	-11.0104
▁ꯅꯤꯡꯉꯝꯗꯕ	-11.0104
▁ꯉꯥꯛꯁꯦꯟꯕ	-11.0107
▁ꯀꯥꯎꯕꯤꯔꯣꯏꯗꯕꯅꯤ	-11.0107
▁ꯗꯦꯟꯕꯨ	-11.0107
ꯄꯣꯖꯤꯁꯟ	-11.011
▁ꯆꯨꯒꯅꯤ	-11.011
▁ꯌꯥꯔꯤꯕ	-11.0112
▁ꯂꯥꯏꯔꯤꯛꯁꯪꯗ	-11.0113
▁ꯂꯩꯍꯥꯎ	-11.0116
▁ꯈꯣꯡꯕꯥꯟ	-11.0117
▁ꯄꯤꯅꯈꯤ	-11.0117
▁ꯊꯦꯡꯈ꯭ꯔꯦ꯫	-11.0119
▁ꯍꯥꯏꯔꯛꯈ꯭ꯔꯕ	-11.0127
▁ꯊꯥꯖꯗꯦ	-11.0129
▁ꯀꯣꯛꯄ	-11.0129
▁ꯆꯔꯥꯝꯃꯤ	-11.0131
▁ꯆꯪꯗꯦ	-11.0132
▁ꯃꯥꯏꯟ	-11.0134
▁ꯀꯤꯝ	-11.0136
▁ꯗꯣꯒ	-11.0144
▁ꯂꯦꯡꯖꯨꯝꯗ	-11.0156
▁ꯅꯣꯃꯤꯅꯦ	-11.0162
▁ꯖꯥꯝ	-11.0164
▁ꯄꯤꯔꯕꯗꯤ	-11.0165
▁ꯁꯣꯛꯍꯜꯂꯤ	-11.0166
▁ꯄꯥꯝꯂꯣꯏ	-11.0167
▁ꯇꯦꯛꯈꯤ꯫	-11.0167
▁ꯄꯤꯔꯒꯅꯤ	-11.018
▁ꯂꯅꯥꯏ	-11.019
꯸꯳	-11.0197
ꯅꯤꯡꯗꯦ꯫	-11.0198
ꯄꯣꯟ	-11.0203
▁ꯇꯥꯔꯕ	-11.0204
▁ꯍꯣꯠꯅꯩ	-11.0204
▁ꯍꯧꯗꯣꯛꯈꯤ	-11.0213
▁ꯍꯣꯔꯁ	-11.0216
▁ꯂꯣꯏꯔꯛꯄꯗ	-11.0222
▁ꯕꯣꯠ	-11.0234
▁ꯍꯧꯔꯛꯏ	-11.0239
▁ꯂꯣꯏꯁꯤꯜꯂ	-11.0243
▁ꯑꯦꯟꯇꯔꯇꯦꯟꯃꯦꯟꯠ	-11.0245
▁ꯂꯤꯃꯤꯇꯦꯗ	-11.0245
▁ꯌꯨꯝꯊꯣꯡ	-11.0245
▁ꯒꯨꯂꯥꯞ	-11.0245
▁ꯑꯀꯣꯟꯕ	-11.0245
▁ꯄꯨꯁꯤꯜꯂꯛꯄ	-11.0245
▁ꯁꯛꯈꯪ	-11.0245
▁ꯀꯟꯁꯣꯜ	-11.0245
▁ꯊꯣꯛꯂꯒ	-11.0247
▁ꯑꯦꯔꯂꯥꯏꯟ	-11.0247
ꯣꯁꯣꯔꯁ	-11.0248
▁ꯀ꯭ꯌꯨꯕꯥ	-11.0254
▁ꯕꯦꯇꯜ	-11.0255
▁ꯈꯪꯍꯟꯒꯅꯤ꯫	-11.0259
▁ꯌꯥꯔꯗ	-11.026
▁꯱꯹꯹꯰ꯗ	-11.0268
ꯂꯤꯌꯝ	-11.027
▁ꯃꯎ	-11.027
▁ꯅꯤꯑꯣ	-11.0271
▁ꯀꯨꯞꯁꯤꯜꯂꯤ꯫	-11.0273
꯷꯴	-11.0273
ꯑꯦꯛꯁ	-11.0276
▁ꯀꯜꯂꯤ	-11.0276
ꯆꯣ	-11.0277
▁ꯁ꯭ꯇꯥꯏꯜ	-11.0278
▁ꯌꯥꯍꯟꯅꯕ	-11.0289
▁ꯀꯦꯕꯜ	-11.0291
ꯂꯝꯕ꯭ꯔꯥ	-11.0292
▁ꯅꯨꯡꯁꯤꯈꯤꯗꯦ꯫	-11.0293
▁ꯈꯪꯂꯕꯅꯤ	-11.0297
▁ꯇꯔꯀꯤꯁ	-11.0299
▁ꯀꯟꯇ꯭ꯔꯤ	-11.0303
▁ꯄꯦꯠ	-11.0312
▁ꯏꯟꯖꯤꯟꯁꯤꯡ	-11.0316
▁ꯃꯥꯌꯣꯛꯅꯔꯤꯕ	-11.0325
▁ꯍꯤꯡꯂꯤ	-11.033
ꯔꯣꯏꯗꯕ	-11.0332
▁ꯂꯦꯡꯖꯨꯝ	-11.0335
▁ꯁ꯭ꯀꯦꯜ	-11.0339
▁ꯏꯪꯊꯅ	-11.0341
ꯀꯗꯕꯅꯤ	-11.0341
▁ꯊꯛꯂꯕ	-11.0342
▁ꯂꯥꯛꯀꯗꯕ	-11.0348
▁ꯊꯦꯡꯅꯒꯅꯤ	-11.035
꯲꯵	-11.0357
꯷꯷	-11.0364
꯳꯹	-11.0369
ꯔꯛꯀꯗꯧꯔꯤꯕ	-11.0372
▁ꯁ꯭ꯂꯣ	-11.0373
▁ꯆꯝꯕ	-11.0384
ꯕ꯭ꯂꯣ	-11.0388
▁ꯏꯀꯣꯅꯣꯃꯤ	-11.0389
▁ꯊꯝꯂꯕ	-11.0391
▁ꯁ꯭ꯀꯣꯂꯔ	-11.0391
▁ꯍꯉꯣꯏ	-11.0392
▁ꯄꯣꯖꯤꯇꯤꯕ	-11.0392
▁ꯄ꯭ꯔꯤꯐꯦꯛꯆꯔ	-11.0392
▁ꯅꯦꯒꯦꯇꯤꯕ	-11.0392
▁꯱꯹꯶꯴	-11.0392
▁ꯂꯥꯟꯍꯧꯕ	-11.0392
▁ꯗꯥꯎꯟꯇꯥꯎꯟ	-11.0392
▁ꯑꯦꯟꯗꯔꯁꯟ	-11.0392
▁ꯔꯤꯐꯔꯦꯟꯁ	-11.0392
▁ꯀꯦꯝꯄꯤꯡ	-11.0397
▁ꯑꯣꯄ	-11.0397
▁ꯆꯠꯂꯣꯏꯗꯕꯅꯤ꯫	-11.0399
ꯊ꯭ꯔꯣ	-11.04
▁ꯀꯣꯃꯦꯠ	-11.0401
▁ꯆꯥꯎꯈꯤ	-11.0404
▁ꯄꯨꯏꯅꯕ	-11.0409
▁ꯍꯪꯂꯛꯄ	-11.0411
꯭ꯋꯦꯜ	-11.0411
▁ꯐꯪꯐꯝ	-11.0414
▁ꯋꯥꯁꯛꯂꯤ꯫	-11.0417
▁ꯁꯥꯔꯕ꯭ꯔꯥ	-11.042
▁ꯐꯥꯎꯔꯦ꯫	-11.0421
▁ꯏꯌꯥꯟ	-11.0423
ꯁ꯭ꯀꯣꯞ	-11.0429
▁ꯃꯣꯔꯤꯁ	-11.0438
▁ꯈꯔꯁꯤꯗ	-11.0459
▁ꯃꯦꯊꯃꯦꯇꯤꯛꯁꯇ	-11.0459
▁ꯍꯣꯠꯅꯗꯨꯅ	-11.0464
꯴꯹	-11.0473
ꯔꯥꯏꯠ	-11.0477
꯸꯹	-11.0485
▁ꯔꯥꯎꯟ	-11.0488
▁ꯀꯔꯦꯝꯅ	-11.0496
▁ꯁꯦꯁꯟ	-11.0496
▁ꯁꯦꯛꯁ	-11.0509
▁ꯂꯦꯇꯔ	-11.0516
▁ꯈꯪꯈꯤꯗꯦ	-11.0516
▁ꯅꯨꯡꯉꯥꯏꯔꯦ	-11.052
▁ꯋꯥꯠꯄꯅ	-11.0535
▁ꯑꯟꯗꯔꯒ꯭ꯔꯥꯎꯟ	-11.0541
▁ꯚꯣꯌꯦꯖꯔ	-11.0541
▁ꯃꯦꯒꯅꯦꯇꯤꯛ	-11.0541
▁ꯃꯥꯏꯀ꯭ꯔꯣꯁꯣꯐ	-11.0541
▁ꯑꯍꯧꯕ	-11.0541
▁ꯊꯣꯛꯂꯤ꯫	-11.0541
▁ꯌꯥꯡꯈꯩ	-11.0541
▁ꯀꯣꯃꯦꯗꯤ	-11.0542
▁ꯃꯣꯔꯣꯛ	-11.0542
꯭ꯂꯣ	-11.0544
▁ꯀꯜꯆꯔ	-11.0545
▁ꯁꯤꯟꯃꯤꯁꯤꯡ	-11.0545
▁ꯌꯣꯟꯐꯝ	-11.0546
▁ꯆꯣꯛꯊꯔꯛꯄ	-11.0546
▁ꯋꯤꯟꯇꯔ	-11.0547
▁ꯃꯈꯣꯡꯁꯤꯡ	-11.0547
▁ꯑꯦꯞ	-11.0547
▁ꯑꯦꯔꯤꯛ	-11.0549
▁ꯄꯠꯊꯔ	-11.0549
▁ꯁꯥꯅꯔꯝꯃꯤ꯫	-11.0553
▁ꯀꯥꯟꯅꯗꯕ	-11.0561
▁ꯊꯧꯏ꯫	-11.0573
▁ꯊꯣꯛꯂꯣꯏ	-11.0576
ꯤꯑꯣꯂꯣꯖꯤ	-11.0579
▁ꯅꯣꯟ	-11.0583
▁ꯈꯨꯗꯤꯡꯃꯛꯀꯤꯗꯃꯛ	-11.0584
▁ꯆꯦꯟꯊꯈꯤ꯫	-11.0584
▁ꯋꯤꯀꯤꯄꯤꯗꯤꯌꯥꯗ	-11.0585
▁ꯃꯣꯅꯣ	-11.0587
▁ꯂꯨꯝꯕ	-11.0589
▁ꯄꯥꯅꯈꯤ	-11.0593
ꯍꯜꯂꯦ	-11.0596
▁ꯉꯥꯡꯈꯤꯗꯦ꯫	-11.0597
▁ꯖꯥꯔ	-11.0597
▁ꯂꯧꯅꯔꯤꯕ	-11.06
▁ꯆꯪꯍꯟꯈꯤ	-11.0614
▁ꯚꯦꯁ	-11.0622
▁ꯂꯥꯞꯊꯣꯛꯄ	-11.0624
▁ꯂꯦꯟꯈꯤ	-11.0629
▁ꯂꯦꯞꯂꯤ	-11.0633
▁ꯂꯦꯁꯟ	-11.0641
▁ꯄꯨꯔꯛꯀꯅꯤ	-11.0645
▁ꯎꯃꯪꯁꯤꯡ	-11.0654
▁ꯁꯣꯛꯍꯟꯈꯤ	-11.0657
▁ꯕ꯭ꯔꯥꯖꯤꯜꯗ	-11.0667
▁ꯉꯥꯡꯒꯅꯨ	-11.0669
▁ꯀ꯭ꯋꯥꯔ	-11.0671
ꯁꯇꯥꯟ	-11.0681
▁ꯊꯤꯡꯈꯤ	-11.0683
▁ꯌꯨꯀ꯭ꯔꯦꯟ	-11.0692
▁ꯑꯣꯊꯣꯔꯤꯇꯤ	-11.0692
▁꯱꯹꯵꯶	-11.0692
▁ꯁꯦꯛꯁꯣꯅꯤ	-11.0692
▁ꯏꯟꯇꯔꯁ꯭ꯇꯦꯠ	-11.0692
▁ꯀꯟꯐꯔꯝ	-11.0692
▁ꯚꯦꯜꯌꯨ	-11.0692
▁ꯀꯦꯟꯗꯤꯗꯦꯠ	-11.0692
▁ꯗꯤꯄꯨꯇꯤ	-11.0693
▁ꯊꯣꯃꯁ	-11.0694
▁ꯀ꯭ꯂꯣꯁꯦꯠ	-11.0694
▁ꯖꯣꯔꯖꯤꯌꯥ	-11.0694
▁ꯍꯣꯠꯅꯔꯕꯁꯨ	-11.0696
▁ꯁꯦꯇꯔꯟ	-11.0697
▁ꯑꯣꯄꯣꯖꯤꯁꯟ	-11.0697
▁ꯀꯥꯎꯟꯠ	-11.0698
▁ꯍꯥꯏꯗꯣꯛ	-11.0706
▁ꯑꯥꯔꯠꯀꯤ	-11.0708
ꯄꯣꯔꯇ	-11.071
▁ꯃꯨꯠꯈꯤ	-11.0711
▁ꯌꯦꯛꯅꯕꯁꯤꯡ	-11.072
▁ꯗꯦꯇꯤꯡ	-11.0723
▁ꯁ꯭ꯄꯦꯟꯗ	-11.0727
▁ꯅꯨꯡꯉꯥꯏꯍꯟꯈꯤꯗꯦ	-11.0727
▁ꯁꯝꯅꯍꯜꯂꯤ	-11.0731
▁ꯈꯪꯂꯛꯏ꯫	-11.0733
▁ꯍꯥꯞꯈꯤꯕ	-11.0736
▁ꯁꯥꯟꯅꯒꯅꯤ꯫	-11.0742
▁ꯁꯥꯎꯔ	-11.0746
ꯤꯒꯗꯕꯅꯤ	-11.0748
▁ꯍꯪꯈꯤꯗꯦ꯫	-11.0751
▁ꯒꯦꯡ	-11.0756
▁ꯆꯟꯕ	-11.0762
▁ꯁꯤꯖꯤꯟꯅꯔꯝꯃꯤ꯫	-11.0769
▁ꯂꯥꯛꯄꯤꯌꯨ	-11.0776
▁ꯕ꯭ꯂꯗ	-11.0778
▁ꯃꯪꯂꯥꯟꯁꯤꯡ	-11.078
▁ꯁꯥꯅꯈꯤꯕ	-11.0781
▁ꯊꯤꯖꯤꯟꯕꯁꯤꯡ	-11.0791
▁ꯃꯗꯨꯃꯛ	-11.0794
▁ꯁ꯭ꯄꯥ	-11.0795
▁ꯐ꯭ꯂ	-11.0804
▁ꯁꯦꯝꯂꯤ꯫	-11.0808
▁ꯊꯣꯟꯈꯤꯕꯅꯤ	-11.0819
▁ꯆꯥꯎꯊꯣꯛꯄ	-11.0824
▁ꯂꯥꯛꯂꯦ	-11.0831
▁ꯇꯥꯟꯊꯣꯛ	-11.0834
▁ꯁꯥꯒꯅꯤ	-11.0834
▁ꯅꯦꯞꯇ꯭ꯌꯨꯟ	-11.0846
▁ꯍꯦꯕꯤꯋꯦꯠ	-11.0846
▁ꯗꯤꯁꯀꯥꯎꯟꯠ	-11.0846
▁ꯗ꯭ꯔꯣꯃꯦꯑꯣꯁꯣꯔ	-11.0846
▁ꯚꯤꯌꯦꯠꯅꯥꯝ	-11.0846
▁ꯑꯦꯂꯥꯔꯝ	-11.0846
▁ꯖꯤꯅꯦꯇꯤꯛ	-11.0846
▁ꯁ꯭ꯇ꯭ꯔꯥꯏꯛ	-11.0846
▁ꯂꯤꯡꯀꯟ	-11.0846
▁ꯍꯤꯁꯇꯔꯤ	-11.0846
▁ꯁꯣꯗꯤꯌꯝ	-11.0846
▁꯱꯹꯱꯸	-11.085
▁ꯊꯣꯛꯍꯜꯂꯤꯕ	-11.0851
▁ꯆꯨꯔꯕꯁꯨ	-11.0852
▁ꯁꯥꯎꯟꯗ	-11.0853
▁ꯊꯩꯗꯣꯛ	-11.0853
▁ꯅꯤꯡꯁꯤꯡꯈꯤ꯫	-11.086
▁ꯄꯣꯛꯍꯟꯈꯤ꯫	-11.0861
▁ꯊꯥꯗꯣꯛꯀꯗꯕ	-11.0862
▁ꯊꯣꯛꯀꯗꯕ	-11.0867
▁ꯁꯥꯅꯒꯗꯕꯅꯤ꯫	-11.0869
▁ꯃꯤꯂꯔ	-11.0883
▁ꯆꯥꯅꯩ	-11.0884
▁ꯃꯥꯌꯣꯛꯅꯕ	-11.0884
▁ꯖꯤꯑꯣꯒ꯭ꯔꯥꯐꯤ	-11.0885
▁ꯍꯦꯟꯒꯠꯂꯛꯄꯒ	-11.0891
▁ꯐꯟꯗ	-11.0895
꯰꯹	-11.0896
▁ꯍꯥꯏꯗ꯭ꯔꯤꯕꯅꯣ	-11.0897
▁ꯁꯔꯕꯔ	-11.0901
꯹꯷	-11.0903
▁ꯊꯛꯂꯝꯃꯤ	-11.0908
ꯃꯦꯁꯟ	-11.0911
▁ꯈꯣꯝꯖꯤꯟꯈꯤ	-11.0917
▁ꯈꯟꯈꯤꯕꯅꯣ	-11.0927
▁ꯉꯥꯏꯈꯤ	-11.0932
▁ꯈꯛꯇꯅꯤ	-11.0938
▁ꯃꯒꯨꯟꯁꯤꯡ	-11.0938
▁ꯍꯥꯞꯆꯤꯟꯈꯤ	-11.0938
▁ꯄꯥꯎꯗꯝꯁꯤꯡ	-11.0938
▁ꯃꯍꯩꯔꯣꯏꯁꯤꯡꯕꯨ	-11.0954
▁ꯄꯦꯔꯤꯁꯀꯤ	-11.0955
▁ꯂꯥꯛꯎ	-11.0965
▁ꯆꯀꯥ	-11.0969
▁ꯄꯨꯟꯁꯤꯜꯂꯤ	-11.0972
▁ꯂꯝꯖꯤꯡꯕ	-11.0976
▁ꯌꯨꯝꯁꯥ	-11.0978
▁ꯐꯪꯈ꯭ꯔꯦ	-11.098
▁ꯋꯤꯊ	-11.0983
▁ꯄ꯭ꯔꯄꯣꯖ	-11.099
▁ꯇꯔꯟ	-11.0998
▁ꯄꯦꯁꯦꯟꯖꯔꯁꯤꯡ	-11.1001
▁ꯍꯦꯟꯗꯣꯛ	-11.1002
▁ꯀꯦꯝꯕ꯭ꯔꯤꯖ	-11.1002
▁ꯏꯟꯁꯇ꯭ꯔꯨꯃꯦꯟꯠ	-11.1002
▁ꯑꯦꯊꯂꯦꯇꯤꯛ	-11.1002
▁ꯑꯪꯒꯨꯔ	-11.1002
▁ꯗꯣꯀꯨꯃꯦꯟꯇꯔꯤ	-11.1002
▁ꯌꯨꯅꯤꯐꯣꯔꯝ	-11.1002
▁ꯍꯤꯡꯒꯠꯍꯟ	-11.1002
▁ꯐ꯭ꯂꯦꯟꯗꯔꯁ	-11.1002
▁ꯆꯤꯟꯕꯥꯜ	-11.1003
▁ꯐꯤꯟꯂꯦꯟ	-11.1003
▁ꯇꯤꯜꯍꯧ	-11.1003
ꯥꯏꯖꯦꯁꯟ	-11.1006
▁ꯄꯤꯠꯖꯥ	-11.1006
▁ꯄꯥꯔꯤꯁ	-11.1009
ꯄꯨꯁꯤꯟ	-11.1012
▁ꯂꯧꯔꯣꯏꯗꯕꯅꯤ꯫	-11.1016
▁ꯊꯣꯛꯂꯦ	-11.1016
▁ꯍꯩꯅꯗꯕ	-11.1018
▁ꯒꯥꯏꯗ	-11.1018
ꯤꯐꯤꯀꯦꯁꯟ	-11.1019
▁ꯊꯥꯖꯅꯩ꯫	-11.1019
▁ꯇ꯭ꯔꯥꯝ	-11.1021
▁ꯗꯤꯖꯦꯜ	-11.1022
▁ꯅꯤꯌꯝ	-11.1022
▁ꯊꯥꯖꯔꯤ꯫	-11.1024
▁ꯄꯤꯌꯨ	-11.1028
▁ꯑꯣꯁꯥꯀꯥꯗ	-11.1032
▁ꯌꯥꯒꯗꯒꯦ	-11.1034
▁ꯍꯥꯏꯒꯗꯕꯅꯤ	-11.1034
ꯍꯥꯏꯝ	-11.104
▁ꯂꯩꯇ꯭ꯔꯤꯉꯩ	-11.1054
▁ꯂꯧꯊꯣꯛꯀꯅꯤ꯫	-11.1056
▁ꯆꯥꯗ꯭ꯔꯤꯉꯩ	-11.106
▁ꯄꯥꯝꯒꯦ	-11.1064
▁ꯌꯥꯍꯟꯈꯤꯗꯦ	-11.1072
▁ꯊꯨꯕ	-11.1072
▁ꯄꯦꯇ꯭ꯔꯤ	-11.1076
▁ꯕ꯭ꯔꯣꯁ	-11.1082
▁ꯐꯥꯏꯕ	-11.1083
▁ꯐꯣꯡꯗꯣꯛꯏ	-11.1095
▁꯴꯰꯰	-11.1095
▁ꯐꯍꯟꯕ	-11.1102
▁ꯎꯅꯩ	-11.1105
▁ꯉꯝꯂꯔꯣꯏ	-11.1109
▁ꯑꯥꯔꯊ	-11.1111
▁ꯁꯥꯎꯍꯟꯈꯤ	-11.1117
ꯃꯔꯣꯡꯁꯤꯡ	-11.1129
▁ꯍꯦꯂꯤ	-11.1132
▁ꯇꯥꯔꯣ	-11.1135
▁ꯀꯥꯈꯠꯄ	-11.1138
ꯆꯝꯅ	-11.116
▁ꯃꯤꯅꯦꯁꯣꯇꯥ	-11.1161
▁ꯃꯥꯁꯥꯆꯨꯁꯦꯠꯁ	-11.1161
▁ꯍꯥꯔꯕꯔꯗꯇ	-11.1161
▁ꯍꯦꯂꯤꯀꯣꯞꯇꯔ	-11.1161
▁ꯑꯔꯖꯦꯟꯇꯤꯅꯥ	-11.1161
▁ꯀꯥꯂꯦꯟꯊꯥꯗ	-11.1161
▁ꯈꯅꯥꯎ	-11.1162
▁ꯁ꯭ꯀꯦꯇꯤꯡ	-11.1164
▁꯱꯹꯸꯴	-11.1164
▁꯱꯹꯴꯹	-11.1164
▁ꯆꯨꯝꯊꯕ	-11.1165
▁ꯈꯥꯏꯅꯈꯤ	-11.1165
▁ꯇꯣꯛꯄꯤꯌꯨ꯫	-11.1166
▁ꯈꯟꯅꯔꯤꯕ	-11.1168
▁꯱꯹꯹꯴	-11.1173
▁ꯑꯣꯏꯔꯝꯂꯣꯏ	-11.1175
ꯅꯥꯏꯠ	-11.1183
ꯇꯥꯛꯍꯟꯕ	-11.1187
▁ꯂꯤꯔꯕ	-11.1187
ꯅꯤꯡꯗꯕ	-11.1201
▁ꯈꯨꯠꯁꯥꯁꯤꯡ	-11.1203
▁ꯍꯟꯗꯛꯇꯤ	-11.1209
▁ꯃꯥꯟꯅꯈꯤ꯫	-11.1211
▁꯱꯹꯵꯸	-11.1211
▁ꯔꯨꯠ	-11.1216
▁ꯅ꯭ꯌꯨꯇꯟ	-11.122
▁ꯈꯜꯂꯤꯕ꯭ꯔꯥ	-11.1226
▁ꯗꯦꯃꯣ	-11.1231
ꯖꯤꯑꯣ	-11.1234
▁ꯔꯤꯑꯣ	-11.1238
▁ꯊꯤꯖꯤꯟꯈꯤ꯫	-11.1239
▁꯶꯴	-11.1246
▁ꯊꯤꯟꯈꯤ	-11.1247
▁ꯊꯥꯖꯒꯅꯤ	-11.1249
▁ꯇꯧꯗꯅꯕ	-11.1257
▁ꯒ꯭ꯔꯦꯁ	-11.1283
꯴꯵	-11.1295
ꯃꯥꯎꯊ	-11.1295
▁ꯁꯥꯟꯅꯄꯣꯠꯁꯤꯡ	-11.1312
▁ꯅꯪꯈꯤꯕ	-11.1317
▁ꯀꯤꯂꯣꯒ꯭ꯔꯥꯝ	-11.1322
▁ꯑꯦꯛꯖꯤꯕꯤꯁꯟ	-11.1322
▁ꯍꯦꯔꯤꯇꯦꯖ	-11.1322
▁ꯊꯥꯡꯁꯥꯡ	-11.1322
▁ꯊꯣꯃꯥꯁ	-11.1323
▁ꯏꯀꯨꯏ	-11.1323
▁ꯌꯦꯂꯣ	-11.1323
▁ꯇꯝꯕꯤꯈꯤ꯫	-11.1323
▁ꯒ꯭ꯔꯥꯍꯝ	-11.1324
▁ꯈꯣꯏꯍꯤ	-11.1325
▁ꯀꯣꯏꯁꯤꯟꯈꯤ	-11.1325
ꯇꯤꯁꯠ	-11.1325
▁ꯂꯦꯟꯅꯩ꯫	-11.1333
▁꯴꯲	-11.1337
▁ꯊꯝꯂꯦ꯫	-11.1345
ꯁꯥꯎ	-11.1346
▁ꯀꯥꯞꯅꯕ	-11.1346
▁ꯆꯠꯅꯍꯟꯕ	-11.1352
▁ꯄꯨꯛꯇ	-11.1355
▁ꯊꯣꯏ	-11.1365
▁ꯍꯥꯏꯖꯔꯤꯕ	-11.1376
▁ꯑꯥꯏꯜ	-11.1377
▁ꯁꯝꯃꯔ	-11.1379
▁ꯆꯨꯝꯗꯦ꯫	-11.1381
▁ꯍꯥꯐ	-11.1387
▁ꯇꯝꯒꯅꯤ꯫	-11.1387
▁ꯎꯪ	-11.1391
▁ꯆꯦꯜꯂꯤꯕ	-11.1392
▁ꯊꯜꯂꯦ	-11.1393
▁ꯁ꯭ꯇꯣꯟ	-11.1394
ꯕꯔꯟ	-11.1394
▁ꯍꯥꯏꯗ꯭ꯔꯣ	-11.14
▁ꯎꯆꯤꯁꯤꯡ	-11.1412
▁ꯀꯣꯃꯥ	-11.1415
▁ꯀꯣꯟꯁꯤꯜꯂꯤ	-11.1416
▁ꯐꯣꯔꯛ	-11.1426
▁ꯊꯣꯟꯕ	-11.1432
▁ꯑꯣꯏꯔꯛꯏ	-11.1433
▁ꯏꯁꯇꯔ	-11.1449
▁ꯋꯤꯡ	-11.1453
▁ꯂꯣꯕꯤ	-11.1455
▁ꯍꯣꯠꯅꯒꯅꯤ	-11.1459
▁ꯆꯥꯈ꯭ꯔꯦ꯫	-11.1466
▁ꯀꯝꯃ꯭ꯌꯨꯅꯤꯁꯠ	-11.1486
▁ꯂꯦꯐꯇꯦꯅꯦꯟꯠ	-11.1486
▁ꯃꯦꯛꯁꯤꯀꯟ	-11.1486
▁ꯄ꯭ꯔꯣꯇꯦꯁꯇꯦꯟꯠ	-11.1486
▁ꯗꯣꯀ꯭ꯌꯨꯃꯦꯟꯠ	-11.1486
▁ꯄ꯭ꯔꯣꯄꯔꯇꯤ	-11.1486
▁ꯑꯍꯛꯄ	-11.1486
▁ꯀ꯭ꯂꯥꯏꯟꯠ	-11.1486
▁ꯗꯥꯎꯟꯂꯣꯗ	-11.1486
▁ꯇꯥꯔꯒꯦꯠ	-11.1486
▁ꯑꯦꯄ꯭ꯂꯥꯏ	-11.1487
▁ꯔꯣꯕꯣꯠ	-11.1487
▁ꯑꯦꯟꯗ꯭ꯔꯨ	-11.1487
▁ꯍꯣꯂꯤꯋꯨꯗ	-11.1487
▁ꯐ꯭ꯂꯣꯔꯦꯟꯁ	-11.1488
▁ꯒ꯭ꯔꯥꯎꯟ	-11.1488
▁ꯑꯣꯏꯒꯗꯕꯅꯤ	-11.1489
▁ꯁ꯭ꯄꯦꯁꯤꯑꯦ	-11.149
▁ꯒ꯭ꯔꯥꯃꯔ	-11.1491
▁ꯅꯦꯇꯤꯕ	-11.1496
▁ꯆꯠꯇꯕ	-11.1496
▁ꯁ꯭ꯀꯣꯔ	-11.1497
▁ꯆꯨꯔꯕꯗꯤ	-11.1502
▁ꯄꯥꯡꯉꯤ	-11.1503
▁ꯌꯥꯖꯈꯤ	-11.1509
▁ꯄꯥꯝꯖꯈꯤ	-11.1509
▁ꯌꯩꯈꯤ꯫	-11.1516
▁꯱꯹꯹꯵	-11.1519
▁ꯆꯥꯎꯔꯛꯈꯤ	-11.1521
▁ꯍꯟꯗꯣꯛꯅꯕ	-11.1526
▁ꯄꯤꯒꯗꯕꯅꯤ	-11.1533
▁ꯄꯣꯜꯂꯤ	-11.1542
▁ꯔꯦꯞ	-11.1544
▁ꯎꯔꯕꯗꯤ	-11.1544
▁ꯍꯥꯏꯈꯤꯗ꯭ꯔꯥ	-11.1551
▁ꯋꯤꯂꯤꯌꯝꯁ	-11.1552
▁ꯌꯣꯠ	-11.1552
▁ꯂꯥꯛꯀꯗꯧꯔꯤ	-11.1558
▁ꯅꯥꯇꯩ	-11.156
▁ꯑꯀꯥꯏ	-11.1561
▁ꯊꯝꯂꯝ	-11.1562
▁ꯂꯣꯏꯈꯤ꯫	-11.1566
▁ꯂꯨꯊꯔ	-11.1568
▁ꯄꯥꯡꯂꯤꯕ	-11.1575
▁ꯁ꯭ꯀ꯭ꯔꯤꯞ	-11.1577
▁ꯕ꯭ꯔꯥꯟ	-11.1579
▁ꯚꯨ	-11.1582
▁ꯀꯕꯤ	-11.1585
▁ꯌꯨꯝꯊꯛꯇ	-11.1599
▁ꯄꯥꯏꯔꯤꯕ	-11.1611
▁ꯍꯥꯏꯈꯤꯕꯗꯨ	-11.1611
▁ꯈꯨꯏ	-11.1614
ꯣꯏꯗ	-11.1624
▁ꯐꯖꯗꯦ	-11.1629
▁ꯐꯦꯔ	-11.163
▁ꯅꯛꯅꯩ	-11.1634
▁ꯐ꯭ꯂꯦꯁ	-11.1635
▁ꯄꯨꯔꯛꯎ	-11.1649
▁ꯄꯥꯈꯠꯂꯨꯗꯅꯨ꯫	-11.1653
▁꯱꯹꯵꯷	-11.1653
▁ꯎꯇꯨꯞ	-11.1653
▁ꯗꯤꯖꯔꯠ	-11.1653
▁ꯅꯨꯡꯖꯥꯎ	-11.1655
▁ꯆꯠꯂꯝ	-11.1655
▁ꯄꯔꯁꯅꯦꯜ	-11.1655
▁ꯁ꯭ꯇꯗꯤ	-11.1656
▁꯱꯹꯳꯹	-11.1656
▁ꯒꯦꯂꯤꯂꯤ	-11.1657
▁ꯄꯥꯝꯂꯕꯁꯨ	-11.1659
▁ꯊꯧꯒꯠꯂꯤ꯫	-11.1663
▁ꯋꯥꯌꯦꯜꯂꯣꯏ	-11.1665
▁ꯂꯩꯇꯥꯗꯕ	-11.1665
꯷꯱	-11.1665
▁ꯀ꯭ꯔꯦꯖꯤ	-11.1669
▁ꯂꯣꯠꯄ	-11.167
▁ꯒ꯭ꯂꯥꯁꯒꯣ	-11.1671
▁ꯊꯥꯗꯣꯛꯏ	-11.1672
▁ꯄꯜꯂꯝ	-11.1675
▁ꯃꯔꯨꯞꯁꯤꯡꯕꯨ	-11.1678
▁ꯄ꯭ꯔꯣꯁꯦꯁꯔ	-11.1678
▁ꯁꯦꯡꯗꯣꯛꯅꯕ	-11.1681
▁ꯆꯨꯔꯛꯄ	-11.1682
▁꯱꯹꯸꯶ꯇ	-11.1684
▁ꯂꯩꯈꯤꯗ꯭ꯔꯤꯉꯩ	-11.1685
▁ꯔꯣꯖꯔ	-11.1691
▁ꯂꯨꯞꯈꯤ	-11.1691
▁ꯊꯥꯗꯣꯛꯈꯤꯕꯅꯣ	-11.1701
▁ꯁ꯭ꯇꯤꯕ	-11.1706
▁ꯉꯛꯈꯤ	-11.1706
▁ꯄꯥꯡꯂꯤ	-11.1731
▁ꯉꯥꯛꯊꯣꯛꯈꯤ	-11.1738
▁ꯍꯣꯔꯟ	-11.174
▁ꯅꯤꯡꯉꯝ	-11.1747
▁ꯉꯝꯗ꯭ꯔꯕ	-11.1757
▁ꯍꯥꯏꯈꯤꯕꯒꯨꯝꯅ	-11.176
▁ꯅꯤꯡꯁꯤꯡꯂꯤ	-11.1763
꯶꯸	-11.1774
▁ꯁ꯭ꯇꯣꯔꯤ	-11.1795
▁ꯐꯦꯂꯣ	-11.1811
▁ꯆꯥꯝꯃ	-11.1817
▁ꯈꯨꯗꯣꯡ	-11.1822
▁ꯑꯥꯔꯀꯤꯇꯦꯛꯆꯔ	-11.1823
▁ꯒꯣꯜꯇꯦꯟꯗꯔ	-11.1823
▁ꯂꯣꯖꯤꯀꯦꯜ	-11.1823
▁ꯄꯦꯟꯁꯤꯜꯚꯦꯅꯤꯌꯥ	-11.1823
▁ꯈꯧꯔꯥꯡ	-11.1823
▁ꯑꯦꯕꯣꯔꯤꯖꯤꯅꯦꯜ	-11.1823
▁ꯚꯦꯟꯀꯨꯕꯔ	-11.1823
▁꯱꯹꯵꯹	-11.1823
▁ꯍꯤꯕ꯭ꯔꯨ	-11.1823
▁ꯂꯥꯏꯑꯣꯡ	-11.1823
▁ꯀꯥꯎꯆꯇ	-11.1823
▁ꯁ꯭ꯇ꯭ꯔꯣꯕꯦꯔꯤ	-11.1823
▁꯳꯴	-11.1823
▁ꯃꯍꯥ	-11.1823
▁ꯍꯛꯆꯤꯟ	-11.1825
ꯤꯒꯗ꯭ꯔꯥ	-11.1825
▁ꯂꯥꯟꯗꯥꯔꯛꯄ	-11.1829
▁ꯈꯨꯅꯥꯏ	-11.1831
▁ꯁꯟꯗꯣꯛꯏ꯫	-11.1831
▁ꯄꯤꯕꯤꯔꯛꯄ	-11.1832
▁ꯁꯦꯔꯦ	-11.1832
ꯌꯥꯡ	-11.1832
▁ꯁꯤꯖꯤꯟꯅꯔꯤ꯫	-11.1836
▁ꯄꯦꯇꯤ	-11.184
ꯊꯥꯡ	-11.1841
▁ꯐ꯭ꯔꯦꯁ	-11.1843
ꯗꯣꯡ	-11.185
▁ꯀꯣꯄꯔ	-11.1853
▁ꯀꯃꯥꯟꯗ	-11.1853
▁ꯕꯦꯇ꯭ꯔꯤ	-11.1855
ꯈꯛꯇꯪ	-11.1861
▁ꯌꯦꯡꯂꯤꯕꯅꯣ	-11.1867
▁ꯌꯣꯔ	-11.1867
▁ꯈꯪꯅꯔꯛꯈꯤ	-11.1884
▁ꯂꯦꯞꯍꯟꯕ	-11.189
▁ꯍꯤꯡꯅꯕꯒꯤꯗꯃꯛ	-11.189
▁ꯀꯥꯏꯍꯟꯈꯤ	-11.1899
▁ꯍꯣꯠꯅꯅꯕ	-11.19
▁ꯈꯪꯖ	-11.1905
▁ꯃꯨꯟ	-11.1908
꯭ꯌꯥꯟ	-11.1909
▁ꯂꯣꯛꯄ	-11.1914
ꯆꯥꯎꯊꯣꯛꯍꯟ	-11.194
▁ꯇ꯭ꯔꯤꯛ	-11.1951
▁ꯀ꯭ꯔꯤꯁꯇꯤ	-11.1952
▁ꯄ꯭ꯔꯥ	-11.1954
▁ꯀꯃꯥꯟꯗꯔ	-11.1965
▁ꯅꯨꯡꯉꯥꯏꯔꯕ	-11.1966
▁ꯄꯣꯊꯥꯈꯤ	-11.1973
ꯕ꯭ꯂꯦ	-11.1981
▁ꯐ꯭ꯔꯥꯟꯁꯤꯁ	-11.1988
▁ꯑꯣꯗꯤꯑꯣ	-11.1992
▁ꯃꯣꯟꯇ꯭ꯔꯤꯌꯦꯜ	-11.1995
▁ꯒꯣꯁꯄꯦꯜ	-11.1995
▁ꯕꯇꯤꯁꯇꯥ	-11.1995
▁ꯃꯁꯨꯅꯨꯄꯥ	-11.1995
▁ꯗꯤꯁꯇ꯭ꯔꯤꯕ꯭ꯌꯨꯁꯟ	-11.1995
▁ꯃꯣꯡꯐꯝ	-11.1995
▁ꯈꯨꯚꯝ	-11.1995
▁ꯁꯣꯗꯨꯞ	-11.1995
▁ꯃꯤꯔꯦꯞ	-11.1995
▁ꯏꯔꯥꯡ	-11.1995
▁ꯀꯦꯔꯤꯕꯤꯌꯟ	-11.1995
▁ꯄꯣꯂꯤꯇꯤꯀꯦꯜ	-11.1997
▁ꯉꯝꯍꯟꯈꯤꯗꯦ	-11.1997
▁ꯅꯤꯡꯈꯥꯏ	-11.1997
▁ꯑꯦꯛꯇꯤꯡ	-11.2001
▁ꯁ꯭ꯇꯣꯠꯁꯤꯡ	-11.2001
▁ꯑꯦꯛꯁꯦꯟꯠ	-11.2002
▁ꯄꯥꯡꯊꯣꯛꯂꯤ꯫	-11.2005
▁ꯋꯥꯠꯂꯤ꯫	-11.2006
▁ꯔꯣꯀꯦꯠ	-11.2006
▁ꯄꯨꯈꯠꯄ	-11.2009
▁ꯇꯔꯨꯛꯁꯨꯕ	-11.2014
▁ꯃꯅꯤꯜ	-11.2015
▁ꯍꯣꯔꯔ	-11.202
▁ꯂꯣꯀꯦꯜ	-11.2024
▁ꯁꯥꯅꯈꯤ	-11.2026
▁ꯁꯟꯁꯥ	-11.2028
▁ꯂꯧꯁꯤꯟꯅꯕ	-11.2028
▁ꯆꯣꯡꯊꯣꯛ	-11.2031
▁ꯇꯦꯂꯔ	-11.2033
▁ꯀꯣꯂꯣꯟ	-11.2044
▁ꯊꯛꯈꯤ	-11.2049
▁ꯇꯝꯃꯤ	-11.2056
▁ꯁꯥꯡꯗꯣꯛ	-11.2058
▁ꯁꯣꯛꯍꯟ	-11.2069
ꯒꯥꯋꯥ	-11.2072
ꯍꯦꯝ	-11.2077
▁ꯐꯒꯠꯂꯛꯀꯅꯤ	-11.2082
▁ꯅꯥꯄꯨ	-11.2087
ꯁꯤꯡꯊꯣꯏꯕ	-11.2088
▁ꯃꯈꯨ	-11.2099
ꯇ꯭ꯔꯕꯁꯨ	-11.2104
ꯃꯦꯇ꯭ꯔꯤꯛ	-11.2106
▁ꯆꯣꯛꯊꯔꯦ	-11.2117
꯸꯴	-11.2117
ꯊꯣꯏ	-11.2124
ꯇꯨꯔ	-11.2126
ꯍꯥꯟ	-11.2128
▁ꯉꯝꯂꯝ	-11.2129
▁ꯀꯥꯆꯤꯟ	-11.2131
▁ꯆꯠꯊꯣꯛꯄ	-11.2132
▁ꯐꯪꯉꯤ	-11.2133
▁ꯑꯥꯎ	-11.2138
ꯄꯦꯖ	-11.2146
▁ꯀ꯭ꯌꯣꯇꯣ	-11.2148
ꯁ꯭ꯄꯦꯁ	-11.2149
▁ꯊꯥꯗꯅꯕ	-11.2157
▁ꯁꯦꯟꯇꯤꯃꯤꯇꯔ	-11.217
▁ꯃꯤꯁꯤꯁꯤꯄꯤ	-11.217
▁ꯐꯤꯂꯤꯄꯤꯟ	-11.217
▁꯱꯹꯳꯳	-11.217
▁ꯇꯨꯔꯅꯥꯃꯦꯟꯠ	-11.217
▁ꯁꯦꯗ꯭ꯌꯨꯜ	-11.217
▁ꯂꯒꯦꯖ	-11.217
▁ꯁꯤꯃꯤꯇ꯭ꯔꯤ	-11.217
▁ꯖꯔꯅꯦꯜ	-11.217
▁ꯑꯦꯗꯋꯔꯗ	-11.2171
▁꯲꯰꯱꯰ꯗ	-11.2171
▁ꯁꯤꯖꯟꯅꯔꯤꯕ	-11.2171
▁ꯅꯦꯆꯨꯔꯦ	-11.2171
▁ꯑꯣꯏꯔꯛꯇ꯭ꯔꯦ	-11.2171
▁ꯇ꯭ꯔꯥꯟꯁꯄꯣꯔꯠ	-11.2172
▁ꯆꯠꯇ꯭ꯔꯕꯗꯤ	-11.2175
▁ꯒꯔꯜ	-11.2175
▁ꯁꯥꯏꯃꯟ	-11.2178
▁ꯄꯔꯁꯤꯌꯟ	-11.2178
▁ꯁꯦꯐꯇꯤ	-11.2184
▁ꯂꯧꯈꯠꯂꯒ	-11.2185
▁ꯃꯥꯁꯛ	-11.22
▁ꯊꯝꯈꯤꯕꯒꯦ	-11.2202
▁ꯋꯥꯡꯈꯠ	-11.2219
ꯀꯗꯧꯔꯤ꯫	-11.2224
▁ꯕ꯭ꯂꯨꯁ	-11.2225
▁ꯇꯦꯟꯠ	-11.223
▁ꯌꯨꯅꯤꯚꯔꯁꯀꯤ	-11.2234
▁ꯖꯥꯇꯤ	-11.2241
ꯐꯠꯇ	-11.2257
▁ꯃꯥꯌꯣꯛꯅꯈꯤ	-11.2257
▁ꯇꯣꯡꯂꯤꯕ	-11.2263
▁ꯀꯦꯝꯄꯁ	-11.2265
▁ꯍꯣꯡꯒꯅꯤ	-11.2265
▁ꯆꯥꯎꯈꯠꯍꯟꯕ	-11.2267
▁ꯆꯨꯞꯅꯕ	-11.2269
▁ꯅꯣꯛꯅꯕ	-11.2271
▁ꯊꯦꯡꯊꯔꯛꯀꯅꯤ	-11.2271
▁ꯄꯥꯈꯠꯂꯦ	-11.2278
▁ꯆꯠꯂꯝꯕ	-11.2294
▁ꯂꯧꯊꯣꯛꯀꯅꯤ	-11.2301
▁꯱꯹꯹꯳	-11.2307
▁ꯖꯦꯐ	-11.2314
▁ꯐꯥꯖꯤꯟꯈꯤ	-11.2315
▁ꯍꯧꯔꯕ	-11.2317
▁ꯍꯦꯟꯒꯠꯂꯛꯀꯅꯤ	-11.2318
▁ꯄꯥꯡꯊꯣꯛꯏ	-11.232
▁ꯇꯥꯊꯤ	-11.2321
▁꯱꯹꯸꯶	-11.2321
▁ꯋꯥꯜꯠ	-11.2325
ꯤꯔꯒꯗ꯭ꯔꯥ	-11.2345
▁ꯖꯥꯠ	-11.2348
▁ꯀꯦꯚꯦꯟꯗꯤꯁ	-11.2349
▁ꯃꯦꯗꯤꯇꯔꯔꯦꯅꯤꯌꯟ	-11.2349
▁ꯏꯆꯥꯅꯨꯄꯥ	-11.2349
▁ꯑꯣꯁꯇ꯭ꯔꯦꯂꯤꯌꯟ	-11.2349
▁ꯑꯦꯁꯇ꯭ꯔꯣꯅꯣꯠ	-11.2349
▁ꯑꯦꯔꯤꯖꯣꯅꯥ	-11.2349
▁ꯔꯤꯖꯣꯔꯠ	-11.2349
▁ꯔꯦꯗꯤꯌꯦꯁꯟ	-11.2349
▁ꯈ꯭ꯔꯥꯏꯁ	-11.2349
▁ꯑꯣꯔꯦꯒꯣꯟ	-11.2349
▁ꯒꯣꯔꯗꯟ	-11.2349
▁ꯁꯦꯜꯁꯤꯌꯁ	-11.2349
▁ꯅꯤꯡꯖꯕ	-11.2349
▁ꯍꯣꯝꯇꯥꯎꯟ	-11.235
▁ꯂꯣꯖꯤꯛ	-11.235
▁ꯗ꯭ꯔꯤꯝ	-11.235
▁ꯄꯖꯜ	-11.2351
▁ꯈꯨꯟꯗꯥꯐꯝ	-11.2352
▁ꯍꯧꯔꯛꯂꯦ꯫	-11.2355
▁ꯕ꯭ꯌꯨꯔꯣ	-11.2356
▁ꯍꯣꯠꯅꯔꯕꯗꯤ	-11.2358
▁ꯌꯥꯗꯅ	-11.2359
▁ꯉꯥꯜꯂꯤ꯫	-11.2359
▁ꯂꯤꯃꯤꯠ	-11.236
▁ꯈꯟꯗꯅ	-11.2363
ꯗꯛꯁꯟ	-11.2364
▁ꯇꯥꯈꯤꯗꯦ	-11.2366
▁ꯋꯥꯔꯅꯤꯡ	-11.2366
▁ꯇꯦꯇꯨ	-11.2367
▁ꯁꯛꯏ꯫	-11.2367
▁ꯀꯦꯟꯁꯁ	-11.2374
▁ꯍꯥꯞꯅꯕ	-11.2374
▁ꯌꯦꯛ	-11.2377
▁ꯆꯠꯅꯩ꯫	-11.2378
▁ꯁꯤꯔꯤꯌꯥ	-11.2381
▁ꯁꯦꯡꯗꯦ	-11.2381
▁ꯁꯦꯡꯗꯕ	-11.2382
▁ꯀꯅꯥꯒꯤꯅꯣ	-11.2385
▁ꯂꯦꯗꯔ	-11.2387
▁ꯀꯦꯅꯦꯜ	-11.2389
▁ꯐ꯭ꯌꯨꯜ	-11.2394
ꯋꯤꯡ	-11.2394
▁ꯀ꯭ꯂꯣꯖ	-11.2403
▁ꯍꯤꯡꯒꯅꯤ	-11.2405
▁ꯁꯤꯖꯤꯟꯅꯗꯦ꯫	-11.2407
ꯈꯪ	-11.2411
▁꯱꯶꯰	-11.2418
▁ꯀꯤꯡꯗꯝ	-11.2423
▁ꯄꯥꯎꯗꯔ	-11.2423
▁ꯉꯥꯏꯍꯟꯈꯤ	-11.2429
▁ꯈꯟꯈꯤꯕ꯭ꯔꯥ	-11.2432
▁ꯂꯥꯟꯗꯥꯈꯤ	-11.2433
▁ꯀꯣꯟꯁꯤꯟ	-11.2433
ꯕꯣꯔꯟ	-11.246
▁ꯀꯣꯂꯣ	-11.2468
ꯈ꯭ꯔꯒꯅꯤ	-11.247
▁ꯆꯦꯟꯊꯔꯛꯈꯤ	-11.2476
▁ꯕꯛ	-11.2484
▁ꯐꯪꯍꯟꯈꯤ	-11.2507
▁ꯀꯞꯄꯤ	-11.252
ꯆꯪ	-11.2521
▁ꯆꯦꯛꯁꯤꯟꯕꯤꯒꯗꯕꯅꯤ	-11.2529
▁ꯀꯟꯇꯤꯅꯦꯟꯇꯦꯜ	-11.2531
▁ꯁ꯭ꯇꯦꯇꯤꯁꯇꯤꯀꯦꯜ	-11.2531
▁ꯅꯣꯔꯊꯋꯦꯁꯠ	-11.2531
▁ꯋꯤꯁꯀꯟꯁꯤꯟ	-11.2531
▁ꯏꯟꯗꯣꯅꯦꯁꯤꯌꯥ	-11.2531
▁꯱꯹꯴꯸	-11.2531
▁ꯂꯩꯕꯥꯛꯄꯣꯛꯄ	-11.2531
▁ꯄ꯭ꯂꯦꯑꯣꯐ	-11.2531
▁ꯑꯦꯅꯂꯥꯏꯁꯤꯁ	-11.2531
▁ꯇꯦꯂꯦꯟꯠ	-11.2531
▁ꯁꯥꯒꯩ	-11.2531
ꯂꯥꯏꯖꯦꯁꯟ	-11.2531
▁ꯀꯣꯁꯋꯔꯊ	-11.2531
▁ꯖꯣꯍꯥꯟ	-11.2532
▁ꯂꯥꯏꯔꯦꯝꯕꯤ	-11.2535
▁ꯍꯧꯔꯁꯤ	-11.2535
ꯍꯨꯝ	-11.2535
▁ꯇꯨꯀꯥꯏ	-11.2535
▁ꯄ꯭ꯔꯤꯟꯁꯦꯁ	-11.2537
▁꯵꯵	-11.2546
▁ꯀꯦꯔꯣꯜ	-11.2546
▁ꯑꯣꯏꯗꯅ	-11.2558
▁ꯆꯦꯔꯤꯇꯤ	-11.2566
▁ꯃꯥꯏꯀꯦꯜꯁ	-11.2566
▁ꯖꯤꯑꯣꯃꯦꯇ꯭ꯔꯤ	-11.2575
▁ꯇꯥꯏꯝꯁ	-11.2575
▁ꯅꯥꯔꯝꯃꯤ꯫	-11.259
▁ꯈꯟꯈ꯭ꯔꯦ꯫	-11.2593
▁ꯀꯥꯏꯈꯤꯕ	-11.2601
▁ꯃꯍꯧꯁꯥꯒꯨꯝꯅ	-11.2608
▁ꯇꯣꯡꯗꯨꯅ	-11.2612
▁ꯄꯥꯝꯂꯝꯕ	-11.2613
▁ꯍꯦꯟꯒꯠꯂꯛꯏ	-11.262
▁ꯃꯦꯅꯨ	-11.263
ꯒ꯭ꯔꯥꯐꯤꯛ	-11.2664
ꯑꯗꯨꯕꯨ	-11.2666
▁ꯈꯟꯖꯩ	-11.2669
ꯃꯈꯣꯏ	-11.267
ꯇꯥꯏꯞ	-11.2705
ꯑꯗꯨꯒ	-11.2713
▁ꯀ꯭ꯂꯥꯏꯃꯦꯠ	-11.2716
▁ꯊꯦꯡꯒꯥꯏꯅꯕ	-11.2716
▁ꯐꯤꯂꯣꯁꯣꯐꯔ	-11.2716
▁ꯔꯤꯄꯕ꯭ꯂꯤꯀꯟ	-11.2716
▁ꯕ꯭ꯔꯤꯐꯀꯦꯁ	-11.2716
ꯑꯦꯟꯁꯥꯏꯀ꯭ꯂꯣꯄꯦꯗꯤꯌꯥ	-11.2716
▁ꯚꯤꯖꯤꯅꯥ	-11.2716
▁ꯀ꯭ꯂꯔꯛ	-11.2716
▁ꯀꯟꯀ꯭ꯔꯤꯠ	-11.2716
▁ꯕꯥꯂꯨꯀꯥꯁ	-11.2716
▁ꯊꯣꯛꯇꯕ	-11.2716
▁ꯀꯟꯇ꯭ꯔꯤꯕ꯭ꯌꯨ	-11.2716
▁ꯈꯪꯂꯝꯂꯕꯗꯤ	-11.2717
▁ꯗ꯭ꯔꯦꯒꯟ	-11.2719
▁ꯕ꯭ꯂꯣꯒ	-11.2719
ꯃꯔꯁꯤꯌꯦꯜ	-11.2719
▁ꯁꯦꯟꯖꯥ	-11.272
▁ꯃꯄꯨꯅꯨꯄꯤ	-11.2721
▁ꯄꯥꯝꯗ꯭ꯔꯕꯁꯨ	-11.2721
▁ꯇꯥꯟꯅꯩ꯫	-11.2721
▁ꯊꯛꯇꯦ꯫	-11.2724
▁ꯏꯟꯀꯝ	-11.2725
▁ꯄꯣꯛꯐꯝ	-11.2726
▁ꯍꯣꯂꯤꯗꯦ	-11.2727
▁ꯀꯤꯕꯣꯔꯗ	-11.2727
▁ꯂꯥꯛꯂꯕꯗꯤ	-11.2731
▁ꯆꯠꯊꯔꯛꯄ	-11.274
▁꯲꯰꯰꯷	-11.2742
▁ꯇꯣꯛꯄ	-11.2747
▁ꯈꯟꯅꯔꯝꯃꯤ꯫	-11.2749
▁ꯅꯤꯁꯥ	-11.2762
▁ꯆꯥꯔꯠꯇ	-11.2764
▁ꯊꯦꯡꯊꯈꯤ	-11.2765
▁ꯃꯨꯊꯠꯈꯤ	-11.2766
▁ꯊꯥꯖꯔꯝꯕ	-11.277
▁ꯍꯟꯊꯍꯜꯂꯤ	-11.2774
▁ꯍꯧꯒꯠꯅꯕ	-11.2774
▁ꯀꯨꯝꯖꯥ	-11.2778
▁ꯕꯣꯕꯤ	-11.2801
▁ꯄꯤꯒꯅꯨ꯫	-11.2805
▁ꯁꯟꯗꯣꯛꯈꯤ	-11.2805
▁ꯆꯥꯛꯆꯥ	-11.2815
▁ꯂꯣꯏꯒꯅꯤ	-11.2817
ꯚ꯭ꯌꯨ	-11.2831
▁ꯀꯣꯟꯁꯤꯟꯈꯤ	-11.2834
ꯗꯥꯎꯟ	-11.2867
▁ꯇꯧꯔꯝꯂꯣꯏꯗꯕꯅꯤ	-11.2902
▁ꯏꯟꯐꯦꯛꯁꯟ	-11.2905
▁ꯃ꯭ꯌꯨꯖꯤꯀꯦꯜ	-11.2905
▁ꯐ꯭ꯔꯟꯠ	-11.2905
▁ꯔꯦꯚꯣꯂꯨꯁ	-11.2905
▁ꯕꯦꯅꯣꯏꯠ	-11.2905
▁ꯚꯔꯖꯤꯅꯤꯌꯥ	-11.2905
▁꯱꯹꯲꯳	-11.2905
▁꯱꯹꯷꯶ꯇ	-11.2905
▁ꯃꯨꯕꯃꯦꯟꯠ	-11.2905
▁ꯏꯀꯪ	-11.2905
▁ꯗ꯭ꯌꯨꯇꯤ	-11.2905
▁꯲꯰꯱꯳ꯗ	-11.2905
▁ꯄꯔꯐꯦꯛ	-11.2905
▁ꯆꯤꯟꯗꯣꯡ	-11.2905
▁ꯇ꯭ꯔꯥꯕꯦꯜ	-11.2906
▁ꯄꯤꯔꯛꯎ꯫	-11.2906
▁ꯏꯟꯗꯁꯇ꯭ꯔꯤꯌꯦꯜ	-11.2907
▁ꯕꯤꯜꯕꯣꯔꯗ	-11.2907
▁ꯏꯀꯥꯏꯈꯨꯝꯅꯩ꯫	-11.2908
▁ꯊꯤꯟꯕ	-11.2908
▁ꯀꯔꯦꯟꯠ	-11.2912
▁ꯆꯨꯔꯣ	-11.2921
▁ꯍꯧꯒꯗꯒꯦ	-11.2924
▁ꯁꯨꯔꯦ	-11.2924
▁ꯆꯣꯛꯏ꯫	-11.2928
▁ꯊꯣꯛꯂꯛꯂꯤ꯫	-11.2928
▁ꯄꯨꯟꯁꯤꯟꯅꯗꯨꯅ	-11.293
▁ꯄꯣꯀꯔ	-11.2932
▁ꯅꯥꯔꯛꯈꯤ	-11.294
▁ꯍꯥꯏꯕꯤꯔꯛꯄ	-11.2941
▁ꯊꯛꯂꯤ꯫	-11.2942
▁ꯍꯧꯗꯣꯛꯈꯤꯕ	-11.2945
▁ꯂꯥꯛꯁꯤꯟꯅꯕ	-11.2947
▁ꯆꯪꯂꯦ꯫	-11.2948
▁ꯁꯦꯡꯗꯣꯛꯈꯤ꯫	-11.2951
꯱꯷	-11.2959
▁ꯆꯦꯟꯈꯤꯕ	-11.2967
▁ꯁꯨꯔꯛꯄ	-11.2979
▁ꯂꯩꯅꯔꯤꯕ	-11.298
꯲꯴	-11.2989
▁ꯇꯨꯝꯈꯤꯗꯦ꯫	-11.2992
ꯋꯥꯇꯔ	-11.2996
▁ꯆꯠꯍꯟꯕ	-11.3014
▁ꯐ꯭ꯂꯤ	-11.3015
▁ꯕ꯭ꯔꯨꯁ	-11.3016
▁ꯌꯦꯁ	-11.3018
ꯊꯔꯛꯈꯤ	-11.3029
ꯐ꯭ꯂꯥꯏ	-11.3047
ꯑꯣꯍ	-11.3049
▁ꯀꯥꯏꯍꯟꯕ	-11.3053
▁ꯍꯥꯛ	-11.3069
▁ꯂꯨꯍꯣꯡꯒꯅꯤ	-11.3071
▁ꯇꯨꯝꯂꯝꯃꯤ	-11.3076
▁ꯇꯧꯔꯣꯏꯗꯕ	-11.3078
▁ꯊꯣꯛꯂꯕ	-11.3092
▁ꯀꯅꯦꯛꯇꯤꯀꯠ	-11.3097
▁ꯄꯣꯇꯦꯟꯁꯤꯌꯦꯜ	-11.3097
▁ꯏꯟꯐꯣꯕꯣꯛꯁ	-11.3097
▁ꯑꯦꯗꯃꯤꯅꯤꯁꯇ꯭ꯔꯦꯁꯟ	-11.3097
▁ꯂꯐꯣꯏ	-11.3097
▁ꯄ꯭ꯔꯥꯏꯃꯔꯤ	-11.3097
▁ꯀꯂꯦꯛꯁꯟ	-11.3097
▁ꯁꯤꯝꯞꯁꯟ	-11.3097
▁ꯃꯦꯗꯤꯁꯤꯟ	-11.3097
▁ꯃꯨꯛꯇꯥ	-11.3097
▁ꯗꯦꯟꯃꯥꯔꯛ	-11.3097
▁ꯂꯣꯟꯆꯠ	-11.3097
ꯄ꯭ꯔꯨꯐ	-11.3098
▁ꯂꯨꯊꯅ	-11.3098
▁ꯀ꯭ꯔꯤꯀꯦꯠ	-11.31
▁ꯋꯔꯛꯁ	-11.3101
▁ꯏꯔꯨꯖꯐꯝ	-11.3102
▁ꯊꯥꯡꯊꯩ	-11.3102
▁ꯍꯥꯏꯐꯥꯎ	-11.3108
▁ꯁꯔꯀꯜ	-11.3109
▁ꯍꯟꯊꯔꯦ꯫	-11.3111
▁ꯀꯦꯅꯟ	-11.3114
▁ꯋꯦꯗꯔ	-11.3115
▁ꯁꯤꯖꯤꯟꯅꯒꯗꯕꯅꯤ	-11.3116
▁ꯍꯧꯒꯠꯂꯤ꯫	-11.3118
▁ꯅꯨꯡꯉꯥꯏꯍꯜꯂꯤ꯫	-11.3118
▁ꯕ꯭ꯔꯥꯖꯤꯜ	-11.312
▁ꯄ꯭ꯔꯤꯁꯠ	-11.3122
▁ꯃꯆꯥꯎ	-11.3133
ꯀꯨꯏꯗ	-11.3135
▁ꯏꯄꯨꯅ	-11.3136
▁ꯐꯪꯍꯟꯅꯕ	-11.3138
▁ꯀꯣꯟꯁꯤꯟꯕ	-11.3153
▁ꯃꯥꯡꯍꯟꯒꯅꯤ꯫	-11.3157
▁ꯊꯦꯡꯈꯤ꯫	-11.3175
▁꯳꯶	-11.3177
▁ꯂꯥꯈ	-11.3178
▁ꯇꯧꯍꯜꯂꯤ	-11.3193
▁ꯂꯣꯏꯅꯈꯤ	-11.3204
▁ꯈꯠꯅ	-11.3224
▁ꯌꯥꯍꯟꯒꯅꯤ	-11.3231
▁ꯑꯣꯂꯤꯕ	-11.3237
▁꯶꯰꯰	-11.324
▁ꯊꯧꯑꯣꯏ	-11.3251
▁ꯉꯝꯍꯜꯂꯤ	-11.3272
▁ꯁ꯭ꯀꯥꯔ	-11.3278
ꯉꯣꯟ	-11.3288
▁ꯕꯪꯒ꯭ꯂꯥꯗꯦꯁ	-11.3293
▁ꯂꯨꯍꯨꯞ	-11.3293
▁ꯐ꯭ꯔꯟꯇꯤꯌꯔ	-11.3293
▁ꯑꯣꯔꯊꯣꯗꯣꯛꯁ	-11.3293
▁ꯑꯣꯕꯖꯔꯕꯦꯁꯟ	-11.3293
▁ꯑꯦꯛꯁꯆꯦꯟꯖ	-11.3293
▁ꯒ꯭ꯂꯦꯁꯤꯌꯔ	-11.3293
▁ꯖ꯭ꯋꯥꯔ	-11.3293
▁ꯃꯂꯦꯁꯤꯌꯥ	-11.3293
▁ꯄꯦꯔꯤꯌꯗ	-11.3293
▁ꯐꯦꯗꯔꯦꯁꯟ	-11.3293
▁ꯀꯟꯇꯦꯟꯠ	-11.3293
▁ꯇꯦꯅꯦꯁꯤ	-11.3293
▁ꯊ꯭ꯔꯦ	-11.3293
▁ꯀꯥꯔꯇꯨꯟ	-11.3293
▁ꯐ꯭ꯔꯦꯟꯗꯂꯤ	-11.3293
▁ꯁꯦꯀꯦꯟꯗꯔꯤ	-11.3294
▁ꯂꯥꯏꯆꯠ	-11.3294
▁ꯑꯦꯗꯋꯥꯔꯗ	-11.3295
▁ꯁꯥꯏꯐꯔ	-11.3297
▁꯱꯹꯵꯴	-11.3298
ꯖꯥꯎ	-11.3298
▁ꯆꯥꯎꯈꯠꯂꯛꯂꯤ꯫	-11.3298
▁ꯃꯣꯟꯁꯇꯔ	-11.3298
▁ꯁꯨꯄ꯭ꯔꯤ	-11.3299
▁ꯔꯤꯋꯥꯔꯗ	-11.33
▁ꯆꯠꯀꯅꯨ	-11.3301
▁ꯆꯠꯀꯗ꯭ꯔꯥ	-11.3301
▁ꯍꯩꯇꯦ꯫	-11.3301
▁ꯌꯥꯍꯜꯂꯣꯏ	-11.3308
▁ꯊꯝꯒꯗꯒꯦ	-11.3309
▁ꯌꯣꯡ	-11.331
▁ꯁꯧ	-11.3312
▁ꯀꯃꯦꯟꯠ	-11.3315
▁ꯀꯣꯛꯍꯟꯅꯕ	-11.3316
▁ꯍꯜꯂꯛꯂꯦ꯫	-11.3317
▁ꯁꯦꯡꯏ꯫	-11.3317
▁ꯇꯝꯂꯤꯕ	-11.3319
ꯆꯦꯁꯇꯔ	-11.3323
▁ꯀꯛꯊꯠꯅꯕ	-11.3333
▁ꯂꯥꯁꯠ	-11.3351
▁ꯁꯔꯕꯦ	-11.3356
▁ꯋꯦꯇꯔ	-11.3357
꯳꯴	-11.3367
▁ꯇꯝꯕꯤꯔꯤ	-11.3373
▁꯲꯰꯱꯱ꯒꯤ	-11.3375
ꯃꯤꯅꯦꯁꯟ	-11.3386
▁ꯂꯥꯟꯊꯦꯡꯅꯩ	-11.3389
▁ꯌꯦꯡꯁꯤꯟꯒꯗꯕꯅꯤ	-11.3398
▁ꯇꯥꯟꯈꯤ	-11.3404
ꯒꯠꯄ	-11.3405
ꯁꯦꯝꯖꯤꯟ	-11.3443
ꯒꯥꯔꯗ	-11.3449
▁ꯈꯣꯝꯒꯠ	-11.3459
ꯇ꯭ꯔꯦꯟ	-11.346
▁ꯆꯦꯛꯁꯤꯟꯕꯤꯌꯨ	-11.3462
▁ꯄ꯭ꯔꯗꯛ	-11.3489
ꯒ꯭ꯂꯥ	-11.3492
▁ꯇꯦꯡꯕꯥꯡ	-11.3493
▁ꯗꯥꯏꯑꯣꯛꯁꯥꯏꯗ	-11.3493
▁ꯃꯤꯅꯤꯁꯇ꯭ꯔꯤ	-11.3493
▁ꯇꯣꯌꯣꯇꯥ	-11.3493
▁ꯍꯤꯡꯍꯧꯕ	-11.3493
▁ꯇꯔꯥꯇꯔꯦꯠ	-11.3493
▁ꯆꯦꯄꯦꯜ	-11.3493
▁ꯑꯦꯔꯦꯅꯥ	-11.3493
▁ꯕꯦꯛꯇꯦꯔꯤꯌꯥ	-11.3494
▁ꯃꯥꯏꯊꯤꯔꯕ	-11.3495
▁ꯐ꯭ꯔꯦꯡꯛꯂꯤꯟ	-11.3495
▁ꯁ꯭ꯋꯤꯗꯤꯁ	-11.3495
▁ꯃꯤꯊꯣꯂꯣꯖꯤ	-11.3495
▁ꯅꯔꯚꯁ	-11.3495
▁ꯃꯆꯤ	-11.3497
▁ꯂꯤꯕꯔꯦꯜ	-11.3497
▁ꯈꯜꯂꯣꯏ꯫	-11.3498
▁꯱꯹꯱꯹	-11.3498
▁ꯇꯨꯝꯂꯤꯉꯩꯗ	-11.35
▁ꯗꯦꯕꯤꯜ	-11.3501
▁ꯂꯤꯕꯤꯡ	-11.3503
▁ꯆꯦꯟꯊꯔꯛꯄ	-11.3505
▁ꯍꯨꯒꯣ	-11.3512
▁ꯎꯠꯇꯨ	-11.3514
ꯇꯤꯁꯇꯤꯛ	-11.3519
▁ꯑꯦꯟꯇꯣꯅꯤ	-11.3519
▁ꯊꯤꯡꯒꯗꯕꯅꯤ꯫	-11.3521
▁ꯇꯧꯅꯗꯕ	-11.3526
▁ꯐꯖꯈꯤꯗꯦ꯫	-11.353
▁ꯂꯥꯟꯊꯦꯡꯅꯅꯕ	-11.3533
▁ꯀꯧꯔꯝꯃꯤ	-11.3538
▁ꯂꯧꯅꯔꯝꯃꯤ	-11.3538
ꯍꯩꯔꯕ	-11.354
▁ꯂꯣꯒꯣ	-11.354
▁ꯏꯇꯂꯤ	-11.3551
▁ꯎꯅꯈꯤꯗꯦ꯫	-11.3564
▁ꯊꯣꯛꯀꯗꯧꯔꯤꯕ	-11.3565
▁ꯀꯧꯒꯅꯤ	-11.3572
▁ꯂꯥꯎꯊꯣꯛꯂꯤ	-11.3579
▁ꯐ꯭ꯂꯤꯠ	-11.3582
ꯊꯛꯅꯕ	-11.3582
▁ꯆꯤꯞ	-11.3583
▁ꯄꯣꯛꯏ	-11.3587
▁ꯆꯣꯏ	-11.3606
ꯅꯧ꯫	-11.3633
▁ꯑꯣꯟꯈꯤ	-11.3639
▁ꯁꯧꯒꯠꯈꯤ	-11.3649
ꯈꯥꯎ	-11.3654
▁ꯁꯥꯟꯅꯩ	-11.3661
▁꯱꯹꯹꯱	-11.3693
▁ꯂꯥꯛꯀꯅꯨ	-11.3693
▁꯱꯹꯰꯰	-11.3695
▁ꯀ꯭ꯋꯥꯟꯇꯝ	-11.3697
▁ꯁ꯭ꯇꯨꯗꯦꯟꯠ	-11.3697
▁ꯃꯦꯊꯃꯦꯇꯤꯀꯦꯜ	-11.3697
▁ꯃꯦꯊꯃꯦꯇꯤꯁꯤꯌꯟ	-11.3697
▁ꯆꯝꯄ꯭ꯔꯥ	-11.3697
▁ꯍꯣꯠꯅꯖꯃꯜ	-11.3697
▁ꯑꯦꯂꯤꯃꯦꯟꯇꯔꯤ	-11.3697
▁ꯕ꯭ꯔꯥꯎꯖꯔ	-11.3697
▁ꯗꯤꯕꯦꯂꯞꯃꯦꯟꯠ	-11.3697
▁ꯗꯤꯛꯇꯦꯇꯔ	-11.3697
▁ꯕꯦꯖꯃꯦꯟꯠꯇ	-11.3697
▁ꯃꯦꯀꯥꯅꯤꯛ	-11.3697
▁ꯑꯕꯇꯥꯔ	-11.3697
▁ꯉꯥꯜꯂꯝꯃꯤ꯫	-11.3697
▁ꯇꯔꯥꯃꯔꯤ	-11.3697
▁ꯃꯤꯆꯦꯜ	-11.3697
▁ꯐꯨꯠꯅꯣꯠ	-11.3697
▁ꯑꯥꯔꯀꯥꯏꯕ	-11.3697
▁ꯀꯟꯗꯤꯁꯟ	-11.3698
▁ꯕꯨꯂꯦꯠ	-11.3698
▁ꯍꯦꯂꯣꯋꯤꯟ	-11.3698
▁ꯂꯩꯌꯨ꯫	-11.3698
▁ꯊꯤꯡꯖꯤꯜꯂꯤ꯫	-11.3698
▁ꯄ꯭ꯂꯤ	-11.3699
▁ꯇꯥꯔꯛꯈꯤ	-11.37
▁ꯈꯨꯝꯅꯩ꯫	-11.37
▁ꯄꯥꯏꯁꯤꯟꯕꯤꯌꯨ꯫	-11.3701
▁ꯊꯧꯁꯤꯜ	-11.3705
▁ꯌꯧꯔꯦ꯫	-11.3705
▁ꯂꯥꯛꯇꯦ꯫	-11.3706
▁ꯊꯦꯡꯊꯔꯦ꯫	-11.3706
▁ꯍꯤꯠꯂꯔ	-11.3708
▁ꯂꯣꯏꯗ꯭ꯔꯤꯉꯩ	-11.3711
▁ꯍꯣꯠꯅꯒꯅꯨ꯫	-11.3714
ꯊꯨꯝꯖꯥ	-11.3716
▁ꯂꯥꯎꯏ꯫	-11.372
▁ꯑꯦꯀꯥꯗꯦꯃꯤꯛ	-11.373
▁ꯍꯦꯜꯊ	-11.3732
▁ꯏꯇꯥꯂꯤ	-11.3733
▁ꯁꯥꯔꯤꯕꯅꯣ	-11.3738
▁ꯂꯤꯐ	-11.3749
▁ꯎꯈꯤꯗ꯭ꯔꯤ	-11.375
▁ꯑꯦꯛꯇꯔ	-11.3751
▁ꯒꯤꯌꯔ	-11.3753
꯲꯷	-11.3757
ꯐ꯭ꯌꯨ	-11.3759
▁ꯀꯦꯅꯗꯤꯌꯟꯁ	-11.3767
▁ꯈꯨꯖꯤꯟ	-11.3794
▁ꯊꯦꯡꯊꯒꯅꯤ	-11.382
▁ꯗꯥꯟꯁ	-11.383
▁ꯌꯣꯜꯂꯤ	-11.3841
▁ꯉꯥꯛꯄꯤꯈꯤ	-11.3844
ꯆꯥꯎꯊꯣꯛꯍꯟꯈꯤ	-11.3846
▁ꯆꯨꯝꯊꯣꯛ	-11.3852
▁ꯚꯤꯅꯁ	-11.3854
▁ꯇꯨꯀꯠꯆꯩ	-11.3855
▁꯲꯰꯰꯸	-11.3867
ꯇꯝꯕꯤꯈꯤ	-11.3873
▁ꯑꯦꯛꯁꯤꯁ	-11.3876
▁꯵꯱	-11.3883
▁ꯐꯖꯔꯦ	-11.3885
▁ꯐꯣꯇꯣꯒ꯭ꯔꯥꯐ	-11.3889
ꯅꯨꯡꯉꯥꯏ	-11.3893
▁ꯊꯦꯡꯅꯔꯤꯕ	-11.3898
▁ꯏꯚꯣꯂꯨꯁꯅ	-11.3905
▁ꯃꯣꯖꯥꯔꯠ	-11.3905
▁ꯃꯦꯀꯥꯅꯤꯀꯦꯜ	-11.3905
▁ꯍꯦꯃꯤꯜꯇꯟ	-11.3905
▁ꯔꯤꯚꯣꯂꯨꯁꯟ	-11.3905
▁ꯕꯣꯏꯐꯔꯦꯟꯗ	-11.3905
▁ꯐꯣꯔꯀꯥꯁꯠ	-11.3905
▁ꯑꯣꯕꯥꯃꯥ	-11.3905
▁ꯂꯤꯚꯤꯡ	-11.3906
▁ꯐꯤꯜꯍꯥꯔꯃꯣꯅꯤꯛ	-11.3906
▁ꯆꯦꯞꯇꯔ	-11.3906
▁ꯂꯦꯝꯍꯧ	-11.3906
▁ꯗꯣꯜꯐꯤꯟ	-11.3906
▁ꯁꯤꯖꯕ	-11.3907
▁ꯃ꯭ꯌꯨꯅꯤꯛ	-11.3909
▁꯱꯹꯱꯷	-11.3909
▁ꯏꯂꯤꯅꯣꯏ	-11.3913
▁ꯆꯠꯊꯩ꯫	-11.3913
▁ꯅꯥꯏꯖꯕ	-11.3914
▁ꯅꯥꯏꯇ꯭ꯔꯣ	-11.3917
▁ꯂꯣꯏꯅꯩ꯫	-11.3917
▁ꯕꯤꯇꯜꯁ	-11.3917
▁ꯆꯥꯔꯇꯔ	-11.3922
▁ꯑꯅꯤꯃꯨꯛ	-11.3923
▁ꯁ꯭ꯇ꯭ꯔꯥ	-11.393
▁ꯁꯤꯖꯤꯟꯅꯒꯅꯤ	-11.3937
ꯂꯝꯂꯕꯗꯤ	-11.3938
ꯃꯣꯗꯔꯟ	-11.3939
▁ꯊꯤꯡꯖꯤꯟꯈꯤꯕ	-11.396
▁ꯊꯛꯂꯒ	-11.3964
▁ꯗ꯭ꯔꯥꯏ	-11.3967
▁ꯆꯪꯍꯟꯅꯕ	-11.397
▁ꯊꯧꯒꯜ	-11.3989
▁ꯑꯍꯜꯂꯦ	-11.3999
▁ꯂꯪꯊꯣꯛꯄ	-11.4028
▁ꯑꯦꯔꯤꯁ	-11.4033
▁ꯇꯨꯔꯛꯈꯤ	-11.4042
ꯚꯣꯔ	-11.4061
▁ꯈꯪꯂꯛꯏ	-11.4068
ꯑꯩꯉꯣꯟꯗ	-11.4069
ꯥꯏꯠ	-11.4071
▁ꯄꯥꯝꯅꯩ	-11.4087
▁ꯌꯣꯟꯈꯤꯕ	-11.4089
▁ꯊꯥꯖꯗꯅ	-11.4111
▁ꯑꯦꯗꯚꯔꯇꯥꯏꯖ	-11.4113
ꯂꯨꯄꯥ	-11.4117
▁ꯍꯥꯏꯔꯁꯅꯨ꯫	-11.4118
▁ꯑꯁꯣꯟꯕ	-11.4118
▁ꯑꯥꯔꯃꯦꯅꯤꯌꯟ	-11.4118
▁ꯗꯤꯖꯥꯏꯅꯔ	-11.4118
▁꯱꯹꯴꯲	-11.4118
▁ꯄꯦꯡꯒ꯭ꯋꯤꯟ	-11.4118
▁ꯑꯌꯦꯛꯄ	-11.4118
▁ꯑꯥꯔꯃꯦꯅꯤꯌꯥ	-11.4118
▁ꯍꯣꯔꯥꯏꯖꯟ	-11.4118
▁ꯚꯦꯛꯁꯤꯟ	-11.4118
▁ꯄꯥꯁꯋꯔꯗ	-11.4118
▁ꯐꯣꯔꯦꯁꯠ	-11.4118
▁ꯑꯜꯐꯥꯕꯦꯠ	-11.4118
▁ꯌꯨꯔꯦꯅꯁ	-11.4118
▁ꯗꯤꯃꯥꯟꯗ	-11.4119
▁ꯁ꯭ꯇꯦꯇꯤꯁꯇꯤꯛꯁ	-11.4121
▁ꯐꯜꯁꯤꯡ	-11.4122
▁ꯊꯥꯖꯔꯨꯗꯦ	-11.4122
▁ꯇꯦꯛꯈꯥꯏ	-11.4123
▁ꯄ꯭ꯌꯨ	-11.4124
▁꯱꯹꯱꯴	-11.4126
▁ꯔꯦꯁꯂꯤꯡ	-11.4127
▁ꯑꯜꯞꯁ	-11.413
▁ꯌꯥꯗ꯭ꯔꯕ	-11.4132
ꯂꯥꯔꯗ	-11.4133
▁ꯕꯔꯖꯟ	-11.4134
▁ꯑꯣꯟꯊꯣꯛꯏ꯫	-11.4134
▁ꯑꯐ꯭ꯔꯤꯀꯥꯟ	-11.4139
▁ꯎꯔꯨꯝ	-11.4141
▁ꯊꯦꯡꯅꯔꯤ꯫	-11.4143
▁ꯑꯟꯅꯥ	-11.4147
▁ꯈꯪꯗ꯭ꯔꯤꯉꯩ	-11.4147
▁ꯂꯦꯐꯠ	-11.415
▁꯴꯸	-11.415
▁ꯄꯣꯈꯥꯏꯈꯤ꯫	-11.4151
▁ꯇꯣꯁꯠ	-11.4156
▁ꯐꯦꯌꯔ	-11.4162
▁꯴꯳	-11.417
▁ꯇꯧꯔꯝꯗꯦ	-11.4177
ꯚꯣꯏ	-11.4219
▁ꯇ꯭ꯋꯤꯟ	-11.4221
▁꯱꯲꯰	-11.4232
▁ꯑꯦꯂꯦꯛꯁ	-11.4232
▁ꯐ꯭ꯂꯦꯃꯤ	-11.4251
▁ꯃꯥꯌꯣꯛꯅꯔꯤ	-11.4257
▁ꯇꯣꯈꯥꯏꯈꯤ	-11.4271
▁ꯅꯝꯊꯈꯤ	-11.4276
▁ꯇꯉꯥꯏꯐꯗꯦ	-11.4282
▁ꯆꯨꯔꯛꯀꯅꯤ	-11.4284
ꯑꯩꯍꯥꯛꯅ	-11.4286
ꯅꯨꯡꯁꯥ	-11.4288
▁ꯊꯝꯃꯨ	-11.429
ꯀꯔꯤꯒꯨꯝꯕ	-11.4298
ꯤꯌꯜ	-11.431
▁ꯁꯣꯚꯤꯌꯦꯠ	-11.4336
▁ꯄ꯭ꯂꯦꯁ꯭ꯇꯦꯁꯟ	-11.4336
▁ꯄ꯭ꯔꯦꯁꯤꯗꯦꯟꯁꯤ	-11.4336
▁ꯑꯦꯗꯚꯥꯟꯁ	-11.4336
▁ꯑꯦꯟꯚꯦꯂꯞ	-11.4336
▁ꯔꯤꯐ꯭ꯌꯨꯖꯤ	-11.4336
▁ꯚꯥꯔꯖꯤꯅꯤꯌꯥ	-11.4336
▁ꯂꯝꯕꯣꯏꯕ	-11.4336
▁ꯃꯤꯆꯤꯒꯟ	-11.4336
▁ꯇꯦꯂꯦꯁꯀꯣꯞ	-11.4336
▁ꯇꯦꯔꯣꯔꯤꯁꯠ	-11.4336
▁ꯍꯦꯗꯀ꯭ꯋꯥꯇꯔ	-11.4336
▁ꯑꯦꯝꯕꯨꯂꯦꯟꯁ	-11.4336
▁ꯔꯦꯖꯣꯂꯨꯁꯟ	-11.4336
▁ꯗꯦꯇꯥꯕꯦꯖ	-11.4336
▁ꯇꯥꯏꯕꯪꯄꯥꯟ	-11.4336
▁꯱꯹꯰꯱	-11.4336
▁ꯈꯪꯂꯝꯗꯦ꯫	-11.4336
▁ꯑꯦꯃꯦꯆꯔ	-11.4336
▁ꯀꯟꯇꯦꯁꯠ	-11.4336
▁ꯖꯁꯇꯤꯁ	-11.4336
▁ꯑꯥꯏꯑꯣꯟꯁꯤꯡ	-11.4336
▁꯱꯹꯲꯰ꯒꯤ	-11.4336
▁ꯕꯦꯂꯨꯟ	-11.4336
▁ꯏꯐꯨꯠ	-11.4336
▁ꯔꯦꯐꯔꯤ	-11.4336
▁ꯄ꯭ꯔꯥꯏꯕꯦꯠ	-11.4336
▁ꯅꯣꯔꯃꯦꯜ	-11.4337
▁ꯆꯠꯁꯤꯟꯁꯤ	-11.4338
▁ꯇ꯭ꯔꯥꯟꯁꯐꯔ	-11.4338
▁ꯄꯣꯛꯃꯣꯟ	-11.4338
▁ꯑꯦꯗꯚꯔꯇꯥꯏꯖꯤꯡ	-11.434
▁꯱꯹꯲꯵	-11.434
▁ꯅꯩꯅꯈꯤ	-11.4341
▁꯱꯹꯳꯸	-11.4341
▁ꯃꯣꯔꯅꯤꯡ	-11.4342
▁ꯇꯥꯟꯖꯥ	-11.4342
▁ꯅꯝꯊꯥ	-11.4349
▁ꯐꯣꯇꯣꯒ꯭ꯔꯥꯐꯔ	-11.435
▁ꯍꯣꯃꯔ	-11.435
▁ꯇꯧꯗ꯭ꯔꯤꯕꯅꯣ	-11.4354
▁ꯊꯨꯝꯖꯤꯟꯈꯤ	-11.4356
▁ꯆꯪꯁꯤꯟꯅꯕ	-11.4356
▁ꯅꯥꯀꯜ	-11.4365
▁ꯂꯩꯉꯥꯛꯂꯤꯕ	-11.4368
▁ꯏꯀꯥꯏꯈꯨꯝꯅꯔꯕ	-11.4379
▁ꯈꯪꯍꯜꯂꯨ	-11.4398
▁ꯊꯛꯀꯅꯨ	-11.4399
▁ꯁ꯭ꯇ꯭ꯔꯦꯟ	-11.4401
▁ꯂꯥꯡꯂꯤꯕ	-11.4401
▁ꯑꯌꯦꯡꯕ	-11.4422
ꯊꯪꯅꯅ	-11.4424
▁ꯆꯪꯂꯤꯕ	-11.4433
▁ꯗꯥꯏꯃꯟ	-11.4434
▁ꯋꯤꯜꯁꯟ	-11.4434
▁ꯇꯣꯄꯤ	-11.449
ꯁ꯭ꯀꯨꯜ	-11.4508
ꯃꯔꯥꯡ	-11.4513
ꯆꯤꯛꯄ	-11.4522
▁ꯅꯤꯡꯁꯤꯡꯂꯒꯅꯤ	-11.4522
▁ꯊꯥꯗꯣꯛꯈ꯭ꯔꯦ	-11.453
▁ꯂꯣꯠꯈꯤ	-11.455
▁ꯀꯣꯂꯣꯔꯥꯗꯣ	-11.4558
▁ꯄꯣꯀꯦꯃꯣꯟ	-11.4558
▁ꯄ꯭ꯔꯗ꯭ꯌꯨꯁꯔ	-11.4558
▁ꯍꯔꯀ꯭ꯌꯨꯂꯁ	-11.4558
▁ꯑꯉꯝꯕ	-11.4558
▁ꯑꯦꯝꯕꯦꯁꯦꯗꯔ	-11.4558
▁ꯖꯦꯔꯨꯁꯂꯦꯝ	-11.4558
▁ꯗꯤꯄꯣꯖꯤꯠ	-11.4558
▁꯱꯹꯵꯱	-11.4558
▁ꯁ꯭ꯇ꯭ꯔꯤꯞ	-11.4558
▁ꯔꯤꯃꯣꯠ	-11.4558
▁ꯍꯤꯡꯆꯥꯕ	-11.4558
▁ꯀꯣꯔꯣꯔ	-11.4558
▁ꯁ꯭ꯀꯣꯂꯔꯁꯤꯞ	-11.4559
▁ꯂꯤꯑꯣꯅꯤꯁ	-11.4559
▁ꯈꯨꯊꯥꯡ	-11.4559
▁ꯂꯥꯛꯀꯗ꯭ꯔꯥ	-11.4564
▁ꯉꯥꯜꯂꯕ	-11.4564
▁ꯁ꯭ꯄꯦꯛꯇ꯭ꯔ	-11.4564
▁ꯇꯥꯎꯔꯦ꯫	-11.4566
▁ꯆꯨꯝꯂꯕ꯭ꯔꯥ	-11.457
▁ꯌꯣꯜꯂꯤꯕ	-11.4572
▁ꯂꯣꯏꯁꯤꯟꯗ꯭ꯔꯤ꯫	-11.4574
▁ꯚꯤꯟꯁ	-11.4575
▁ꯆꯥꯔꯣꯜ	-11.4575
▁ꯍꯨꯏꯅꯥꯎ	-11.4576
▁ꯆꯦꯝꯄꯤꯌꯟꯁꯤꯞꯀꯤꯗꯃꯛ	-11.4579
▁ꯊꯦꯡꯊꯩ	-11.4581
▁ꯄꯥꯡꯂꯣꯏ꯫	-11.4582
▁ꯁꯤꯟꯐꯝ	-11.4583
ꯥꯏꯇꯤꯁ	-11.4589
▁ꯏꯂꯦꯛꯇ꯭ꯔꯣꯟ	-11.4589
▁ꯇꯝꯂꯤꯉꯩ	-11.4594
▁ꯈꯠꯅꯈꯤ	-11.4621
▁ꯌꯦꯡꯗꯅ	-11.4628
ꯤꯡꯒꯦꯟ	-11.4635
▁꯱꯷꯰	-11.4643
▁ꯌꯥꯎꯈꯤꯗꯦ	-11.4655
ꯀ꯭ꯔꯤꯞꯠ	-11.4662
▁ꯕ꯭ꯔꯁ	-11.4676
▁ꯊꯥꯗꯣꯛꯂꯒ	-11.4679
▁ꯄꯥꯡꯈꯤꯗꯦ	-11.4691
ꯔꯛꯀꯅꯨ	-11.4694
▁ꯇꯧꯊꯣꯛꯄ	-11.4697
▁ꯃꯥꯌꯥ	-11.4698
▁ꯔꯦꯟꯖꯔꯁ	-11.4705
ꯅꯦꯆꯔꯦꯜ	-11.4718
ꯤꯇ꯭ꯌꯨꯗ	-11.4755
▁ꯀꯨꯞꯈꯤ	-11.4762
▁ꯁ꯭ꯄꯣꯔ	-11.4774
▁ꯏꯖꯤꯞꯇ	-11.4785
▁ꯀꯟꯚꯦꯛꯁꯟ	-11.4785
▁ꯀ꯭ꯔꯣꯃꯣꯖꯣꯝ	-11.4785
▁ꯃꯦꯖꯣꯔꯤꯇꯤ	-11.4785
▁ꯃꯦꯛꯃꯍꯣꯟ	-11.4785
▁ꯄꯣꯔꯇꯨꯒꯜ	-11.4785
▁ꯄ꯭ꯔꯣꯒ꯭ꯔꯥꯃꯤꯡ	-11.4785
▁ꯅꯤꯀꯦꯂꯣꯗꯤꯌꯟ	-11.4785
▁ꯅꯥꯏꯁꯃꯤꯊ	-11.4785
▁ꯊꯧꯋꯣꯏ	-11.4785
▁ꯑꯦꯂꯤꯖꯥꯕꯦꯊ	-11.4785
▁ꯔꯦꯁꯜꯃꯦꯅꯤꯌꯥ	-11.4785
▁ꯗꯣꯛꯇ꯭ꯔꯤꯟ	-11.4785
▁ꯑꯦꯕꯦꯅ꯭ꯌꯨ	-11.4785
▁ꯖꯦꯅꯦꯚꯥ	-11.4785
▁ꯃꯥꯌꯨꯀꯣ	-11.4785
▁ꯀ꯭ꯔꯁꯠ	-11.4785
▁ꯕꯤꯗꯤꯑꯣ	-11.4785
▁ꯈꯣꯏꯁꯥꯎꯅ	-11.4785
▁ꯍꯤꯡꯒꯠꯂꯛ	-11.4785
▁ꯍꯥꯏꯌꯨ꯫	-11.4786
▁ꯍꯤꯁꯇꯣꯔꯤ	-11.4786
▁ꯆꯨꯖꯥꯛ	-11.4786
▁ꯏꯇꯥꯂꯤꯌꯟ	-11.4786
▁ꯑꯃꯈꯛꯅꯤ꯫	-11.4787
▁ꯌꯣꯔꯛꯁꯥꯌꯔ	-11.4788
▁ꯀ꯭ꯂꯥꯁꯤꯐꯤꯀꯦꯁꯟ	-11.4788
▁ꯈꯪꯅꯤꯡꯉꯤ꯫	-11.4789
▁ꯗꯔꯕꯤ	-11.4789
▁ꯌꯥꯅꯤꯡꯗꯦ꯫	-11.479
▁ꯅꯧꯔꯤꯕ	-11.479
▁ꯒ꯭ꯔꯣꯕꯔ	-11.4791
▁ꯅꯣꯛꯂꯤꯕꯅꯣ	-11.4793
▁ꯍ꯭ꯌꯨꯃꯦꯟ	-11.4793
▁ꯃꯦꯟꯇꯜ	-11.4793
▁ꯁꯥꯒꯠꯂꯦ꯫	-11.4794
▁ꯁꯤꯜꯕꯔ	-11.4797
▁ꯂꯦꯅꯟ	-11.48
▁ꯎꯠꯊꯣꯛꯄ	-11.4802
▁ꯇꯧꯔꯣꯏꯗ꯭ꯔꯥ	-11.4803
▁ꯔꯦꯀꯦꯠ	-11.4803
▁ꯍꯦꯟꯒꯠꯍꯟꯒꯅꯤ	-11.4804
▁ꯆꯥꯎꯈꯠꯍꯟꯅꯕ	-11.4805
▁ꯄꯔꯗꯥ	-11.4805
▁ꯊꯤꯡꯂꯤ꯫	-11.4813
▁ꯐꯪꯒꯗꯒꯦ	-11.4816
▁ꯕꯦꯗꯦꯟ	-11.4817
▁ꯑꯦꯅꯤꯃꯦꯁꯟ	-11.4849
ꯈꯣꯠꯄ	-11.4855
▁ꯄꯣꯔꯠꯂꯦꯟ	-11.4871
ꯏꯀꯣꯂꯣꯖꯤꯀꯦꯜ	-11.4878
▁ꯌꯥꯍꯟꯒꯗꯕꯅꯤ	-11.4897
▁꯲꯵꯰	-11.4933
▁꯲꯰꯰꯹	-11.4961
▁ꯁꯥꯎꯅꯤꯡꯉꯤ	-11.4964
ꯃꯊꯪ	-11.4974
ꯑꯦꯛꯇꯤꯕ	-11.4981
▁ꯏꯂꯦꯛꯇ꯭ꯔꯣ	-11.4984
ꯣꯂꯣꯖꯤꯀꯦꯜ	-11.5009
▁ꯊꯥꯏꯂꯦꯟ	-11.5009
▁꯱꯹꯳꯶	-11.5018
▁ꯀ꯭ꯋꯥꯂꯤꯐꯥꯏ	-11.5018
▁ꯁꯤꯌꯦꯇꯜ	-11.5018
▁ꯁꯥꯏꯀ꯭ꯂꯤꯡ	-11.5018
▁ꯁ꯭ꯃꯦꯛꯗꯥꯎꯟ	-11.5018
▁ꯃꯤꯁꯇꯦꯔꯤꯑꯣ	-11.5018
▁ꯑꯐꯒꯥꯅꯤꯁꯇꯥꯟ	-11.5018
▁ꯑꯥꯔꯀꯤꯑꯣꯂꯣꯖꯤ	-11.5018
▁ꯔꯦꯐ꯭ꯔꯤꯖꯔꯦꯇꯔ	-11.5018
▁ꯂꯦꯞꯊꯣꯛꯅꯕ	-11.5018
▁ꯏꯟꯁꯇꯣꯜ	-11.5018
▁ꯗꯥꯏꯃꯤꯇꯔ	-11.5018
▁ꯖꯦꯐꯔꯁꯟ	-11.5018
▁ꯄꯦꯇ꯭ꯔꯣꯜ	-11.5018
▁ꯔꯦꯁꯤꯄꯤ	-11.5018
▁ꯇꯥꯡꯖꯕ	-11.5018
▁ꯑꯦꯊꯦꯟꯁ	-11.5018
▁ꯀꯝꯄ꯭ꯔꯦꯁ	-11.5018
▁ꯉꯥꯡꯅꯔꯤꯕ	-11.502
▁ꯇꯥꯔꯝꯃꯤ	-11.5021
▁꯱꯹꯳꯴	-11.5021
▁ꯏꯀꯣꯅꯣꯃꯤꯛꯁ	-11.5022
▁ꯍꯜꯂꯛꯇ꯭ꯔꯤꯕ	-11.5024
▁ꯄ꯭ꯔꯤꯟꯠ	-11.5026
▁ꯄꯤꯄꯜꯁ	-11.5027
▁ꯆꯥꯟꯕꯤꯒꯅꯤ꯫	-11.5028
▁ꯁꯔꯀꯁ	-11.5029
▁ꯌꯦꯡꯎ꯫	-11.5031
▁꯱꯹꯱꯰	-11.5032
▁ꯀꯝꯄ꯭ꯔꯃ	-11.5032
▁ꯀꯣꯔꯤꯌꯟ	-11.5041
ꯦꯕꯤꯂꯤꯇꯤ	-11.5042
▁ꯄꯣꯛꯍꯜꯂꯤ	-11.507
▁ꯆꯥꯛꯊꯛ	-11.5104
▁ꯅꯤꯡꯉꯝꯗꯦ	-11.5115
▁ꯚꯦꯅꯤꯁ	-11.5137
▁ꯊꯧꯒꯜꯂꯣꯏ	-11.5173
ꯀꯗꯧꯔꯤꯕ	-11.5177
▁ꯁ꯭ꯄꯦꯁꯀ꯭ꯔꯥꯐ	-11.5215
▁ꯊꯝꯂꯝꯃꯤ	-11.5221
▁ꯂꯥꯏꯔꯦꯝꯕ	-11.525
▁ꯃꯁꯖꯤꯗ	-11.5256
▁ꯄ꯭ꯂꯨꯇꯣ	-11.5256
▁ꯍꯣꯀꯥꯏꯗꯣ	-11.5256
▁ꯏꯟꯗꯤꯄꯦꯟꯗꯦꯟꯠ	-11.5256
▁ꯑꯦꯁꯥꯏꯟꯃꯦꯟꯠ	-11.5256
▁ꯕꯚꯦꯔꯤꯌꯥ	-11.5256
▁ꯗ꯭ꯔꯤꯡꯛ	-11.5256
▁ꯃꯥꯔꯀꯦꯇꯤꯡ	-11.5256
▁ꯔꯤꯖꯅꯦꯜ	-11.5256
▁ꯁ꯭ꯀꯥꯎꯠ	-11.5256
▁ꯄꯤꯁꯇꯣꯜ	-11.5256
▁ꯁꯥꯎꯗꯔꯟ	-11.5256
▁ꯀꯣꯑꯣꯄꯔꯦꯇꯤꯕ	-11.5256
▁ꯑꯜꯐ꯭ꯔꯦꯗ	-11.5256
▁ꯑꯣꯔꯒꯥꯅꯤꯖꯝ	-11.5256
▁ꯃꯦꯃꯣꯔꯤꯌꯦꯜ	-11.5256
▁ꯅꯨꯉꯥꯏ	-11.5256
▁ꯗꯤꯖꯤꯠ	-11.5257
▁ꯀꯣꯄꯤꯔꯥꯏꯠ	-11.5257
ꯍꯥꯎꯁꯦꯟ	-11.5258
▁ꯚꯦꯂ꯭ꯌꯨ	-11.5259
▁ꯆꯤꯡꯖꯥꯎ	-11.5259
▁ꯃꯦꯂꯥꯅꯤ	-11.5259
▁ꯍꯧꯔꯛꯈꯤꯕꯅꯣ	-11.5261
ꯑꯣꯟꯁꯤꯟ	-11.5261
▁ꯂꯨꯊꯕ	-11.5261
▁꯱꯹꯴꯴	-11.5262
▁ꯂꯥꯏꯠꯅꯤꯡ	-11.5264
▁ꯃꯨꯊꯠꯄꯤꯌꯨ꯫	-11.5265
▁ꯄꯤꯠꯆ	-11.5268
▁ꯗꯣꯅꯠ	-11.5268
▁ꯍꯤꯡꯉꯤ	-11.5278
ꯔꯛꯀꯗꯕ	-11.5287
▁ꯕꯦꯜꯖꯤꯌꯝ	-11.5294
▁ꯁ꯭ꯄꯤꯌꯔ	-11.5302
▁ꯆꯨꯞꯁꯤꯜꯂꯤ	-11.5327
▁ꯈꯪꯂꯛꯂꯤ	-11.5339
▁ꯈꯨꯗꯛ	-11.5353
▁ꯅꯦꯆꯔ	-11.5379
▁ꯊꯥꯗꯣꯛꯈ꯭ꯔꯕ	-11.5386
▁ꯕ꯭ꯂ	-11.5387
ꯇꯁꯦꯡꯅ	-11.5451
▁ꯈꯟꯒꯗꯕ	-11.5452
ꯁ꯭ꯇꯥꯏꯜ	-11.5454
▁ꯂꯣꯏꯁꯤꯜꯂꯤ	-11.5471
▁ꯄ꯭ꯔꯨꯁꯤꯌꯥ	-11.55
▁ꯇ꯭ꯔꯥꯏꯑꯦꯡꯒꯜ	-11.55
▁ꯏꯝꯄꯦꯔꯤꯌꯦꯜ	-11.55
▁ꯑꯦꯕꯣꯔꯁꯟ	-11.55
▁ꯑꯦꯕꯣꯠꯇꯥꯕꯥꯗ	-11.55
▁ꯂꯨꯏꯁꯤꯌꯥꯅꯥ	-11.55
▁ꯒ꯭ꯔꯦꯚꯤꯇꯤ	-11.55
▁ꯀꯁꯇꯝ	-11.55
▁ꯁꯥꯠꯄ	-11.55
▁ꯚꯤꯜꯂꯥ	-11.55
▁ꯍꯦꯜꯃꯦꯠ	-11.5502
▁ꯀꯝꯍꯩ	-11.5502
▁ꯀꯣꯕꯦꯗ	-11.5502
▁ꯍ꯭ꯌꯨꯒꯣ	-11.5505
▁꯱꯹꯱꯱	-11.5508
▁ꯍꯤꯜꯇꯟ	-11.551
▁ꯂꯥꯡꯇꯛꯅ	-11.5511
▁ꯊꯤꯡꯕꯤꯌꯨ	-11.5512
▁ꯒꯖꯔ	-11.5514
▁ꯌꯥꯔꯕꯁꯨ	-11.5515
▁ꯈꯟꯂꯤꯕꯅꯣ	-11.5516
▁ꯂꯥꯡꯈꯤꯕ	-11.5517
▁꯸꯰꯰	-11.5524
▁ꯁꯣꯛꯍꯟꯂꯣꯏ	-11.5537
▁ꯐꯒꯠꯂꯛꯈꯤ	-11.5537
▁ꯂꯩꯍꯜꯂ	-11.5545
▁ꯊꯤꯔꯛꯂꯤ	-11.5574
▁ꯂꯩꯇꯥꯗꯅ	-11.5579
▁ꯈꯪꯅꯔꯝꯕ	-11.558
▁ꯑꯥꯔꯝꯁ	-11.5613
▁ꯇꯥꯟꯅꯈꯤ	-11.5653
ꯃꯆꯥ	-11.5701
▁ꯆꯥꯎꯊꯣꯛꯆꯩ	-11.5702
ꯄꯔꯁꯟ	-11.5719
▁ꯅꯤꯡꯊꯝ	-11.5747
▁ꯍꯪꯒꯦꯔꯤ	-11.5749
▁ꯃꯦꯃꯣꯔꯤ	-11.575
▁ꯀ꯭ꯔꯦꯇꯦꯁꯤꯌꯁ	-11.575
▁ꯁꯥꯏꯀ꯭ꯌꯥꯇ꯭ꯔꯤ	-11.575
▁ꯇꯦꯁꯇꯥꯃꯦꯟꯠ	-11.575
▁ꯇꯦꯍꯁꯤꯜ	-11.575
▁ꯑꯔꯀꯥꯟꯁꯥꯁ	-11.575
▁ꯚꯤꯇꯥꯃꯤꯟ	-11.575
▁꯱꯹꯲꯲	-11.575
▁ꯀꯣꯏꯁꯤꯟꯗꯨꯅ	-11.575
▁ꯀ꯭ꯂꯤꯟꯇꯟ	-11.575
▁ꯑꯥꯔꯇꯤꯐꯤꯁꯤ	-11.575
▁ꯗꯥꯏꯅꯦꯁꯇꯤ	-11.575
▁ꯁ꯭ꯇ꯭ꯔꯤꯝ	-11.575
▁ꯄꯣꯠꯂꯨꯝ	-11.575
▁ꯄ꯭ꯔꯣꯐꯦꯠ	-11.575
▁ꯗꯥꯏꯔꯦꯛꯇꯔ	-11.575
▁ꯉꯥꯏꯍꯥꯛ	-11.575
▁ꯔꯦꯜꯔꯣꯗ	-11.575
▁ꯇꯦꯡꯛ	-11.575
▁ꯄꯦꯄꯔꯚ꯭ꯌꯨ	-11.575
▁ꯏꯟꯄꯨꯠ	-11.5751
▁ꯏꯟꯗꯦꯛꯁ	-11.5751
▁ꯊꯨꯝꯍꯠꯄ	-11.5752
▁ꯊꯥꯡꯊꯥꯡ	-11.5752
▁ꯋꯥꯁꯛꯄꯤꯌꯨ	-11.5753
▁ꯑꯣꯕꯟ	-11.5755
▁ꯍꯔꯃꯟ	-11.5755
▁ꯆꯤꯜꯂꯦ	-11.5756
▁ꯑꯣꯔꯒꯟ	-11.5757
▁ꯔꯤꯇꯔꯟ	-11.5759
▁ꯃꯥꯄꯜ	-11.5759
▁ꯑꯜꯐꯥ	-11.5759
▁ꯂꯥꯛꯇꯕ	-11.576
▁ꯁꯔꯀꯦꯠ	-11.5761
▁ꯂꯩꯔꯛꯂꯕ	-11.5763
ꯆꯦꯡꯋꯥꯏ	-11.5777
ꯇ꯭ꯔꯤꯐꯥꯎꯕ	-11.5786
▁ꯁ꯭ꯀꯥꯔꯐ	-11.5812
▁ꯅꯝꯊꯣꯛꯄ	-11.583
▁ꯇꯥꯟꯊꯣꯛꯄ	-11.5832
▁ꯕꯦꯂꯦꯟꯁ	-11.5841
▁ꯍꯜꯂꯛꯏ	-11.5841
▁ꯌꯥꯎꯍꯟꯈꯤ	-11.5875
▁ꯇꯧꯔꯤꯉꯩ	-11.5887
▁ꯍꯣꯠꯅꯧ	-11.5968
ꯣꯃꯤꯇꯔ	-11.5969
ꯂꯣꯖꯤꯒꯤ	-11.5981
ꯣꯒ꯭ꯔꯥꯐ	-11.5982
▁ꯈꯪꯍꯜꯂꯤ	-11.5993
▁ꯀꯦꯊꯦꯗ꯭ꯔꯦꯜ	-11.6006
▁ꯄꯤꯅꯣꯀꯤꯑꯣ	-11.6006
▁ꯄꯨꯛꯀꯩ	-11.6006
▁ꯑꯥꯔꯀꯤꯇꯦꯛꯠ	-11.6006
▁ꯔꯦꯄ꯭ꯔꯦꯖꯦꯟꯇꯦꯇꯤꯕ	-11.6006
▁ꯕꯔꯃꯨꯗꯥ	-11.6006
▁꯱꯹꯵꯳	-11.6006
▁ꯊꯦꯔꯥꯄꯤ	-11.6006
▁꯱꯹꯳꯲	-11.6006
▁ꯅ꯭ꯌꯨꯀ꯭ꯂꯤꯌꯁ	-11.6006
▁ꯇ꯭ꯔꯦꯖꯦꯗꯤ	-11.6006
▁ꯑꯦꯝꯕꯦꯁꯤ	-11.6006
▁ꯑꯦꯗꯃꯟꯗ	-11.6006
▁ꯎꯂꯣꯡ	-11.6006
ꯑꯣꯔꯤꯌꯦꯟꯇꯦ	-11.6006
▁ꯐꯥꯏꯅꯥꯟꯁ	-11.6007
▁ꯃꯁꯝ	-11.6007
▁ꯆꯣꯛꯊꯔꯝꯃꯤ	-11.6007
▁ꯍꯪꯒꯦꯔꯤꯌꯟ	-11.6007
▁ꯅꯦꯜꯁꯟ	-11.6007
▁ꯔꯨꯝꯃꯦꯠ	-11.6008
▁ꯂꯤꯖꯦꯟꯗ	-11.6008
▁ꯖꯦꯅꯔꯥ	-11.6008
▁ꯀꯥꯡꯈꯨꯝ	-11.6008
▁ꯑꯦꯂꯥꯏꯟꯁ	-11.6008
▁ꯂꯤꯛꯂꯥꯏ	-11.6009
▁꯱꯹꯲꯴	-11.601
▁ꯚꯤꯛꯇꯔ	-11.6011
▁ꯅꯣꯛꯅꯤꯡꯕ	-11.6012
▁ꯁꯇꯜ	-11.602
▁ꯂꯥꯟꯊꯦꯡꯅꯔꯤꯕ	-11.605
▁ꯀꯜꯂꯕ	-11.6051
▁ꯊꯜꯍꯟꯈꯤ	-11.6058
▁ꯊꯦꯡꯊꯗꯅ	-11.6064
▁ꯆꯪꯂꯣꯏ	-11.6065
▁ꯊꯣꯛꯈ꯭ꯔꯕ	-11.613
▁ꯈꯪꯍꯧ	-11.6154
ꯑꯃꯦꯔꯤꯀꯥꯟ	-11.622
▁ꯇꯧꯃꯤꯟꯅꯈꯤ	-11.6238
▁ꯅꯝꯕꯤꯌꯨ	-11.6249
▁ꯍꯥꯏꯖꯩ	-11.6255
▁ꯀꯟꯁꯦꯟꯇ꯭ꯔꯦꯁꯟ	-11.6269
▁ꯀ꯭ꯔꯤꯌꯦꯇꯤꯕ	-11.6269
▁ꯃꯦꯒꯅꯤꯇ꯭ꯌꯨꯗ	-11.6269
▁ꯃꯦꯝꯕ꯭ꯔꯦꯟ	-11.6269
▁ꯅꯨꯃꯤꯗꯥꯡꯋꯥꯏꯔꯝꯗ	-11.6269
▁ꯈ꯭ꯋꯥꯡ	-11.6269
▁ꯍꯅꯤꯃꯨꯟ	-11.6269
▁ꯑꯦꯟꯇꯥꯔꯇꯤꯀꯥ	-11.6269
▁ꯕꯔꯃꯤꯡꯍꯝ	-11.6269
▁ꯚꯣꯜꯌꯨꯝ	-11.6269
▁ꯑꯄꯥꯛꯄ	-11.6269
▁ꯔꯤꯚꯤꯖꯟ	-11.6269
▁ꯂꯥꯏꯐꯗꯣꯜ	-11.6269
▁ꯑꯣꯔꯒꯥꯟ	-11.6269
▁ꯗꯕ꯭ꯂꯤꯟ	-11.6269
▁ꯇꯥꯅꯥꯀꯥ	-11.6269
▁ꯇꯦꯝꯄꯔ	-11.6269
▁ꯑꯒꯁ꯭ꯠ	-11.6269
▁ꯄ꯭ꯔꯤꯟꯇꯔ	-11.6269
▁ꯄꯜꯂꯝꯃꯤ꯫	-11.6269
▁ꯄꯦꯇꯦꯟꯠ	-11.6269
▁ꯄ꯭ꯂꯣꯠ	-11.6269
▁ꯁ꯭ꯀꯔꯠ	-11.627
▁ꯍ꯭ꯌꯨꯁꯇꯟ	-11.627
▁ꯇꯨꯡꯏꯟꯒꯅꯤ	-11.627
▁ꯃꯀꯛ	-11.6271
▁ꯔꯦꯕꯤꯠ	-11.6272
▁ꯍꯣꯋꯥꯔꯗ	-11.6272
▁ꯀ꯭ꯔꯤꯁꯇꯜ	-11.6272
▁ꯈꯪꯂꯛꯈꯤꯕꯅꯣ	-11.6273
ꯐ꯭ꯔꯨꯠ	-11.6273
ꯒꯗꯧꯔꯝꯃꯤ	-11.6273
▁ꯍꯣꯠꯅꯔꯤꯉꯩꯗ	-11.6275
▁ꯊꯥꯗꯣꯛꯇ꯭ꯔꯤꯉꯩ	-11.6276
▁ꯂꯧꯊꯣꯛꯎ꯫	-11.6276
▁ꯊꯧꯑꯣꯏꯈꯤꯗꯦ	-11.6311
▁ꯅꯨꯡꯉꯥꯏꯍꯟꯒꯅꯤ	-11.6329
▁ꯇꯨꯡꯁꯤꯜꯂꯤ	-11.6355
▁ꯍꯜꯂꯛꯀꯗꯕꯅꯤ	-11.6364
▁ꯉꯝꯍꯟꯈꯤ	-11.6377
▁ꯐꯥꯎꯍꯜꯂꯤ	-11.646
▁ꯁꯤꯖꯈꯤ	-11.6467
▁ꯋꯤꯟꯗꯣ	-11.6475
▁ꯄ꯭ꯂꯒ	-11.6486
▁ꯁꯥꯗꯥꯟ	-11.6515
▁ꯆꯪꯒꯅꯨ	-11.6532
▁ꯁꯥꯅꯔꯤꯉꯩ	-11.6534
▁ꯀꯥꯎꯟꯁꯤꯂꯔ	-11.654
▁ꯆꯨꯡꯒꯣꯏ	-11.654
▁ꯇꯔꯃꯤꯅꯦꯜ	-11.654
▁ꯑꯊꯦꯟꯕ	-11.654
▁ꯑꯦꯛꯁꯄ꯭ꯂꯣꯔꯔ	-11.654
▁ꯒꯦꯠꯇꯤꯁꯕꯔꯒ	-11.654
▁ꯔꯤꯄꯕ꯭ꯂꯤꯀꯥꯟ	-11.654
▁ꯗꯤꯇ꯭ꯔꯣꯏꯠ	-11.654
▁ꯀꯦꯊꯔꯤꯟ	-11.654
▁ꯃꯊꯣꯜ	-11.654
▁ꯐꯦꯁꯤꯂꯤꯇꯤ	-11.654
▁ꯕ꯭ꯔꯨꯛꯂꯤꯟ	-11.654
▁ꯁ꯭ꯃꯥꯔꯠ	-11.654
▁ꯄ꯭ꯔꯥꯏꯑꯣꯔꯤ	-11.654
▁ꯄ꯭ꯔꯣꯐꯥꯏꯜ	-11.654
▁ꯑꯣꯔꯦꯟꯖ	-11.654
▁ꯆꯦꯟꯁꯦꯂꯔ	-11.654
▁ꯑꯣꯔꯂꯤꯟꯁ	-11.654
▁꯱꯹꯲꯰ꯗ	-11.654
▁ꯂꯝꯖꯥꯎ	-11.6543
▁ꯇꯥꯡꯖꯩ꯫	-11.6544
▁ꯇꯨꯔꯤꯖꯝ	-11.6544
ꯁ꯭ꯀ꯭ꯔꯦ	-11.6551
ꯁꯣꯁꯤꯑꯦ	-11.6552
ꯆꯦꯠꯄ	-11.6559
▁ꯅꯝꯊꯣꯛ	-11.6576
▁ꯍꯥꯏꯔꯝꯒꯅꯤ	-11.6643
▁ꯁꯥꯅꯒꯅꯤ	-11.6667
▁ꯇꯧꯍꯟꯈꯤꯕ	-11.6671
▁ꯊꯤꯡꯖꯤꯟꯒꯅꯤ	-11.6687
▁ꯆꯪꯗꯅ	-11.6712
ꯊꯣꯏꯔꯦ꯫	-11.6718
▁ꯄꯨꯈꯠꯂꯒ	-11.6721
▁ꯑꯣꯏꯗ꯭ꯔꯦ	-11.6736
ꯛꯇ꯭ꯔꯦ꯫	-11.6759
▁ꯀꯨꯞꯁꯤꯜꯂꯤ	-11.6764
ꯄꯣꯏꯟꯠ	-11.6768
ꯍꯧꯖꯤꯛ	-11.6768
▁ꯉꯥꯛꯄꯤꯒꯅꯤ	-11.6804
▁ꯍꯥꯞꯆꯤꯜꯂ	-11.6806
▁ꯀ꯭ꯔꯤꯇꯤꯁꯤꯖꯝ	-11.6817
▁ꯁꯥꯎꯟꯗꯒꯥꯔꯗꯦꯟ	-11.6817
▁ꯃꯔꯀ꯭ꯌꯨꯔꯤ	-11.6817
▁ꯄ꯭ꯔꯖꯦꯟꯇꯦꯁꯟ	-11.6817
▁ꯆꯤꯜꯗ꯭ꯔꯦꯟ	-11.6817
▁ꯇꯣꯔꯅꯦꯗꯣ	-11.6817
▁ꯏꯟꯇꯔꯄ꯭ꯔꯦꯇꯔ	-11.6817
▁ꯐꯤꯖꯤꯁꯤꯁꯠ	-11.6817
▁ꯑꯣꯕꯖꯔꯕꯦꯇꯔꯤ	-11.6817
▁ꯒꯤꯝꯅꯥꯁꯤꯌꯥ	-11.6817
▁ꯒꯦꯕ꯭ꯔꯤꯌꯦꯜ	-11.6817
▁ꯒ꯭ꯔꯦꯖꯨꯑꯦꯁꯟ	-11.6817
▁ꯖꯣꯅꯥꯊꯟ	-11.6817
▁ꯗꯦꯃꯣꯀ꯭ꯔꯦꯠ	-11.6817
▁ꯚꯥꯏꯑꯣꯂꯤꯟ	-11.6817
▁ꯂꯣꯏꯁꯤꯜꯂꯛꯂꯦ꯫	-11.6817
▁ꯄꯊꯥꯞ	-11.6817
▁ꯀꯟꯁꯔꯇꯣ	-11.6817
▁ꯑꯞꯒ꯭ꯔꯦꯗ	-11.6817
▁ꯇꯔꯥꯅꯤꯄꯥꯜ	-11.6817
▁ꯅ꯭ꯌꯨꯇ꯭ꯔꯦꯜ	-11.6817
▁ꯑꯥꯔꯛꯇꯤꯛ	-11.6817
▁ꯏꯀ꯭ꯋꯦꯁꯟ	-11.6817
▁ꯑꯥꯎꯠꯄꯨꯠ	-11.6817
▁ꯑꯄꯥꯕ	-11.6818
▁ꯑꯣꯔꯒꯥꯅꯤ	-11.6818
▁ꯁꯦꯜꯁꯃꯦꯟ	-11.6818
▁ꯅꯦꯄꯜꯁ	-11.6818
ꯅꯨꯡꯑꯣꯟ	-11.6819
▁ꯁ꯭ꯄꯥꯏꯔꯦꯜ	-11.6821
▁ꯅꯣꯔꯃꯟ	-11.6821
▁ꯁ꯭ꯄꯦꯂꯤꯡ	-11.6823
▁ꯏꯁꯣꯔꯅ	-11.6827
▁ꯁꯣꯃꯥꯂꯤ	-11.6839
▁ꯍꯣꯠꯅꯈꯤꯗꯦ	-11.6842
▁ꯏꯟꯁꯇ꯭ꯔꯛꯁꯟ	-11.6843
▁ꯑꯣꯏꯍꯟꯒꯅꯤ	-11.6843
▁ꯀꯧꯔꯤꯕ	-11.6851
ꯐ꯭ꯔꯣ	-11.6881
▁ꯍꯟꯊꯍꯟꯒꯗꯕꯅꯤ	-11.6886
▁ꯁꯨꯔꯝꯃꯤ	-11.6909
▁ꯀꯟꯈꯠꯍꯟ	-11.6917
▁ꯀꯥꯎꯊꯣꯛꯈꯤ	-11.6934
▁ꯈꯪꯅꯔꯛꯂꯤ	-11.6956
▁ꯂꯦꯞꯍꯟꯈꯤ	-11.7001
▁ꯊꯣꯛꯍꯟꯒꯅꯤ	-11.7028
▁ꯑꯣꯁꯥꯀꯥ	-11.7049
▁ꯉꯝꯂꯝꯂꯣꯏ	-11.7055
▁ꯁ꯭ꯋꯤꯃ	-11.7064
▁ꯆꯜꯂ	-11.7093
▁ꯀꯣꯔꯄꯣꯔꯦꯠ	-11.7103
▁ꯁꯩꯔꯥꯡꯈꯤ	-11.7103
▁ꯁ꯭ꯇ꯭ꯔꯦꯁꯦꯃꯟ	-11.7103
▁ꯃꯥꯂꯪ	-11.7103
▁ꯀꯝꯄꯣꯖꯔ	-11.7103
▁ꯑꯣꯍꯥꯏꯑꯣ	-11.7103
▁ꯑꯦꯗꯃꯤꯅꯤꯁꯇ꯭ꯔꯦꯇ	-11.7103
▁꯱꯹꯲꯶	-11.7103
▁ꯀꯦꯔꯣꯂꯤꯟ	-11.7103
▁ꯍꯥꯃꯦꯡ	-11.7103
▁ꯑꯦꯕꯔꯗꯤꯟ	-11.7103
▁ꯗꯤꯌꯦꯒꯣ	-11.7103
▁ꯂꯤꯕꯔꯄꯨꯜ	-11.7103
▁ꯑꯦꯛꯁꯇꯦꯟꯁꯟ	-11.7103
▁ꯀꯣꯇꯦꯖ	-11.7103
▁ꯒꯣꯊꯤꯛ	-11.7103
▁ꯄꯦꯇꯔꯁꯟ	-11.7103
▁ꯑꯣꯏꯔꯁꯅꯨ	-11.7103
▁ꯀ꯭ꯔꯥꯎꯟ	-11.7104
▁ꯃꯦꯝꯕꯔꯁꯤꯞ	-11.7106
▁ꯌꯥꯅꯤꯡꯈꯤꯗꯦ	-11.7106
▁꯱꯹꯲꯷	-11.7107
▁ꯅꯩꯅꯩ	-11.7114
ꯃꯥꯄꯟꯁꯨꯕ	-11.7124
▁ꯗꯦꯕꯤꯁ	-11.7126
▁ꯂꯥꯆꯜꯂ	-11.7158
▁ꯍꯟꯗꯣꯛꯀꯅꯤ	-11.717
▁ꯆꯤꯡꯅꯈꯤ	-11.7195
▁ꯐꯒꯠꯍꯟ	-11.7196
ꯤꯔꯤꯕ꯭ꯔꯥ	-11.7258
▁ꯁꯦꯝꯗꯣꯛꯈꯤ	-11.7298
ꯒ꯭ꯔꯦꯇꯔ	-11.7335
▁ꯌꯦꯠꯅꯈꯤ	-11.7337
ꯀꯨꯝꯍꯩ	-11.7347
▁ꯊꯦꯝꯁ	-11.7382
▁ꯌꯥꯗ꯭ꯔꯦ	-11.739
▁ꯁꯦꯀ꯭ꯔꯦ	-11.7396
▁ꯀꯟꯁꯇꯤꯇ꯭ꯌꯨꯁꯅꯦ	-11.7397
▁ꯁꯔꯚꯥꯏꯕꯔ	-11.7397
▁ꯁꯤꯀ꯭ꯔꯦꯠ	-11.7397
▁ꯁꯨꯛꯈꯪꯈꯤꯗꯦ꯫	-11.7397
▁ꯄꯥꯔꯂꯤꯌꯥꯃꯦꯟꯇꯔꯤ	-11.7397
▁ꯄ꯭ꯔꯦꯛꯇꯤꯀꯦꯜ	-11.7397
▁ꯌꯣꯀꯣꯍꯥꯃꯥ	-11.7397
▁ꯍꯥꯏꯄꯣꯊꯦꯁꯤꯁ	-11.7397
▁ꯍꯦꯃꯤꯁꯐꯤꯌꯔ	-11.7397
▁ꯏꯁ꯭ꯂꯥꯝ	-11.7397
▁ꯑꯦꯕꯁꯇ꯭ꯔꯦꯛ	-11.7397
▁ꯔꯤꯆꯃꯟꯗ	-11.7397
▁ꯖꯦꯟꯇꯜꯃꯦꯟ	-11.7397
▁ꯇꯣꯕꯦꯀꯣ	-11.7397
▁ꯑꯥꯔꯁꯦꯅꯤꯛ	-11.7397
▁ꯑꯦꯟꯊꯣꯅꯤ	-11.7397
▁꯱꯹꯴꯳	-11.7397
ꯣꯔꯤꯖꯤꯅꯦꯜ	-11.7397
▁ꯄꯤꯀꯥꯁꯣ	-11.7397
▁ꯌꯥꯃꯥꯗꯥ	-11.7397
▁꯱꯹꯴꯱	-11.7397
▁ꯇ꯭ꯔꯥꯟꯁꯃꯤꯁꯟ	-11.7397
▁ꯂꯧꯁꯤꯜꯂꯁꯤ	-11.7397
▁ꯋꯦꯒꯅꯔ	-11.7397
▁ꯍꯪꯒꯣꯏ	-11.7397
▁ꯏꯍꯨꯜ	-11.7397
▁ꯃꯦꯅ꯭ꯋꯦꯜ	-11.7397
▁ꯐꯦꯔꯥꯔꯤ	-11.7397
▁ꯆꯤꯡꯗꯣꯜ	-11.7397
▁ꯐꯥꯎꯔꯕ꯭ꯔꯥ	-11.7397
▁ꯖ꯭ꯌꯨꯋꯤꯁ	-11.7397
▁ꯈꯨꯜꯂꯕ	-11.7397
▁ꯌꯥꯅꯆꯦ	-11.7397
▁ꯍꯥꯏꯕ꯭ꯔꯤꯗ	-11.7398
▁ꯁꯣꯁꯤꯌꯦꯂꯤꯁꯠ	-11.7398
▁ꯌꯨꯝꯂꯣꯟꯗ	-11.7398
▁ꯁꯤꯝꯕꯣꯜ	-11.7398
▁ꯃꯥꯏꯊꯤꯒꯅꯤ	-11.74
▁ꯇ꯭ꯔꯥꯏꯌꯦꯜ	-11.74
▁ꯃꯦꯊ꯭ꯌꯨ	-11.74
▁ꯆꯤꯜꯂꯝꯃꯤ	-11.7404
▁ꯐꯤꯟꯅꯤꯁ	-11.7405
▁ꯀꯥꯞꯀꯅꯤ	-11.7407
ꯁ꯭ꯇꯦꯟꯗꯤꯡ	-11.7431
▁ꯀꯧꯅꯔꯝꯃꯤ	-11.7432
▁ꯈꯨꯝꯖ	-11.7474
ꯤꯌꯦꯟꯁ	-11.7475
▁ꯅꯉꯣꯟ	-11.7481
▁ꯅꯤꯌꯣꯝ	-11.749
▁ꯈꯪꯂꯝꯒꯅꯤ	-11.7501
▁ꯅꯥꯟꯊꯣꯛꯈꯤꯕ	-11.7544
▁ꯉꯥꯡꯂꯣꯏꯗꯕꯅꯤ	-11.7551
▁ꯐꯣꯡꯒꯅꯤ	-11.7579
▁ꯉꯝꯂꯝꯒꯅꯤ	-11.7665
▁ꯆꯠꯍꯟꯈꯤ	-11.7689
▁ꯂꯣꯖꯕꯥꯟ	-11.77
▁ꯄꯕ꯭ꯂꯤꯁꯔ	-11.77
▁ꯐꯤꯠꯖꯒꯦꯔꯥꯜ	-11.77
▁ꯑꯟꯗꯔꯇꯦꯀꯔ	-11.77
▁ꯗꯤꯛꯁꯟꯔꯤ	-11.77
▁ꯄꯤꯔꯥꯃꯤꯗ	-11.77
▁ꯆꯥꯎꯔꯥꯛꯄ	-11.77
▁ꯌꯦꯡꯉꯨ	-11.77
▁ꯑꯣꯍꯤꯑꯣ	-11.77
▁ꯁꯁꯄꯦꯟ	-11.77
▁ꯂꯨꯒꯥꯅꯣ	-11.77
▁ꯄꯥꯁꯗꯦꯀꯂ	-11.77
▁ꯑꯦꯟꯊꯦꯝ	-11.77
▁ꯕ꯭ꯔꯣꯗꯋꯦ	-11.77
▁ꯍꯦꯞꯄꯤ	-11.77
▁ꯏꯊꯟꯇ	-11.77
▁ꯅꯣꯡꯌꯥꯏ	-11.77
▁ꯍꯥꯏꯐꯦꯠ	-11.77
▁ꯎꯇꯥꯡ	-11.77
▁ꯁ꯭ꯂꯥꯏꯗ	-11.7701
▁ꯅꯠꯇ꯭ꯔꯕꯗꯤ	-11.7701
▁ꯕꯣꯔꯥꯠ	-11.7702
▁ꯁ꯭ꯇꯣꯔꯦꯖ	-11.7702
▁ꯑꯦꯗꯚꯔꯇꯥꯏꯖꯃꯦꯟꯠ	-11.7702
▁ꯄꯤꯇꯔꯁꯕꯔꯒ	-11.7703
▁ꯈꯟꯒꯠꯄ	-11.7703
▁ꯃꯥꯏꯊꯤꯔꯝ	-11.7705
▁ꯕ꯭ꯔꯣꯟꯖ	-11.7705
▁ꯊꯧꯅꯤꯖ	-11.7707
▁ꯏꯟꯚꯦꯁ	-11.7714
▁ꯇꯥꯔꯣꯏ	-11.7731
▁ꯇ꯭ꯔꯣꯏ	-11.7733
▁ꯐꯒꯠꯍꯟꯈꯤ	-11.7747
▁ꯆꯃꯝꯅꯍꯟ	-11.7782
ꯈꯠꯈꯤ꯫	-11.7785
ꯦꯡꯒꯣ	-11.7786
▁ꯍꯧꯍꯟꯈꯤ	-11.7813
▁ꯌꯧꯔꯝ	-11.7822
▁ꯎꯞꯈꯤ	-11.7834
▁ꯅꯨꯡꯁꯤꯖꯈꯤ	-11.7917
▁ꯍꯣꯡꯂꯛꯈꯤ	-11.8004
▁ꯂꯦꯖꯤꯁꯂꯦꯆꯔ	-11.8013
▁ꯂꯩꯕꯥꯛꯍꯋꯥꯏ	-11.8013
▁ꯇꯥꯏꯞꯔꯥꯏꯇꯔ	-11.8013
▁ꯊꯕꯣꯝꯕꯤ	-11.8013
▁ꯏꯟꯀꯣꯔꯄꯣꯔꯦꯠ	-11.8013
▁ꯑꯄꯪꯕ	-11.8013
▁ꯑꯦꯂꯤꯖꯥꯕꯦꯠ	-11.8013
▁ꯔꯨꯖꯚꯦꯜꯠ	-11.8013
▁ꯚꯣꯂ꯭ꯌꯨꯝ	-11.8013
▁ꯅꯤꯡꯊꯧꯀꯣꯏꯕꯤ	-11.8013
▁ꯕꯐꯦꯂꯣ	-11.8013
▁ꯆꯦꯐꯣꯡ	-11.8013
▁ꯍꯦꯝꯕꯔꯒꯔ	-11.8013
▁ꯕꯦꯛꯄꯦꯛ	-11.8013
▁ꯑꯦꯇꯣꯔꯅꯤ	-11.8013
▁ꯚꯤꯂꯦꯖ	-11.8013
▁ꯄꯣꯇ꯭ꯔꯦꯠ	-11.8013
▁ꯕꯦꯗꯐꯣꯔꯗ	-11.8013
▁ꯇꯦꯅꯋꯥ	-11.8013
▁ꯑꯣꯚꯟ	-11.8013
▁ꯕꯔꯅꯥꯔꯗ	-11.8013
▁ꯆꯠꯇꯅꯕ	-11.8014
▁ꯒꯤꯂꯥꯔꯗ	-11.8014
▁ꯁꯦꯟꯗꯣꯏ	-11.8014
▁ꯀꯥꯔꯕꯣꯅꯦ	-11.8019
▁ꯆꯦꯜꯂꯝꯃꯤ	-11.8031
▁ꯂꯪꯊꯣꯛꯈꯤ	-11.8068
▁ꯌꯥꯍꯟꯂꯣꯏ	-11.8068
▁ꯊꯤꯗꯣꯛꯈꯤ	-11.8094
▁ꯆꯌꯦꯠꯅ	-11.8123
ꯤꯔꯁꯅꯨ꯫	-11.8143
▁ꯄꯥꯛꯈꯤꯗꯦ	-11.8163
▁ꯆꯠꯍꯟꯕꯤꯌꯨ	-11.829
▁ꯇꯧꯅꯩ	-11.8292
▁ꯇꯣꯈꯥꯏꯍꯜꯂꯤ	-11.8295
▁ꯑꯦꯄꯣꯂꯣ	-11.8319
▁ꯀꯅꯦꯛꯁꯟ	-11.8335
▁ꯀꯝꯃ꯭ꯌꯨꯅꯤꯀꯦꯁꯟ	-11.8335
▁ꯀꯟꯁꯇꯦꯂꯦꯁꯟ	-11.8335
▁ꯀꯟꯖꯔꯕꯦꯁꯟ	-11.8335
▁ꯀ꯭ꯔꯤꯞꯇꯣꯒ꯭ꯔꯥꯐꯤ	-11.8335
▁ꯃꯣꯅꯥꯁꯇꯔꯤ	-11.8335
▁ꯄꯣꯇꯦꯁꯤꯌꯝ	-11.8335
▁ꯇ꯭ꯔꯥꯎꯖꯔ	-11.8335
▁ꯏꯀꯣꯁꯤꯁꯇꯦꯝ	-11.8335
▁ꯏꯝꯄ꯭ꯔꯦꯁꯟ	-11.8335
▁ꯑꯜꯇꯔꯅꯦꯇꯤ	-11.8335
▁ꯑꯥꯏꯌꯣꯋꯥ	-11.8335
▁ꯑꯦꯔꯕꯦꯟꯗꯔ	-11.8335
▁ꯔꯤꯌꯦꯂꯤꯇꯤ	-11.8335
▁ꯚꯦꯂꯦꯟꯇꯥꯏꯟ	-11.8335
▁꯱꯹꯰꯴	-11.8335
▁ꯏꯟꯁꯇꯦꯟꯠ	-11.8335
▁ꯑꯦꯃꯖꯣꯟ	-11.8335
▁ꯒꯔꯦꯟꯇꯤ	-11.8335
▁ꯁꯦꯃ꯭ꯌꯨꯜ	-11.8335
▁ꯚꯦꯀ꯭ꯌꯨꯝ	-11.8335
▁ꯁ꯭ꯇꯦꯐꯦꯅꯤ	-11.8335
▁ꯖꯣꯔꯗꯟ	-11.8335
▁ꯄꯦꯔꯦꯂꯦ	-11.8335
▁ꯗꯦꯂꯤꯕꯔꯤ	-11.8335
▁ꯇꯪꯗꯨ	-11.8335
▁ꯁꯣꯂꯨꯁꯟ	-11.8335
▁ꯗꯤꯚꯥꯏꯁ	-11.8335
▁꯱꯹꯱꯲ꯗ	-11.8336
